. 26297071
, 17784306
। 17204686
के 8824944
है 6321622
में 5595537
की 5031926
" 4809493
ने 4170455
- 4052949
और 3832899
से 3332440
को 3289525
) 2964574
( 2962695
का 2743507
कि 2703628
? 2686655
पर 2406747
एक 1914726
हैं 1897224
ना 1790357
इस 1639299
' 1544654
कर 1536019
ई 1521791
ते 1505307
ओ 1491319
दे 1474197
छे 1464668
दी 1434591
लिए 1411963
नहीं 1361278
भी 1222292
तो 1171626
या 1170591
क@@ 1143957
ही 1130131
न 1125717
न@@ 1117320
किया 1114236
अ@@ 1105305
‘@@ 1094867
आहे 1035545
आ@@ 1033789
आ 1020641
एबं 999835
कहा 951316
भारत 939854
त@@ 935518
ए 921841
म@@ 914615
नूੰ 912882
हो 912541
वि@@ 910426
स@@ 905670
करे 895115
व@@ 890675
र@@ 885120
क 883581
यह 876085
ता 857419
ना@@ 857332
का@@ 847184
प@@ 825360
’ 824279
ल@@ 810720
द 807858
नी 807024
गया 793197
करने 793032
मा@@ 791611
दा 773536
त 772668
ये 771898
इ@@ 766588
र 760408
! 729076
ब@@ 724924
” 719593
ल 712665
ए@@ 711948
पा@@ 704610
एइ 702145
वा@@ 700684
था 697109
जो 693080
नि@@ 692337
सु@@ 687189
ं 679639
साथ 677231
रा@@ 672554
ग@@ 667263
“@@ 667242
ः 664853
च 654377
अते 653353
करते 651815
ज@@ 651768
कु@@ 650952
ह@@ 639954
करा 637591
ला 634515
स 634491
अने 633556
सरकार 630689
द@@ 626845
बि@@ 619058
व 618914
ट@@ 616423
ता@@ 615928
रि@@ 615571
ऒरु 611732
सि@@ 611660
बा@@ 610800
च@@ 591537
सा@@ 590301
तिनि 589549
म 584887
ज 584114
उ@@ 583263
मां 582806
ं@@ 569956
जा 560057
सी 558464
य@@ 544518
तार 541338
मु@@ 540515
टि 539397
बाद 539158
हय़ 538527
ट 537937
मि@@ 534865
थी 532270
या@@ 528076
ला@@ 527523
को@@ 527425
लु 525586
आणि 522155
लो 520113
उन्होंने 519737
वी 517540
के@@ 515434
ड@@ 508338
: 508302
गई 505893
दिया 503891
ओ@@ 503607
पि@@ 499839
आर 497987
जन्य 494220
तों 487960
विੱच 484812
कु 484368
बे@@ 483467
रहे 480319
पुलिस 479609
ले 473966
वे 473792
हा@@ 473413
कि@@ 472384
जा@@ 471961
अपने 465877
थेके 465498
कोई 462203
ति@@ 461820
वह 461213
मे@@ 459501
नु 457748
डि@@ 457333
लि@@ 454129
’@@ 453109
म् 453027
ली 450990
वे@@ 448161
न् 445869
रही 444708
हन 444130
पण 442449
स् 439373
तक 439136
मध्ये 434799
दा@@ 434132
इ 432085
टि@@ 429636
य 427803
नि 426624
च्या 426126
ने@@ 425575
मो@@ 425321
पो@@ 424922
सं@@ 424272
क् 421690
ऎ@@ 418316
ल् 415611
रे 408566
हुए 405559
गा 404963
ण 404720
लई 404650
श@@ 402596
नाल 400961
ले@@ 400272
द्वारा 400198
से@@ 399217
प्र@@ 396288
नी@@ 396286
गा@@ 395986
त् 395632
मोदी 394569
थे 392438
भारतीय 392165
किन्तु 390293
स्@@ 390258
ती 390015
चा@@ 389821
मत्तु 388013
रु@@ 387948
रो@@ 387849
गए 386788
हय़ेछे 383026
नो 381349
पु@@ 378005
एकटि 377846
सी@@ 377843
तु@@ 377719
रे@@ 377533
न्@@ 376249
रूप 376244
चे 374491
क्क@@ 373700
आमि 372374
ड 371962
उस 369788
फ@@ 368981
सिੰघ 368362
ई@@ 367982
मऱ्ऱुम् 367563
राज्य 366895
दि@@ 363573
रा 363150
े@@ 362785
चि@@ 362659
एर 361319
गु@@ 360893
देश 360732
पे@@ 358109
ो 357833
दु@@ 356400
ब 355036
1 353119
चा 352640
दो 352049
लोगों 351031
जि@@ 349345
हबे 348368
ेर 348321
तादेर 347288
हम 346314
श्री 344427
सि 343310
ण@@ 343207
मैं 342037
ൻ 339441
र् 339022
2 338555
सिंह 338155
सो@@ 335799
वर 332280
र्@@ 331936
मा 331757
रहा 331621
ख@@ 331122
कुछ 329700
दिन 328504
त्त@@ 327872
े 327597
कर@@ 327591
भ@@ 325546
विच 325197
नाही 324349
ऐ@@ 323505
ची 322288
ों 322074
वु@@ 321101
छिल 320443
रू 319258
वाले 318802
ऩ् 315253
अनेक 315240
आमरा 313956
रु 313666
प् 312942
टा@@ 312900
कै@@ 312719
खा@@ 312277
मी 311981
देर 309410
जी 307706
प 307543
क्@@ 306312
नो@@ 305623
बा 304985
इन्त 304041
चु@@ 303054
प्रधान 302808
वु 300293
प्प@@ 299647
/ 299361
जे@@ 298377
काम 297491
री 297220
गळु 295405
साथे 295334
लो@@ 294620
हे 294597
मंत्री 293358
ळ@@ 292142
अन्य 292049
वै@@ 290855
बार 290570
तथा 290197
गो@@ 289672
जी@@ 289551
हो@@ 287963
बो@@ 286915
मामले 285662
करेन 285555
क्कु 284525
कारण 283851
चे@@ 283050
इसके 281747
वी@@ 281657
टी@@ 281388
दे@@ 281264
डा@@ 281260
वुं 280707
उनके 280694
ी@@ 279543
वर@@ 277732
नु@@ 277398
ൽ 276920
तारा 276086
ो@@ 275649
ती@@ 275433
उन्हां 275080
प्रति 274575
परि@@ 273617
ते@@ 273544
पहले 272936
मी@@ 272777
आहेत 270973
इन 270925
जो@@ 270068
बी@@ 269555
थ@@ 268787
टा 267970
आमादेर 267310
नुं 267127
मै@@ 266986
जन@@ 266138
पी@@ 266044
किसी 265846
इह 265560
य़ 265485
करना 265049
बहुत 264631
ध@@ 263303
पर@@ 262822
लु@@ 262794
टे@@ 262648
वॆ@@ 262629
ॆ@@ 261981
हि@@ 261925
क्या 261729
वा 261352
अपनी 261228
तो@@ 260259
ु@@ 260187
कळ् 259195
श 259138
यु@@ 258235
निय़े 258056
फिल्म 257867
ष@@ 257755
कार@@ 256999
लेकिन 256499
ऎंदु 256023
ू 255690
बारे 255605
ली@@ 255524
शा@@ 255383
िय@@ 255089
वन्नु 254587
सङ्गे 254524
कार 253826
करार 253110
ർ 252408
नेर 252347
— 251975
भा@@ 251493
ि 251301
कई 251274
हा 250953
मे 250926
जे 250555
डी@@ 250514
ट् 250477
ङ्ङൾ 250132
त्तिൽ 248580
टी 248371
माटे 247901
यि@@ 247516
3 246759
कൾ 244482
समय 244152
त्तु 243433
िया@@ 242999
होता 242327
दिल्ली 242149
री@@ 241527
तु 241515
दौरान 241284
जु@@ 240372
5 240255
नाम 240062
एवं 239903
कीता 239477
ति 239443
ट्ट@@ 239238
आमार 238705
ऎऩ्ऱु 237309
न्नु 235921
अव@@ 235073
ग 234826
होने 234153
त्ति@@ 233361
च्चु 233106
अधिक 232797
दल्लि 232682
उप@@ 231816
करी 231799
डि 230886
उन्हें 230469
सभी 230468
सन 230060
ू@@ 229099
बु@@ 228375
बात 227997
डे@@ 227903
टु@@ 227758
प्रति@@ 227311
तबे 226600
ु 226434
डी 225636
क्कॆ 225331
करन 224915
उत्तर 224071
ताँर 224066
होते 223553
तर@@ 222863
तर 222827
गॆ 222575
10 222533
लनु 222509
ऱ@@ 221737
हय़े 221580
पि 221556
लिया 221436
ङ्कळ् 221380
ർ@@ 221153
राज@@ 220729
ंगा 220633
3@@ 220379
जब 220377
शि@@ 220006
सर@@ 219663
ल्@@ 218829
करता 218355
जारी 217740
नेइ 217621
इतु 217272
हुआ 216447
सेइ 216444
तरह 216328
कॊ@@ 216246
नां 216200
लि 215877
प्रधानमंत्री 215579
रि 215502
ै 215299
क्क 214221
ॆ 213879
गिआ 213762
विकास 213711
% 213490
हे@@ 212682
गि@@ 212506
गळन्नु 212365
माण् 212331
कूडा 211388
अनु@@ 211331
त्तु@@ 211223
क्कु@@ 210868
क्कुम् 210755
क्षेत्र 210608
न्न@@ 210247
बे 209815
लोग 209402
हुई 208922
घटना 208344
च्च@@ 207498
4 207056
फिर 206878
महा@@ 206790
नॆ@@ 206433
मॆ@@ 205940
किछु 205512
क्का@@ 204643
नं 203910
ा 203815
आप 203712
4@@ 203467
कथा 202889
कम 201252
फि@@ 201181
ा@@ 201164
2@@ 198393
की@@ 197205
कुमार 197104
शामिल 197038
रय़ेछे 196667
होती 196414
त्तिल् 196309
हर 196304
आज 195784
होगा 195775
सम@@ 195200
किहा 195120
बले 194645
ार@@ 194451
पाकिस्तान 193764
आर@@ 193538
ि@@ 193354
मात्र 193281
कल@@ 193083
जाने 192524
रुपये 192317
मुख्य 192213
सब 192169
सकता 191569
राष्ट्रीय 191431
जन 190967
सै@@ 190799
इक 190465
गळ 190428
कांग्रेस 190361
प्रथम 190121
कीती 189595
म्@@ 189260
प्रदेश 188981
6 188691
ऒ@@ 188171
चार 188098
भाजपा 187848
चाहिए 187829
ऊ@@ 187484
मान@@ 187258
यो@@ 186264
सह 186259
पास 186106
किए 186022
युं 185803
अध्यक्ष 185546
अवर् 185440
पूर्व 185278
पी 185187
स़@@ 184957
ऎन्नाൽ 184943
जांच 184577
्य@@ 184407
खान 183911
गे@@ 183337
दोनों 183085
प्रमुख 182706
उसके 182662
बीच 182640
ह 182498
टीम 182031
ंग@@ 181648
यदि 181455
बल@@ 181301
जाता 180299
हु@@ 180296
20 180077
न्त@@ 180047
ऩ@@ 179971
मू@@ 179890
नॆ 179571
त्त 178872
णा@@ 178751
‘ 178690
मुख्यमंत्री 178576
फे@@ 178461
एक@@ 178406
आदरॆ 178391
मायि 178272
पार्टी 177774
गांधी 177274
फा@@ 176871
आई 176799
न्त 176450
याय़ 175903
तील 175809
तां 175460
पू@@ 175293
बताया 175200
करा@@ 174915
खिलाफ 174791
उह 174736
दी@@ 174481
वार 174410
छ@@ 174174
हती 173670
१ 173423
त्तै 173346
ियों 172663
राष्ट्रपति 172507
देश@@ 172499
न्न 172304
ये@@ 172042
5@@ 171758
छिलेन 171635
लकु 171609
ळि@@ 171579
सॆ@@ 171014
s 170908
बि 170602
आगे 170576
ऐ 170471
क्काൻ 170426
वाली 169857
घ@@ 169544
डा 169388
प्रा@@ 169189
ी 169081
मने 169057
कॆ 168697
बी 167944
परे 167937
पुलिश 167930
19 167758
उनकी 167391
सकते 167142
काल@@ 166908
आऩाल् 166465
्@@ 166416
नथी 166076
सा 166044
माक 165519
साल 165409
कार्य@@ 165172
भि@@ 165126
भाबे 164951
डु 164785
क्क् 164646
पै@@ 164042
ञाൻ 163893
ङ्क 163844
काज 163799
् 163473
तीन 163269
अवरु 163093
बर@@ 163064
णा 162686
कॆ@@ 162174
मान 162026
नय़ 161950
प्पि@@ 161892
ै@@ 161796
लै@@ 161609
एटा 161546
दो@@ 161407
गत 161388
समय़ 161326
मौके 160992
करि@@ 160932
यू@@ 160849
ੰ@@ 160773
वेण्टुम् 160753
आपणे 160750
S@@ 160679
प्पु 160526
ৰ 160347
सੰ@@ 160215
मੰतरी 159941
उसे 159875
शन 159565
8 159474
कट@@ 158842
णी 158650
चॆय्तु 158584
वरु@@ 158311
करेछे 158067
कळै 157998
केंद्र 157832
सबसे 157800
टै@@ 157765
ज़ 157726
वि 157605
मन 157461
लोक 157429
ल्लो 157209
कोन 156607
P@@ 156404
पारे 156335
कळ@@ 156274
माय 156234
ड् 156166
न्तु 155262
दु 155198
… 155102
डु@@ 154622
मरियु 154536
ळ 154470
7 154421
णे 154316
पुर 154136
नरेंद्र 153867
कोटि 153844
यिൽ 153818
एम@@ 153607
वो 153583
जि 153389
्या 153189
आछे 153062
दि 152932
ंड@@ 152865
है@@ 152799
ऎस् 152791
झ@@ 152712
फो@@ 152497
नेता 152467
करो 152288
6@@ 152043
इदु 151933
ज़@@ 151507
वर्@@ 151057
मार@@ 150689
नट@@ 150120
– 149775
M@@ 149729
मौत 149673
ऱि@@ 149391
यांनी 149372
घर 149336
केली 149212
मामला 148974
महिला 148683
लेकर 148385
ार 148315
मर@@ 148241
19@@ 147652
्या@@ 147607
बै@@ 147432
ंग 147208
“ 147123
योजना 146666
बलेन 146602
करोड़ 146540
हच्छे 146223
ट्टु 146192
प्रदान 146165
ऱ्ऱ@@ 145843
य़@@ 145737
मन@@ 145628
शुरु 145613
ൻ@@ 145312
टो@@ 145250
इत् 145242
ੱ@@ 144610
ऩ 144350
था@@ 144310
15 144207
शुरू 144201
चू@@ 144072
राज्य@@ 144059
तॆ@@ 143366
दीआं 143252
टे 143214
ंलो 142706
लाख 142427
सुरक्षा 142307
अब 142249
क्कि@@ 142178
निर्माण 142024
निल@@ 141678
आर्थिक 141603
हल 141578
संख्या 141473
दर 141424
व् 141367
तुम 141236
गी 140741
चॆ@@ 140724
अवർ 140504
मत 140438
राहुल 140383
वर्ष 140339
न्नि 140306
धा@@ 140232
खो@@ 140197
फ 139952
भाग 139933
लेदु 139824
ट्टु@@ 139667
ठ@@ 139460
ज्@@ 139410
टु 139053
क्कुं 138922
कोनो 138919
२ 138751
ष् 138749
करेछेन 138700
काछे 138673
पट@@ 138617
जाएगा 138560
ुम् 138354
उन 138277
7@@ 138259
A@@ 138177
देने 138028
हतो 137997
करि 137878
करण्यात 137752
मुझे 137611
हूं 137593
पार@@ 137554
ण्ट@@ 137547
ंच@@ 137444
िल् 137346
12 137028
मंत्रालय 137007
अधिकारी 136838
अतु 136805
न्ऱॆ 136788
शे@@ 136702
ൽ@@ 136689
जिस 136688
देखा 136537
ुं 136451
प्राप्त 136407
एस 136258
लोक@@ 136206
सह@@ 136139
नाऩ् 135537
8@@ 135490
जाना 135336
इदि 135230
वो@@ 135055
ओर 135010
कू@@ 135004
ट्टि@@ 134966
एकजन 134950
त्तॆ 134876
पूर्ण 134786
नरेन्द्र 134723
दक्षिण 134519
50 134483
दर@@ 134460
राज 134397
डे 134366
मदद 134224
अति@@ 134075
ची@@ 133944
भू@@ 133839
दर्ज 133750
हता 133422
इससे 133262
आरओ 133141
त्@@ 132772
मि 132638
एन@@ 132617
a@@ 132540
इरु@@ 132338
अत् 132251
एस@@ 131898
दल 131722
इंडिया 131706
इसे 131430
चो@@ 131397
आर्@@ 131258
च् 131001
िया 130723
खु@@ 130460
ॊ@@ 130382
9 130206
रू@@ 130073
जीवन 130035
टर 129923
दार 129518
इन्@@ 129421
लेर 129279
ऐसा 128686
एटि 128531
बिजॆपि 128503
डो@@ 128488
कार्य 128469
सेवा 128320
हमारे 128279
C@@ 128167
णं 127996
वै 127972
पै 127920
नों 127369
क्कि 127353
थ 126984
एम 126855
जीत 126821
लाभ 126699
प्पु@@ 126453
ऒक 126298
शिक्षा 126037
कों 125931
s@@ 125738
पल 125736
वार@@ 125439
ङ्@@ 125386
करें 125374
मु 125292
ताके 125266
रै@@ 125211
सूचना 125173
इसमें 125097
णि@@ 124925
तन 124762
्य 124708
पूरी 124688
रॆ@@ 124598
ंना 124510
एकटा 123984
म्प@@ 123926
च्च् 123915
मध्य 123873
कोनओ 123840
नार 123830
सू@@ 123676
स्थिति 123547
साले 123261
वाला 123095
m@@ 123039
शी 122969
प्रतिशत 122947
स्ट@@ 122332
वागि 122099
अनुसार 122036
ॆय@@ 121941
स्थान 121741
पॆ@@ 121718
फोन 121588
शु@@ 121535
अप@@ 121243
चित्र@@ 121193
आयन 120938
माऩ 120938
तन्नॆ 120667
आप@@ 120449
प्रत्येक 120298
उंदि 120244
कारण@@ 120206
हालांकि 120142
पऱञ्ञु 120116
हागू 119884
मत@@ 119777
बॆ@@ 119766
इੱक 119723
युटॆ 119719
भे@@ 119375
केले 119339
ट्@@ 119304
िल@@ 119271
यि 119258
हर@@ 119106
ँ@@ 119057
e@@ 119004
विचार 118877
इट@@ 118807
तौर 118720
ओं 118635
स्त@@ 118613
कर्@@ 118595
30 118574
केला 118546
चुनाव 118454
ः@@ 118337
हिसेबे 118276
कारी 118159
एहि 117981
जैसे 117771
e 117726
वੱलों 117711
ऎऩ 117660
आइ@@ 117604
विशेष 117082
] 116960
केर 116952
शे 116863
ून 116829
ध 116631
राम@@ 116617
ऐसे 116594
कळिल् 116580
R@@ 116312
करके 116284
त्ता@@ 116253
[ 116214
क्ष@@ 116135
अवर्कळ् 116121
नगर 116020
ड़ 115918
बैंक 115766
बैठक 115571
विभाग 115570
कांग्रॆस् 115170
पॊ@@ 115062
दिय़े 114981
करु@@ 114945
T@@ 114916
काफी 114901
हते 114752
हमें 114725
ंब@@ 114686
क्या@@ 114605
व्यक्ति 114601
काल 114538
साठी 114453
ंचे 114411
पड@@ 114285
परिवार 114193
पुतिय 114111
प्पा@@ 114041
उपस्थित 114000
त्तिन् 113997
अलग 113886
क्कुन्नु 113524
9@@ 113452
पिछले 113428
काही 113404
पा 113342
पॊलीस् 113223
शर्मा 113059
ंत 113004
25 112948
बहु@@ 112841
अर@@ 112769
ज् 112719
बीजेपी 112592
प्रकार 112465
च्चु@@ 112436
शुं 112423
घोषणा 112421
कुल 112400
निकि 112356
देओय़ा 112305
ताइ 112275
पत्र 112125
चेशारु 111976
छा@@ 111952
मेरे 111704
ंचारु 111671
प्रधानमन्त्री 111498
द्@@ 111386
निर@@ 111316
यहां 111061
खे@@ 110939
केन 110866
इत@@ 110803
पल@@ 110499
क्कुन्नत् 110336
आई@@ 110241
11 110234
वाद 110181
विल् 110037
एं 110018
केंद्रीय 109920
हां 109879
केन्द्र 109781
त्या@@ 109643
तिरु@@ 109595
ंनी 109374
खबर 109277
भूमिका 109270
आं 109262
असे 109183
तू@@ 109083
D@@ 109011
ंद@@ 108989
शो@@ 108957
कार्यक्रम 108848
d@@ 108823
स़ 108774
प्रकाश 108665
य्@@ 108601
कळुं 108573
सामाजिक 108542
मो 108521
ऱु@@ 108513
अं@@ 108503
B@@ 108423
लै 108215
य़ 107906
न्स 107759
हय़ेछिल 107730
p@@ 107654
ड़@@ 107471
निर्@@ 107418
सामने 107387
क्योंकि 107317
अभी 107288
त्तिऩ् 107280
राम 106907
श्री@@ 106873
सर्@@ 106764
ब्या@@ 106748
ल्ल 106734
करण 106713
हाल 106638
अभि@@ 106558
बिभिन्न 106549
जबकि 106451
मुंबई 106252
t@@ 106191
होगी 106171
फ़@@ 106127
भाग@@ 106126
अगर 106108
ङ्क@@ 105928
14 105734
परंतु 105698
ताऩ् 105616
100 105557
दिੱता 105547
बर्@@ 105487
उच्च 105307
गळल्लि 105279
नल्लि 104997
मीडिया 104865
वर् 104817
च्च 104705
संबंध 104662
अनि 104417
कानी 104396
ऩ्@@ 104359
मैन 104359
छि 104288
अस@@ 104281
ंस 104247
३ 103983
नई 103840
निय@@ 103720
कल 103674
श्@@ 103661
पोलीस् 103656
आरोप 103423
सदस्य 103249
चीन 103179
दू@@ 103021
क्रिकेट 102811
कपूर 102722
हार 102624
ड्@@ 102507
2020 102440
ही@@ 102371
अयिते 102341
वीडियो 102255
i@@ 102176
तार@@ 102076
सरकारी 102005
अन@@ 101990
अथवा 101932
पता 101922
त्तिन्ऱॆ 101862
रुपए 101802
टॆ@@ 101796
क्कुन्न 101435
िल्ल 101419
दूर 101381
1@@ 101192
अ 101119
दॆ 100995
ौ@@ 100986
अद्देहं 100947
अपना 100874
क्कुक 100816
जिसमें 100745
दुइ 100574
ंची 100544
सर 100541
पश्चिम 100538
ियु@@ 100484
ंच्या 100390
ळ् 100311
अट@@ 100235
सिनिमा 100208
दिੱती 100203
मेलुम् 100198
ार् 100146
पੰजाब 100103
याण् 99894
िलॆ 99797
गुलो 99772
सेना 99564
बार@@ 99470
दूसरे 99263
अत@@ 99211
ित 99197
नानु 99166
पाल@@ 99139
कारणे 99117
चाला 99110
नतुन 99099
अलावा 99071
बेशि 99009
य् 98855
ारे 98844
निङ्ङൾ 98822
आपनि 98757
महाराष्ट्र 98704
कंपनी 98502
यखन 98470
भारतेर 98334
पिता 98288
सब@@ 98098
ष्ट@@ 98091
ऒंदु 98051
सहित 98020
नंतर 97875
य़ा@@ 97861
बल 97772
अन्त 97753
ैयुम् 97622
अब@@ 97535
शेष 97459
केवल 97360
व्@@ 97246
योग 97124
ण् 97075
16 97039
ख 97017
धि@@ 96950
भारी 96787
ंट 96736
नै@@ 96690
राष्ट्र 96494
घा@@ 96421
एमन 96405
आले 96388
आधार 96325
विविध 96309
उपलब्ध 96300
ग्@@ 96267
बिषय़े 96238
शक्ति 96214
कृषि 96070
५ 96068
द्द@@ 96063
तॊ@@ 95975
18 95940
पोलीसुलु 95797
कम@@ 95760
पूरा 95682
िय़ा 95571
थाके 95551
सचिव 95440
चार@@ 95270
सेर 95199
ळा@@ 95040
उसकी 94998
४ 94977
a 94973
पर्यन्त 94920
त्यांनी 94885
क्र@@ 94790
जानकारी 94691
फै@@ 94629
हमने 94614
मोदि 94468
कळुक्कु 94423
N@@ 94386
ैय@@ 94374
षा@@ 94157
ारा 94134
गुलि 94056
बग्गॆ 94050
अल@@ 94039
तहत 94033
चिल 93965
आवी 93899
अर्@@ 93886
णि 93817
ारु 93715
तखन 93700
मंदि 93420
एल@@ 93357
गे 93300
ऎऩ्ऩ 93290
त्या 93040
म्या@@ 93024
एल 93005
l@@ 92930
h@@ 92897
भर 92892
अधिकार 92837
नटि@@ 92795
इल्लै 92755
आम 92751
वहीं 92740
बिरुद्धे 92730
नाम् 92651
ओइ 92631
13 92604
उसने 92458
र्कळ् 92412
करेंगे 92333
2019 92210
खुब 92151
्र@@ 91982
ऎल्ला 91981
इं@@ 91959
पद@@ 91850
य़@@ 91827
वल@@ 91817
परीक्षा 91728
ार्@@ 91722
ंदि 91684
पुर@@ 91638
बर 91587
ल्ल@@ 91583
काय 91582
करवामां 91558
ंत@@ 91448
ड़ा 91358
जल 91357
प्रदर्शन 91356
निर्णय 91257
ज्यादा 91152
उपयोग 91121
विभिन्न 90967
ऱा@@ 90896
पद 90873
पाइँ 90845
भो@@ 90769
अवर 90768
न्नु@@ 90750
होर 90731
चाल@@ 90615
इन@@ 90611
च्चि@@ 90267
मह@@ 90150
त्ति 90134
शा 90114
बड़ी 90107
ट्र@@ 90090
वतु 90066
ऒरु@@ 89989
ियिൽ 89963
आय@@ 89889
ङ्कु 89877
केस 89870
आली 89792
ियां 89746
स्वास्थ्य 89733
माने 89731
मार 89651
चर्चा 89643
पक्ष@@ 89604
ळ्ळ@@ 89336
0@@ 89261
o@@ 89243
I@@ 89185
अ्या@@ 89089
ंट@@ 89081
पक्षे 88823
नुंचि 88780
स़न 88735
गी@@ 88713
17 88631
एफ@@ 88616
अभियोग 88599
ंचा 88559
बनाने 88539
रिपोर्ट 88451
सलु 88389
कोर्ट 88218
चै@@ 88049
स्व@@ 87922
इसका 87836
ंचिन 87833
मार्@@ 87659
सौ@@ 87617
य़ेर 87462
क्कुकयुं 87418
पर्@@ 87405
ंड 87375
चि 87273
ब्@@ 87268
क्स 87161
न्ना@@ 87007
बन 86945
इसलिए 86890
संयुक्त 86875
किऱतु 86860
आस@@ 86815
दुर्@@ 86753
पति 86723
कळिऩ् 86683
तेओ 86675
इन्तिय 86606
उनका 86554
ख़ुदा 86529
तैयार 86529
त्त् 86502
विश्व 86394
c@@ 86389
सार@@ 86377
रिय@@ 86349
24 86307
धारा 86286
आने 86220
ड़े 86124
प्रो@@ 86074
शी@@ 85999
उपर 85957
E@@ 85896
दाखल 85837
ओय़ा@@ 85784
i 85748
आदेश 85731
पिटि@@ 85728
मेर 85695
ङ्कळिल् 85600
शाह 85600
रात 85530
जॆ@@ 85514
ठा@@ 85513
स्ट 85506
ऎऩ्ऱ 85493
ैयिल् 85485
ग्रा@@ 85328
ङ्ङळुं 85276
ट्ट 85198
इतर 85035
उळ्ळ 84957
माण@@ 84926
40 84855
कला@@ 84843
न्नत् 84833
हय़नि 84734
लोकसभा 84718
प्रश्न 84711
नीति 84683
केउ 84595
पति@@ 84533
स्तर 84521
समस्या 84465
हॆ@@ 84409
बंद 84376
६ 84368
नावु 84355
निन्न् 84340
ट्टि 84290
दिके 84231
समा@@ 84109
जय@@ 84046
चौ@@ 84028
द्दु 84018
सम्@@ 83977
जू@@ 83942
षि@@ 83882
तम 83879
च्चत् 83817
देशों 83800
सारे 83776
समूह 83767
रो 83652
झाला 83475
सिंग् 83458
लिआ 83415
हतुं 83357
ऑफ 83356
ंद 83337
यहोवा 83298
फी@@ 83278
मुੱख 83148
ar@@ 83143
चॆय्य@@ 83071
ङ्ङळिൽ 83058
लक्ष 83049
तुमि 83034
रक्षा 83029
मौजूद 82953
क्रि@@ 82942
झाले 82855
b@@ 82848
्ट@@ 82769
क्षमता 82760
सकती 82729
यॆ@@ 82681
भु@@ 82568
मौ@@ 82557
णी@@ 82551
गि 82534
अरचु 82501
वळ@@ 82420
उचित 82331
हत्या 82296
सभा 82247
तॆ 82215
पे 82039
जहां 82036
मिल@@ 82017
पुरस्कार 81995
संबंधित 81866
जल@@ 81863
2018 81797
अमित 81794
इर@@ 81764
मॊ@@ 81761
r@@ 81648
ियुटॆ 81589
विरुद्ध 81559
कश्मीर 81534
करेछिलेन 81528
शहर 81308
माध्यमे 81285
t 81208
जवाब 81175
तल@@ 81124
ढ@@ 81075
रिहा 81032
ऎ 81030
कोसं 80990
पोलीस 80923
दुनिया 80920
कळुम् 80908
७ 80900
राष्ट्र@@ 80795
नजर 80731
ट्रे@@ 80662
रीते 80660
स्ता@@ 80654
देशेर 80583
लॆ@@ 80571
पार्@@ 80570
बाअद 80559
निक 80544
परिस्थिति 80530
ऱ्ऱु@@ 80513
तब 80472
अधि@@ 80402
समर्थन 80379
त्यांना 80353
बद@@ 80160
G@@ 80153
मुख@@ 80145
ेन 80141
कळिൽ 80046
जै@@ 80000
इल्ल 79998
नीङ्कळ् 79993
रां 79986
ब्यबहार 79948
वरि@@ 79945
करत 79830
मतो 79824
लाल 79816
तिय@@ 79809
ऱ्ऱ् 79777
चल 79759
स्थान@@ 79749
विधानसभा 79699
मुतल् 79626
उत्तर@@ 79552
८ 79484
मैच 79436
मिल 79358
चित्रं 79329
प्रे@@ 79318
चले 79225
मृत्यु 79222
य़े 79180
व्या@@ 79168
ऑ@@ 79158
टेस्ट 79118
बड़ 79118
स्पष्ट 79076
अस्पताल 79004
नर 78971
अर्थ 78964
गण@@ 78958
1.@@ 78898
स्थित 78822
पण@@ 78635
सके 78633
ऩै 78603
अमेरिका 78563
ख़@@ 78524
विरोध 78510
स्त 78500
पक्ष 78476
अमै@@ 78430
नेनु 78405
हार@@ 78392
द् 78377
आला 78373
ळि 78317
विल@@ 78279
वुम् 78277
संस्थान 78276
ध्यान 78241
ट्रा@@ 78147
यारा 78125
ग्रहण 78098
वां 78012
ियि@@ 77971
करती 77956
कॊटु@@ 77779
जनता 77720
पहली 77693
ऎस्@@ 77570
दिए 77557
निർ@@ 77528
लिये 77482
नए 77453
बाहर 77340
क्षेत्रे 77206
द्बारा 77163
गंभीर 76923
डॆ@@ 76923
कौ@@ 76879
चेय@@ 76805
टन 76794
लोकां 76704
ङ्कळै 76668
प्रचार 76618
ऎं 76477
सत्य@@ 76467
उळ्ळतु 76440
मुम् 76406
मला 76319
आपण 76315
सन्@@ 76310
मूल@@ 76230
ळु@@ 76182
यं 76110
आपनार 76105
ॆयन्नु 76073
पाल 76060
टिर 76052
झाली 76041
21 76034
पंजाब 75881
दिवस 75847
गुर@@ 75821
ंचिंदि 75759
२@@ 75758
n@@ 75652
लगभग 75621
दिंद 75609
गुजरात 75592
झा@@ 75524
दिन@@ 75495
भर@@ 75456
आए 75395
साधारण 75389
कभी 75302
विश्वास 75295
बड़ा 75277
असीं 75261
चॆय्त@@ 75220
सर्व 75175
ंग् 75095
F@@ 75010
मूल 75006
प्रि@@ 74898
ताक 74880
य़े@@ 74861
कम् 74859
भाषा 74767
कुमार् 74663
ल्या@@ 74574
ियुं 74542
िला@@ 74285
गॆ@@ 74227
नाम@@ 74226
ऎं@@ 74181
माहिती 74177
भ 74163
बेर 74111
सामान्य 74084
होए 74056
लू@@ 74051
तरफ 73756
जीव@@ 73647
अवसर 73607
कां@@ 73589
मिक 73579
चर@@ 73525
12@@ 73421
त्र@@ 73416
2017 73407
आपको 73389
धु@@ 73387
प्रधानि 73359
समस्त 73294
तू 73285
करबे 73270
ൾ 73261
बेश 73189
जाते 73184
पाठ@@ 73122
कॊण्टु 73118
आर् 73054
जाती 72993
होंगे 72944
H@@ 72817
आपल्या 72812
त्यामुळे 72773
जग@@ 72748
अदालत 72743
10@@ 72595
g@@ 72566
माड@@ 72564
इੰ@@ 72551
जम्मू 72503
वारु 72503
पत@@ 72482
रन 72475
एखनओ 72406
देखते 72374
समिति 72345
करवा 72274
कोविड 72270
पड़े 72209
ल्लि 72107
ट्टा@@ 72071
प्रेम 72056
ऩा@@ 72048
गळिगॆ 72041
इसकी 72027
ऩर् 72020
L@@ 71977
भारतीय़ 71863
अवൻ 71845
थई 71808
तोमादेर 71716
परमेश्वर 71666
मूलक 71653
९ 71631
u@@ 71613
िय़ा@@ 71594
क़@@ 71511
वागिदॆ 71471
ारा@@ 71463
लागू 71432
कता 71398
िले@@ 71313
करेगा 71310
वरा@@ 71260
सालेर 71242
अर्थ@@ 71221
कण@@ 71177
मिली 71153
al@@ 71137
बन@@ 71131
बना 71085
लोनि 71023
y 70974
यात्रा 70907
विऩ् 70902
करीब 70898
भार@@ 70822
अल्लतु 70814
पौ@@ 70809
फले 70808
कार्@@ 70718
कां 70717
यार 70693
ऱ्ऱ 70673
होय 70497
20@@ 70481
महत्वपूर्ण 70417
उद्योग 70405
प्@@ 70386
वात 70370
500 70332
वरुकिऱतु 70278
न्नि@@ 70203
पांच 70188
गर्@@ 70158
इस@@ 70147
डर 70122
प्रक्रिया 70047
आरोग्य 69877
पालन 69851
्त@@ 69850
ारी 69845
ऱ्ऱि@@ 69841
नगर@@ 69723
नव@@ 69617
विषय@@ 69595
दान 69588
प्पो@@ 69563
भाष@@ 69508
भाल 69477
तै@@ 69458
ष 69457
कं@@ 69367
अधिकारियों 69354
o 69291
लाग@@ 69280
न्तु@@ 69275
ब्रा@@ 69267
एते 69261
क्स् 69244
करछे 69200
फैसला 69197
इसी 69172
ललो 69169
ट्ट् 69154
िल्ल@@ 69104
उण्टा@@ 69069
ण्टा@@ 69060
िक 68918
तरीके 68898
बं@@ 68892
निर्देश 68891
पत्नी 68829
पुलीस 68824
कळा@@ 68818
कमा@@ 68799
अੰ@@ 68691
1,@@ 68666
मेलॆ 68605
बड़े 68593
आरोपी 68577
रंग@@ 68556
ंप@@ 68535
छेन 68531
बोर्ड 68502
प्रदेश@@ 68364
बछर 68330
माध्यम 68327
य़ा 68247
रूप@@ 68247
आदि 68198
वरुम् 68079
निश्चित 68078
ऎन्@@ 68037
स्ब@@ 68001
मल@@ 67998
नर@@ 67955
नीवु 67950
ियो@@ 67922
तरी 67899
सारा 67876
न्या@@ 67850
इन्त्यൻ 67819
्यं 67812
कमी 67783
लं 67765
ब्यबस्था 67741
पीएम 67719
कॉ@@ 67677
उप 67628
त्रि@@ 67582
काय@@ 67566
वय@@ 67566
ष्@@ 67559
k@@ 67534
सेखाने 67531
ৰ@@ 67528
मै 67523
राज्यों 67510
चट्ट@@ 67500
वरॆ 67451
विचार@@ 67432
न्स् 67389
स्थ@@ 67353
कादु 67317
भारती 67308
धन 67293
पिर@@ 67292
60 67239
सीमा 67170
चर्@@ 67168
नाय@@ 67163
हमारी 67137
परा@@ 67126
ऐसी 67115
द्र@@ 67073
ञ्च@@ 67067
मं@@ 67045
तमे 66950
लों 66950
अनुमति 66866
ൺ 66837
सिं@@ 66779
म्म@@ 66770
फर@@ 66746
ड़ 66730
टॆ 66687
राजा 66667
पडि@@ 66646
फीसदी 66631
मेरी 66610
आशा 66557
मैंने 66528
पिरतमर् 66517
अम@@ 66454
ण्ट् 66221
ियिल् 66218
बस 66181
गृह 66122
दिते 66099
व्यक्त 66098
अदि 66086
अळि@@ 66072
मांग 66067
देशा@@ 65996
स्टे@@ 65911
ण्@@ 65860
वർ@@ 65848
मात्रं 65798
बला 65781
O@@ 65749
मंत्रि 65744
योग्य 65703
देन 65603
पु 65562
देय़ 65535
अतिरिक्त 65508
क्किऱतु 65467
सां@@ 65464
मारा 65431
सहयोग 65426
हरि@@ 65351
भाई 65343
ब्र@@ 65332
वऴि@@ 65329
कडे 65322
हले 65312
अभिनेता 65269
जां 65216
आं@@ 65180
वहि@@ 65167
प्ला@@ 65101
देख@@ 65039
घे@@ 65037
इतिल् 65015
यिरुन्नु 64914
मत्तिय 64886
धर@@ 64853
राख@@ 64828
तोमार 64810
धन@@ 64805
बिजेपि 64746
नू@@ 64675
यो 64637
ऎन्न 64635
बिहार 64583
मानुष 64434
ंक 64428
त्तिऱ्कु 64405
जान@@ 64340
कत 64335
गॊ@@ 64317
यिऩ् 64280
युद्ध 64278
सभ 64269
नल्ल 64255
दींतो 64204
माजी 64189
साइ@@ 64185
भी@@ 64156
आग 64112
काम@@ 64076
लक्ष्य 64039
जाएगी 63933
मुटि@@ 63933
गिरफ्तार 63915
कीते 63910
वीं 63901
हाथ 63881
कं 63854
सोशल 63817
जिल्ला 63797
ऎऩ्पतु 63789
विय@@ 63772
न्यायालय 63770
22 63753
ंचि 63747
चित्र 63717
तोमरा 63675
गळ@@ 63638
टर्@@ 63633
रों 63626
पाणी 63600
उत्तम 63522
कोरोना 63480
जाए 63447
ळ्ळ 63383
S 63338
वित्त 63329
0 63322
दੱसिआ 63307
न्ततु 63281
ठ 63252
देते 63235
माडि@@ 63231
पाओय़ा 63223
वरिष्ठ 63178
18@@ 63159
पार 63135
एफ 63102
उत@@ 63045
फु@@ 62985
सरकार@@ 62945
मध्य@@ 62935
जर 62920
द्द 62880
ताकि 62863
कळुटॆ 62787
इन्त्य 62774
परिणाम 62774
वानी 62761
विजय@@ 62754
चॆय्@@ 62731
ऩि@@ 62672
लगा 62650
नीति@@ 62631
कट्ट@@ 62604
भूमि 62581
फल@@ 62580
याबे 62575
सात 62567
कुझ 62538
मीरु 62521
ष्ट 62500
खा 62470
षन् 62449
ൾ@@ 62415
सवाल 62406
सु 62395
200 62372
ंगे 62353
रण@@ 62351
उपयोगि@@ 62344
er@@ 62328
ँ 62325
सल@@ 62325
समेत 62294
१० 62287
शन@@ 62246
चम@@ 62212
य्क्क् 62195
होई 62190
मੰ@@ 62131
धी@@ 62128
नियम@@ 62120
सुव 62119
स़ा@@ 62026
्रा@@ 62025
अधिकार@@ 62018
ॆयुं 62016
मुळ्ळ 61933
क्कुन्न@@ 61929
बू@@ 61915
करुन 61913
आयोजित 61901
यान 61899
उसका 61898
ऴ@@ 61880
आम@@ 61851
कारन 61847
तेल 61842
आपणी 61820
आधारित 61778
घायल 61758
ताँके 61743
तुं 61730
गुरु@@ 61689
सർक्काർ 61677
इतिहास 61641
याद 61623
भारत@@ 61605
पूरे 61562
आता 61554
थि@@ 61525
वरै 61497
प्प् 61493
जातीय़ 61492
नुंडि 61490
पटि@@ 61487
येते 61460
रेल 61459
माल@@ 61439
तायि 61410
धो@@ 61397
उन्नायि 61319
यावुदे 61313
at@@ 61269
मामलों 61259
वॆ 61255
मिळ@@ 61240
क्षेत्रों 61188
आयोग 61186
अल्लाह 61184
f@@ 61167
ऱि 61160
तैरि 61147
जिसके 61141
आमाके 61124
विट@@ 61101
नम्म 61076
अंश 61065
लभि@@ 61054
वन 61036
पाट@@ 61012
ङ्ङळ@@ 61007
दरज 60997
ैयै 60994
कीमत 60961
गेछे 60961
५@@ 60955
त्य@@ 60926
मन्त्री 60879
ंदा 60847
अल्ल 60806
बाल@@ 60799
क्रम@@ 60789
V@@ 60770
तं 60769
विटु@@ 60723
कयुं 60646
हुं 60641
६@@ 60619
एखाने 60586
लुं 60585
ियिऩ् 60539
मध्य़ 60536
आमॆ 60535
समाज 60504
क्यों 60450
बाजार 60447
व्य@@ 60439
डॉ 60433
िलुम् 60433
लतो 60400
ङ् 60347
कारा@@ 60338
देव 60306
धरनेर 60303
कै 60273
बस@@ 60136
लक्ष@@ 60067
in@@ 60057
हासपाताले 60045
मूलम् 60030
जवा@@ 60025
दार@@ 59995
जनक 59937
काण@@ 59924
नाण् 59908
रण्ट् 59906
बिशेष 59899
माऱ्ऱ@@ 59885
इन्हां 59841
कैसे 59809
ारि@@ 59808
िय़े 59785
नौ@@ 59742
एऱ्ऱवुं 59651
गर@@ 59612
हजार 59603
द्दारॆ 59572
मुळे 59540
आम् 59533
ियाण् 59491
लिय@@ 59482
णु@@ 59385
बयान 59361
शके 59325
अभिनेत्री 59300
ळी 59289
साहाय्य 59218
अभियान 59212
कर् 59144
िलो 59136
थो@@ 59085
समान 59031
भालो 59028
ताँदेर 58960
सही 58947
स्प@@ 58934
वर्कळ् 58902
यांच्या 58855
कुऱित्तु 58832
तदन्त 58807
त्र 58798
औ@@ 58785
इल्ल@@ 58778
हॊ@@ 58763
उण 58648
अदु 58643
यू 58632
कूटुतൽ 58617
इस्तेमाल 58598
उल्लेख 58495
कन@@ 58478
लेन 58463
मां@@ 58455
यु 58454
चेष्टा 58452
धी 58442
फोटो 58432
ट्स 58423
शेषं 58407
प्राय़ 58355
जिले 58300
पानी 58250
नवी 58241
उद्@@ 58231
यदिओ 58218
पेश 58178
थिबा 58168
2.@@ 58162
जॆ 58088
मनो@@ 58073
ग्राम 58058
१९@@ 58045
मिला 58044
भूमि@@ 58002
उदाहरण 57992
पेर् 57944
ैप् 57932
पंतप्रधान 57923
आवश्यक 57917
वामां 57915
ंदु 57863
सिद्दारॆ 57816
वाद@@ 57806
महीने 57788
नल 57742
तॆलिपारु 57731
तून 57729
an@@ 57652
कदम 57635
ल्ला@@ 57620
उत्पादन 57615
बनी 57568
प्रभुत्वं 57511
लेने 57503
C 57500
पट्ट@@ 57491
आव@@ 57489
ऎऩ् 57435
कੰम 57430
छि@@ 57415
प्रस्तुत 57334
मक्कळ् 57331
वजह 57309
झ 57303
बाबा 57302
ठिक 57255
,000 57158
क्कॆ@@ 57155
होना 57152
मरण@@ 57115
िय़ार 57038
धर्म 57013
ठीक 56998
दोन 56980
एका 56952
अऱि@@ 56947
नुकसान 56935
नाहिँ 56920
ल्प@@ 56919
सं 56913
वੱख 56908
ंड् 56873
उੱते 56869
एका@@ 56851
व्यवस्था 56821
जिन 56796
्ल@@ 56790
नागरिक 56785
कर्नाटक 56726
मीतु 56723
िलुं 56664
रखा 56662
टो 56658
खूब 56626
विषय 56626
हिस्सा 56619
अंतिम 56611
शो 56531
प्पट्ट 56513
बेन 56504
दाबि 56405
इय@@ 56378
तिन 56346
गार 56317
आगामी 56279
जिसे 56253
कोൺग्रस् 56230
मार्ग 56200
वॆळि@@ 56197
यहोवाह 56185
A 56155
वाय@@ 56141
सिदरु 56134
er 56108
अवरुटॆ 56104
िलाण् 56071
न्यू@@ 56053
राजस्थान 56048
देव@@ 56036
लगा@@ 56032
गुण@@ 56030
्प@@ 56011
चं 55982
पैदा 55966
पिरि@@ 55902
साधि@@ 55837
ब्य@@ 55830
धरे 55818
तेइ 55815
दिनों 55796
w@@ 55793
त्तिरु@@ 55789
मार्च 55748
कृत 55732
रै 55716
तलै@@ 55630
दिली 55612
सो 55608
80 55600
न्न् 55587
बेकु 55573
जात 55553
संघ 55526
उन्न 55512
पत्र@@ 55494
जाण 55493
क्के@@ 55464
छ 55451
पय@@ 55441
कार्रवाई 55428
बच्चों 55396
वस्तु@@ 55393
स्त्री@@ 55367
अन्यान्य 55347
प्रधानमन्त्रि 55317
छे@@ 55292
मेरा 55277
वृद्धि 55260
बन्ध@@ 55255
सार 55237
कानून 55226
हों 55214
विज्ञान 55208
जानान 55185
किसे 55146
करु 55106
रेर 55104
संगठन 55076
असून 55068
विदेश 54955
K@@ 54943
करण@@ 54941
गयी 54841
हमले 54834
ारि 54809
ग्रामीण 54766
y@@ 54760
डं 54747
बळ@@ 54730
िलि@@ 54663
युक्त 54653
आलोचना 54626
सिद 54583
हओय़ार 54568
पाटु 54554
रहने 54535
क्स@@ 54482
खि@@ 54477
कौर 54475
चुके 54430
मायिरुन्नु 54429
रेलवे 54427
छबि 54417
प्राथमिक 54400
अथबा 54370
इन्तिया 54306
मुख्यमंत्रि 54302
ुलु 54286
वधु 54262
2016 54261
करेछिल 54221
्यु@@ 54208
तथ्य 54199
ईश्बरेर 54161
कूट्ट@@ 54106
ंडि 54049
नडॆ@@ 54045
आण् 54032
सेटा 53998
घटनाय़ 53934
यादव 53860
सार्वजनिक 53850
स्थापित 53843
बना@@ 53804
कुल@@ 53790
कुऱै@@ 53724
3.@@ 53719
केन्द्र@@ 53718
इआ 53700
वारि 53691
ऩाल् 53689
णार 53681
रॆंडु 53681
जुड़े 53647
कॊण्टु@@ 53625
वाल 53622
वलिय 53613
७@@ 53608
तन@@ 53583
क्त 53566
स़ुरू 53552
उद्धार 53503
दूर@@ 53494
मुताबिक 53480
क्ट@@ 53476
धर्म@@ 53453
अच्छा 53436
तेर 53436
त्याला 53430
स्त्री 53429
ऎन्ऱॆ 53419
तट@@ 53400
इल@@ 53399
ग्र@@ 53378
फ् 53371
क्कार@@ 53346
ल्ला 53321
सिर्फ 53316
ज्ञान 53290
कवुम् 53282
कारवाई 53255
माऩ@@ 53249
उंटुंदि 53235
समय@@ 53204
दें 53200
अत्यंत 53151
23 53144
कुटुंब@@ 53120
प्रयास 53111
बन्@@ 53105
उच्च@@ 53102
पारि 53087
ऱ 53068
पासून 53063
ग्रे@@ 53026
v@@ 53000
येन 52997
देता 52989
वान 52941
इरुक्कुम् 52907
गुलिर 52894
ण्या@@ 52892
द्ध@@ 52838
पहिलां 52824
नामे 52820
सक@@ 52807
मूल्य 52795
अध्यक्ष@@ 52776
तेने 52772
जान 52756
निम्म 52738
वं@@ 52737
महि@@ 52706
घु@@ 52683
70 52678
देखील 52662
ऎटु@@ 52661
आग@@ 52660
सड़क 52599
ियाक 52583
हरियाणा 52567
मऩ@@ 52558
अंग@@ 52551
वें 52532
आहत 52528
टिय@@ 52503
तर्हां 52501
चेसिन 52476
ऱ्@@ 52474
चाहते 52456
ियै 52455
इतऩाल् 52412
वहां 52392
तुटർन्न् 52384
सुरू 52366
बनाया 52346
मजबूत 52338
डो 52318
जिससे 52275
न्ड 52255
नटि 52248
लैंड 52232
ड़ा@@ 52221
बन्ध 52184
उन्@@ 52133
धर 52132
दन 52130
फा 52124
राजकीय 52124
लोको 52102
लगातार 52090
वरकु 52061
नेर@@ 52060
ैक् 52042
आया 52038
खी 52036
हासिल 51931
in 51926
ङ्कि@@ 51925
जानते 51896
धे 51896
लगाया 51865
\@@ 51848
तपास 51831
बने 51821
शिव@@ 51820
ियिरु@@ 51820
यॆ 51815
तः 51811
३@@ 51799
ऱो@@ 51792
कळु@@ 51776
म्हणून 51769
नार@@ 51768
तन्न 51762
बदल 51762
अवर@@ 51748
वत@@ 51723
ेऩ् 51702
ननि 51694
एखन 51686
ऱिय@@ 51679
गल 51678
ओपर 51669
क्षेत्र@@ 51621
हल@@ 51603
चर 51571
कत@@ 51566
पोलिसांनी 51561
टम् 51545
सत्य 51534
दर्@@ 51517
बिश्बास 51512
स्तुंदि 51512
आल@@ 51508
दिल 51497
उळ्ळ@@ 51495
करदे 51494
तसेच 51493
उपा@@ 51484
_ 51462
ंः 51444
ൻऱॆ 51428
वन@@ 51415
नेता@@ 51413
खास 51402
मेंट 51371
ंचु@@ 51370
रोहित 51335
कोहली 51329
ल्या 51271
वरु 51198
छो 51195
बहु 51148
थाय 51132
एहा 51066
स्वा@@ 51038
चालक 51026
अली 51014
खुद 51006
नियम 51004
जन्म 51001
जरूरत 50980
मरि@@ 50980
पऱ्ऱि 50977
स्टा@@ 50953
मन्त्रि 50950
जीबन 50949
तुम्हारे 50916
्च@@ 50915
क्कॊ@@ 50868
क्कू 50851
विश्व@@ 50813
थीं 50812
कुमार@@ 50810
न्ट 50787
अन्@@ 50780
समाधान 50742
खेल 50731
सांसद 50712
करे@@ 50684
र्त@@ 50678
ंदि@@ 50670
टाका 50648
अੱज 50631
कळि@@ 50595
यी 50595
कप् 50590
इतु@@ 50587
ੰदर 50583
कव@@ 50561
ऎन्न् 50548
उल@@ 50487
पॆरु@@ 50480
गठन 50479
बांलादेश 50458
रुव 50423
पॊलीसरु 50411
धार@@ 50394
मांथी 50389
रह@@ 50382
प्पटु@@ 50322
बल्कि 50318
गल@@ 50240
15@@ 50226
विल्लै 50211
विजय 50203
माल 50161
ताहले 50149
अधिनियम 50120
व्यापार 50102
सुधार 50080
गੱल 50074
नग@@ 50048
कोर्@@ 49983
रह्या 49982
ंच 49948
तॊटर्न्तु 49944
‎@@ 49937
८@@ 49924
२० 49913
आम्ही 49908
इरुन्तु 49901
ॉ@@ 49900
28 49897
नॊ@@ 49888
क्रम 49864
इऩ्ऩुम् 49853
गू@@ 49853
न्ना 49825
ोम् 49794
षा 49768
कळैयुम् 49748
कुऱि@@ 49747
चल@@ 49702
१@@ 49668
13@@ 49662
िले 49624
4.@@ 49613
I 49607
दलेर 49598
रुम् 49591
संस्था 49581
कुम् 49579
सृष्टि 49535
6.@@ 49533
तिर 49523
16@@ 49522
ंक@@ 49521
ह्या@@ 49519
प्रमाण 49500
तम@@ 49489
याक 49459
ॆयल्लि 49446
एक्@@ 49442
रोग@@ 49441
इरुक्किऱतु 49431
मनि 49417
पालि@@ 49413
निजेर 49389
रखने 49369
अगले 49352
प्या@@ 49350
माडु@@ 49305
निक@@ 49297
तात 49279
रहि@@ 49258
तिर@@ 49241
स्तुन्नारु 49240
बिना 49232
स्कूल 49203
बॉ@@ 49186
शेर 49186
जिला 49181
प्रवेश 49163
पछी 49148
it@@ 49106
त्यांच्या 49106
वाहन 49103
णेर 49088
रत 49077
स्तु@@ 49068
साध्य@@ 49064
31 49062
इऱ@@ 49062
नोर 49024
कहना 49021
वू 48990
सहायता 48990
उद्देश्य 48982
न्नारु 48965
मुक@@ 48948
ंतो 48940
अधीन 48937
ੰग 48936
मारे 48914
ीआं 48910
इरा@@ 48885
सम्मान 48867
फल 48861
़ 48850
छो@@ 48832
बिषय़ 48822
कൾक्क् 48819
सिदॆ 48818
जगह 48795
एनु 48785
िला 48782
तर्वात 48779
सिन 48737
कार्ड 48719
मंदिर 48712
प्रश्न@@ 48705
शब्द 48674
देशे 48659
चॆय्य 48641
मर्@@ 48640
अंतर्गत 48630
माता 48592
धा 48591
ङ्कु@@ 48582
होत 48568
होइआ 48557
क्कां 48548
केन्द्रीय 48547
लर 48535
किसानों 48533
संरक्षण 48528
प्रशासन 48522
सुनिश्चित 48503
प्रभावित 48493
हित 48477
यिहोबार 48455
लार 48452
26 48451
जल्द 48432
पोतु 48429
मानुषेर 48416
न्ड@@ 48397
भाव@@ 48385
युव@@ 48379
संसद 48318
ट्रि@@ 48259
लय@@ 48153
कर्यो 48146
प्रकाशित 48144
प्रणाली 48134
पड़ा 48129
घट@@ 48103
संभवि@@ 48103
व्यक्ति@@ 48094
अरु@@ 48063
नाथ 48059
सारी 48044
त्ते@@ 48041
णु 48033
देख 48004
क्काऩ 47999
ऎनिक्क् 47995
पुनर्@@ 47980
निवेश 47933
ॅ@@ 47905
वळरॆ 47888
जनरल 47881
सरकारेर 47867
विराट 47855
अटि@@ 47828
सलमान 47821
१५ 47808
हादसे 47794
हाई 47792
़@@ 47790
गर 47747
सृष्टि@@ 47747
९@@ 47740
नीचे 47736
एकइ 47729
कळॆ 47724
रकम 47705
14@@ 47697
हिसाबे 47696
अमेरिकी 47690
वाढ@@ 47683
पं@@ 47645
न्याय@@ 47629
वल्ल 47616
करबेन 47603
दिੱली 47602
सिद्धान्त 47592
ढा@@ 47551
िय़@@ 47528
ऎतिर्@@ 47525
शिक्ष@@ 47511
स्टि@@ 47487
आवश्य@@ 47472
छिलाम 47453
हेगॆ 47417
बद्ध 47413
स्पे@@ 47397
लें 47374
पोलिस 47372
निलै@@ 47371
पारेन 47368
पहुंच 47329
लां 47277
अशी 47275
सामना 47274
मालि@@ 47272
नेओय़ा 47222
ॊ 47211
वारी 47192
ऱ्ऱु 47189
लिखा 47181
आरोग्य@@ 47176
तीर्@@ 47176
प्पै 47125
तेमणे 47063
देना 47046
W@@ 46997
निङ्ङळुटॆ 46989
क्को@@ 46959
पथ@@ 46959
ट्वीट 46958
रक्ष@@ 46933
विमान 46909
वापस 46906
उन्न@@ 46900
अतै 46896
ंमध्ये 46873
000 46866
ऊर्जा 46865
ियन्नु 46856
मनुष्य@@ 46852
ताण् 46846
बेहतर 46836
चला@@ 46777
ऎऩक्कु 46774
उंड@@ 46724
ठे@@ 46712
ञङ्ङൾ 46701
छाड़ा 46667
उपरे 46660
शासन 46645
मुख्यमन्त्रि 46644
–@@ 46632
यॊक्क 46608
पेർ 46602
or@@ 46591
नियंत्रण 46585
निन्नुं 46569
टिंग 46568
नू 46555
ियॆ 46543
मृत 46493
पोली@@ 46479
आज@@ 46476
2014 46472
30@@ 46468
यही 46464
मुलाकात 46436
कला 46434
मानव 46416
कुऱ्ऱ@@ 46369
सुप्रीम 46357
एन 46355
लाइ@@ 46351
ड़ी 46344
लुगा 46340
गाय@@ 46323
शेयर 46322
अटै@@ 46308
मुक्त 46256
चेसिंदि 46247
दिशा 46223
साम@@ 46212
जून 46205
ंदा@@ 46195
सभ@@ 46169
टार 46151
मोबाइल 46134
जार 46125
ार्कळ् 46109
दूसरी 46101
पारि@@ 46101
कप्तान 46095
वुदु 46086
ऎन्न@@ 46082
जम्मु 46050
श् 46044
नाग@@ 46008
दाख@@ 45973
डिय@@ 45936
गिदॆ 45896
कलि@@ 45879
यिरु@@ 45867
मल 45848
विरु@@ 45796
स्टो@@ 45795
परिषद 45794
35 45782
स्थाना@@ 45776
नाङ्कळ् 45771
कल्याण 45752
मक@@ 45745
४@@ 45715
क्रा@@ 45708
तेनी 45697
त्मक 45673
शील 45667
समय़े 45641
ज्ञा@@ 45598
थे@@ 45570
क्कणं 45562
घटनार 45556
फार@@ 45544
तेना 45528
ब् 45523
मिल्ल 45495
आधुनिक 45478
णॆ 45463
अवधि 45455
तरु@@ 45442
गार@@ 45422
क्काक 45389
90 45383
ऩै@@ 45379
शिकायत 45372
ॆय 45363
कोशिश 45356
गो 45354
िलु@@ 45341
वॉ@@ 45302
h 45297
सकल 45280
चुकी 45272
थिले 45272
वण@@ 45259
ऎल्ल@@ 45188
ऩार् 45175
तम्म 45172
अल्लाहु 45158
आवे 45158
गुलोर 45141
नदी 45126
कीभाबे 45121
केन्द्रीय़ 45099
थिला 45085
आपके 45067
वध@@ 45063
सूची 45056
वालों 45027
स्था@@ 45014
लाम् 45001
स्ट् 44995
अन्त@@ 44958
स्थ 44948
सुरक्षित 44944
नाकु 44903
सुविधा 44892
7.@@ 44885
फ्र@@ 44854
सलागिदॆ 44830
ऎला 44829
रॆ 44819
असा 44817
ल्स 44783
किस 44766
कांगरस 44763
योगदान 44740
प्रशिक्षण 44736
गान 44727
आयोजन 44703
स़ामल 44699
संशोधन 44682
उ 44674
सफल 44673
अच्छी 44671
पान 44656
यिलॆ 44653
न्द्र 44648
मुण्ट् 44611
x@@ 44595
सुख@@ 44571
ऎन्त 44567
टेर 44544
ऩतु 44528
27 44519
निऱ@@ 44497
टऩ् 44476
क्षे@@ 44464
ग्राम@@ 44449
केसु 44448
टर@@ 44440
25@@ 44420
किसान 44406
अल 44402
अन्नारु 44398
पुलिशेर 44396
ंचा@@ 44393
पुत्र 44375
अंत@@ 44370
तुलना 44370
मुऱै 44356
देस़ 44345
उनसे 44324
”@@ 44324
टां 44316
बनाए 44302
पॊतु@@ 44280
मिकवुम् 44271
वाई 44263
क्किय@@ 44258
इलाज 44249
क्कम् 44242
सांस्कृतिक 44232
लं@@ 44225
र्स 44211
शिक्षण 44210
जर्@@ 44207
इरण्टु 44201
बलते 44152
न्निल्ल 44151
जमा 44141
विषयं 44128
राजनीतिक 44114
माना 44099
कंग्रेस 44074
2,@@ 44068
अतऩ् 44030
तिया@@ 44028
ड़@@ 44021
मल् 44010
ीर 44006
कहते 43993
U@@ 43986
मोदी@@ 43986
उऱ@@ 43984
एच@@ 43962
यीशु 43957
सन@@ 43957
पुरुष 43952
शांति 43946
समि@@ 43941
अपील 43874
कूड 43864
रह 43864
चिल@@ 43862
मंड@@ 43856
कडून 43851
०@@ 43851
काणि@@ 43848
इरु 43834
पात्र@@ 43821
तम् 43816
स्वीकरि@@ 43804
चॊ@@ 43795
लॉ@@ 43752
आक@@ 43738
ख़िलाफ़ 43736
सੱ@@ 43718
निते 43712
गै@@ 43701
वरि 43680
दरु 43669
उट@@ 43649
ऎऴु@@ 43645
योग@@ 43643
संपूर्ण 43642
हॆच्चु 43630
कॊळ्ळ@@ 43587
ॆटु@@ 43564
जरूरी 43562
पाइ@@ 43548
छात्र 43543
re@@ 43529
हत 43527
वच्चे 43515
5.@@ 43481
ऎऩ्ऱुम् 43477
मात्रमे 43426
भूत 43358
गये 43355
पक@@ 43353
दल@@ 43343
ॆयु@@ 43341
बोल@@ 43333
पिऩ्ऩर् 43332
किऱ@@ 43323
बाद@@ 43316
शर@@ 43288
्लो 43284
जानिय़ेछेन 43259
आइ 43244
राक 43237
सिनिमा@@ 43231
अति 43220
समारोह 43207
सम्पर्के 43191
सम्मेलन 43179
तल् 43168
सबचेय़े 43155
स्री 43152
एरपर 43146
त्याने 43142
राह@@ 43125
हरा@@ 43111
ग़@@ 43109
वर्तमान 43094
पोस्ट 43088
नही 43069
कष्ट@@ 43062
च्चिट्टुण्ट् 43053
भारत् 43051
संगीत 43044
राज्येर 42991
ब्ल@@ 42983
लाइन 42961
यात्र@@ 42954
सुयोग 42943
कॊळ्@@ 42935
ज्या@@ 42923
कुऱ@@ 42909
आबार 42888
वॆळ्ळ@@ 42875
राज् 42872
घोषित 42859
नः 42855
िल्@@ 42832
बिषय़टि 42824
विट्ट@@ 42815
फिलहाल 42800
आत्म@@ 42786
मंजूरी 42761
आट@@ 42756
प्पटुम् 42755
प्रार्थना 42711
शाख 42706
सहाय@@ 42705
मॆन्न् 42674
१२ 42635
ऴु@@ 42613
क्त@@ 42610
वർ 42591
संपर्क 42585
ें 42583
इच्छा 42582
आवश्यकता 42576
त्ती@@ 42574
करोना 42569
हात 42565
त्तिलॆ 42559
नम@@ 42556
वं 42551
करिबा 42540
भाजप 42526
दिक 42521
भार 42514
बंगाल 42510
विकसित 42474
वर्ष@@ 42446
रक्त@@ 42444
प्रकरण 42443
बो 42431
2015 42418
रिया 42412
ठि@@ 42394
न्ति 42388
अंत 42376
प्ৰ@@ 42374
ैये 42352
दान@@ 42341
त्ब 42330
ंट् 42329
तै 42320
ड़ी 42305
ल्लि@@ 42296
हूँ 42291
िलेक्क् 42288
लगता 42287
घटना@@ 42275
वऩ् 42269
तिरि@@ 42247
पिन्नीट् 42234
सकदा 42209
न्ति@@ 42189
जनेर 42186
लाने 42154
0.@@ 42148
वक्त 42148
ताते 42123
कट्टु@@ 42115
महिलाओं 42112
प्रभाव 42106
सला@@ 42100
मार्किन 42098
नवा@@ 42067
मिले 42066
ॊरु 42052
कारणं 42051
त्तिय@@ 42047
रोग 42040
पुरा@@ 42028
रुक्कु 42025
जोर 42010
दावा 42001
ब्यापारे 41996
हलो 41996
सवा@@ 41992
ताँरा 41991
संघ@@ 41989
ळे 41976
करून 41963
ओने 41959
द्बितीय़ 41958
ब्रि@@ 41940
आन@@ 41933
च्चिरुन्नु 41928
जीवन@@ 41923
यर 41906
कराया 41897
राजनैतिक 41877
वत 41873
प्रयोग 41872
75 41863
हेळि@@ 41852
्यो 41837
१९ 41837
विधि 41822
राजधानी 41818
हैः 41802
तॆरिवि@@ 41780
पात 41777
जित 41775
ंगी 41742
चला 41741
भय@@ 41718
प्रस्ताव 41714
येमन 41704
नमोदु 41697
पाति@@ 41697
ंवर 41689
शिवसेना 41688
ऩा 41623
कॊण्ट@@ 41609
नाना 41584
िलुळ्ळ 41584
सीट 41581
ण्ण@@ 41580
गेल 41567
उसी 41564
गू 41519
कण्ट@@ 41515
छु@@ 41488
ण्टु@@ 41474
कूट@@ 41445
तक@@ 41441
कॊण्टिरु@@ 41431
ळु 41424
आल 41404
हमेशा 41397
प्रय़ोजन 41391
राहुल् 41385
अय@@ 41376
शुधु 41375
ताओं 41374
दैव@@ 41363
मुकाबले 41310
विदेशी 41310
समी@@ 41307
ड़ा 41306
फाइ@@ 41304
वऴ@@ 41299
विवर@@ 41282
ळी@@ 41269
इदे 41251
हाइ@@ 41249
चाइ 41231
कन्@@ 41229
पथ 41222
मळ@@ 41209
विध@@ 41185
उठा@@ 41183
स्टार 41174
उम्मीद 41154
हालत 41149
स्थानीय 41148
प्रयत्न 41141
सभापति 41118
मय@@ 41110
आइन 41100
िलिरुन्तु 41100
स्थानीय़ 41086
नम्मुटॆ 41066
उससे 41030
रसूल 41018
8.@@ 40983
सर्ब@@ 40970
वृ@@ 40965
सकदे 40956
अद@@ 40941
ज्यारे 40924
पनि@@ 40909
पह@@ 40903
वाह@@ 40898
० 40897
दुटि 40879
प्रेरित 40860
तयारि@@ 40815
पहचान 40811
बलेछेन 40810
हाजार 40807
अतु@@ 40800
कारि@@ 40793
चलछे 40792
लेदा 40780
जाण@@ 40778
मऱु@@ 40755
पुऱ@@ 40749
मऱ्ऱ@@ 40749
उत्@@ 40735
पर्यंत 40719
कृष्ण 40717
तिऱ@@ 40714
आयु@@ 40704
ऎऩ्ऱार् 40697
कृ@@ 40687
जण 40679
गिर@@ 40676
कर्म@@ 40675
निलै 40662
दास 40654
वल 40637
गांव 40634
लाभ@@ 40622
रिया@@ 40620
विट्टु 40620
सुधी 40617
आय 40615
स़ि@@ 40605
तੱक 40603
चॆप्पारु 40595
ङ्का@@ 40587
राय@@ 40581
पुरुष@@ 40569
गौ@@ 40562
त्व@@ 40557
प्रौद्योगिकी 40540
पूर्वी 40538
करेगी 40488
फ़ 40479
ऎंदरु 40438
राज्या@@ 40431
बान 40413
तीव्र 40409
त्तार् 40404
कॊन्नि 40398
पात्र 40395
अऱिवि@@ 40380
लाव@@ 40365
इष्ट@@ 40347
पहला 40324
कठिन 40320
ड्र@@ 40319
वतऱ्कु 40314
बिजली 40307
बता 40298
32 40293
बातचीत 40290
ध्@@ 40284
येखाने 40263
अफ@@ 40250
विज@@ 40246
णो 40225
प्पॆ@@ 40210
रूपा@@ 40187
आन्तर्जातिक 40182
17@@ 40181
अपराध 40133
कोट@@ 40133
निजी 40121
समावेश 40102
अन्वेषणं 40092
29 40091
पोलीसे 40088
पटु@@ 40080
3,@@ 40075
प्री@@ 40074
चलते 40052
अੱ@@ 40043
इउ@@ 40040
डॉलर 40030
शीर्ष 40006
विजय् 40002
बाल 39976
टू@@ 39974
क्कप्पट्ट 39969
देण 39963
द्दरु 39944
गुरिंचि 39937
केट@@ 39924
युद्ध@@ 39912
११ 39909
कथ@@ 39905
साध@@ 39902
बहुदु 39883
गळि@@ 39879
द्य 39872
ननगॆ 39862
मना@@ 39849
कार्या@@ 39829
ङ्ङ@@ 39819
मृ@@ 39799
an 39796
उङ्कळ् 39791
अङ्ङनॆ 39790
बॉलीवुड 39769
क्कुप् 39764
सिं 39740
याय़नि 39719
ंगा@@ 39709
अवऩ् 39705
रिगॆ 39703
विरोधी 39696
मण@@ 39669
गॊळि@@ 39651
ळं 39649
चॆय्यु@@ 39643
जदों 39637
वुक्कु 39635
णॆ@@ 39619
इनमें 39617
पसंद 39600
याच्छे 39578
जोईए 39501
जीबी 39493
पूर्ब 39485
सीबीआई 39481
पूर@@ 39463
ण्यात 39438
संजय 39420
बरा@@ 39416
क्कॆतिरॆ 39409
त्तुं 39404
सुर@@ 39390
बृद्धि 39389
गति 39368
सांगितले 39366
ंडि@@ 39363
क्कू@@ 39362
मुख्य@@ 39359
किये 39350
मतदान 39348
ियल्लि 39344
अनुभव 39335
सलाह 39333
राजा@@ 39316
नेतृत्व 39311
क्ष 39300
गुरुत्बपूर्ण 39296
क्कळ् 39288
आनंद 39276
टुम् 39268
ॆगॆ 39266
तुसीं 39257
ञ्ञु 39252
बੰ@@ 39246
E 39244
पटेल 39243
कटि@@ 39242
य़ा@@ 39236
देखा@@ 39230
परिबारेर 39226
हाते 39215
ट्टिल्ल 39207
तेज 39196
माय@@ 39188
वादी 39188
ड़े 39153
तय@@ 39151
परमेस़ुर 39130
300 39126
गिय़ेछे 39126
वाक 39124
चाहता 39123
खाद्य 39122
प्पट@@ 39122
इल 39110
अंदि@@ 39104
जाति 39082
45 39081
बता@@ 39078
च्चा@@ 39067
दॆ@@ 39066
न्नुं 39065
नायि 39061
क्टर 39056
संबंधी 39034
देखे 39024
सद@@ 39020
दिनेर 39014
हू@@ 39012
च्छ@@ 38988
जर@@ 38975
हवाई 38969
मुऱै@@ 38952
समग्र 38947
लॆ 38945
वट@@ 38937
विचारणै 38933
ण्टि@@ 38924
तऩ् 38908
धू@@ 38903
अक@@ 38897
उरुवा@@ 38885
टुत्त@@ 38878
प्पट्टतु 38874
विभाग@@ 38871
जेल 38868
ण्याची 38857
कळाण् 38845
वाट@@ 38841
जाणकारी 38837
फ्रे@@ 38834
सहि@@ 38827
भर्ती 38825
क्सि@@ 38819
चु 38813
मैय@@ 38810
विधायक 38790
प्रत्ये@@ 38764
+ 38759
चुका 38754
राय 38754
लगे 38750
वरुकिऩ्ऱऩर् 38733
सुत्तदॆ 38717
सिൽ 38704
वर्ग 38689
मॊत्तं 38687
नटत्त@@ 38671
साफ 38645
दिले 38623
वुदिल्ल 38619
कुलु 38588
जीवि@@ 38582
ठी 38554
ण्यासाठी 38551
कोटति 38515
ळा 38509
ज़ा@@ 38488
सकूल 38487
नष्ट@@ 38482
नेताओं 38467
समां 38450
इरुन्ततु 38446
स्थि@@ 38439
ां 38423
पन 38410
ऩ्ऱु 38391
चरण 38389
d 38381
न्नति@@ 38378
१४ 38376
मरो 38369
इदॆ 38364
िये 38351
जणा@@ 38325
ज़ि@@ 38322
नल@@ 38316
गु 38307
जेला 38291
सर्व@@ 38286
कैतु 38281
ंतॆ 38280
प्रधान@@ 38270
त्यानंतर 38249
एँ 38247
सल 38235
यांना 38228
छात्रों 38221
सानूੰ 38199
स्ऱ्ऱ@@ 38194
दै@@ 38190
रं 38176
विधि@@ 38176
तिट्ट@@ 38171
कॊत्त 38169
तऱ्पोतु 38151
फिरे 38149
दौ@@ 38142
रुप@@ 38140
ट्टै 38131
वाऴ्@@ 38131
थाकबे 38108
तमाम 38103
राहत 38103
खाली 38098
लिल्ल 38093
तरा@@ 38089
फोटो@@ 38081
आपी 38079
मोटि 38076
करिछन्ति 38063
न्य@@ 38061
P 38041
ज़ा 38023
अमे 38010
प्पिल् 37996
ऐस 37992
संस्कृति 37992
ऴि@@ 37966
आरंभि@@ 37945
कर्युं 37943
लुम् 37939
समु@@ 37935
दिय़ेछे 37934
भेज 37909
नाय 37908
प्त@@ 37897
चाइ@@ 37882
विकेट 37873
तारपर 37851
त्तॆ@@ 37844
म्पि@@ 37828
तलैवर् 37825
प्ले@@ 37818
जु 37808
` 37794
सम्बन्धे 37792
घो@@ 37779
अर 37772
इति@@ 37755
ৰ्@@ 37745
तऩतु 37717
ट्टुण्ट् 37715
न्तार् 37704
टिक 37676
पोलीचार् 37676
ब्यक्ति 37675
चॆय्त 37665
हओय़ा 37659
स्ट्र@@ 37642
वाग@@ 37639
ङ्कळुक्कु 37621
पारटी 37613
याचिका 37599
धि 37598
प्राचीन 37598
गिय़े 37595
षൻ 37592
वൻ 37577
समस्य@@ 37571
प्रकारं 37567
किऱार् 37547
तुले 37534
लाम 37526
डै@@ 37524
पीछे 37523
तेजी 37519
कमेटी 37505
फैसले 37498
तल 37489
आपणा 37487
करेछि 37479
बढ़ 37472
खर्च 37467
अवरिगॆ 37464
हय़ेछेन 37445
्पा@@ 37443
च्चि 37434
मौजूदा 37416
करछि 37412
गाने 37406
लिमिटेड 37405
तुम् 37399
केरळ 37393
ऴ्@@ 37361
पेर 37345
अप्रैल 37344
में@@ 37332
मात@@ 37329
दीप 37316
परिचित 37297
एर@@ 37212
दर्श@@ 37209
मुൻ 37204
मट@@ 37197
es 37190
टाटा 37182
विधान 37179
am@@ 37174
करो@@ 37171
छोटे 37169
| 37168
निर्दिष्ट 37149
कੰ@@ 37147
संभव@@ 37147
ृ@@ 37143
टुं 37141
परियोजना 37138
मानसिक 37123
सामे 37115
ह्@@ 37085
रिल् 37082
्ला@@ 37082
स्थापन 37069
निर्धारित 37056
विवाद 37045
स्वी@@ 37041
त्तिय 37040
क्री@@ 37029
उੱ@@ 37025
व्यवस्थ@@ 37024
GB 37023
पॆय@@ 36990
आरो 36987
ൻस् 36986
चार्@@ 36967
मई 36963
निरवधि 36954
लेख@@ 36953
ङ्कळ@@ 36950
वेण्टि 36948
कॊण्ट् 36940
यिनि 36938
अना@@ 36934
असर 36934
ऎंब 36932
अदन्नु 36930
मगर 36914
मुद्दे 36911
बिल 36903
उन्नारु 36884
जना@@ 36874
on@@ 36859
ऎल्ला@@ 36847
बच्चे 36840
हसपताल 36835
चेसि 36825
त्तारॆ 36818
ंदु@@ 36807
याते 36749
9.@@ 36743
भविष्य 36729
सफ@@ 36726
ट्रेन 36702
तुम्ही 36694
वही 36693
आव्या 36692
बलि@@ 36691
ङ्कळिऩ् 36685
करनी 36681
नंबर 36679
मति@@ 36659
बांलादेशेर 36656
अवरतु 36655
काले 36639
सेव@@ 36616
जन्@@ 36598
बास 36597
ट्स् 36588
किंवा 36576
महान 36575
कम्प@@ 36568
ic@@ 36559
क्किय 36556
जन्ये 36545
संस्थ@@ 36542
राइ@@ 36541
ऎऩ्प@@ 36534
त्तुक्कु 36504
लौ@@ 36502
,@@ 36499
आद@@ 36496
k 36488
करछेन 36488
पोस्ट@@ 36488
लੱ@@ 36487
चंद्र@@ 36478
निऩै@@ 36445
पाया 36445
मरु@@ 36439
ल्ले 36439
ळ्@@ 36403
अग@@ 36388
अन्नि 36383
खर@@ 36375
वੱ@@ 36367
सभा@@ 36365
त्याच्या 36340
अटुत्त 36336
प्प 36333
येत 36332
हॊस 36324
समयं 36314
उम्मीदवार 36312
ममता 36306
िय़ान 36294
ंडा 36286
विशेष@@ 36284
णॆन्न् 36266
तेचिय 36263
निर्मि@@ 36259
बੱ@@ 36257
तोंदि 36248
गड़े 36234
पल्वेऱु 36233
यात 36219
सौथी 36212
ॆयि@@ 36203
शव 36198
क्ला@@ 36190
शक@@ 36190
50@@ 36189
पाकिसतान 36187
तिੰन 36186
क्लि@@ 36175
मधील 36170
तुल@@ 36153
सम्भब 36140
य़ार 36138
शक्त@@ 36108
बृ@@ 36077
नागरि@@ 36073
दरम्यान 36056
निर्बाचन 36051
रॆड्डि 36036
स्वीकार 36012
देओय़ार 36007
अमित् 35994
क्कप्पट्टतु 35989
वऴि 35966
अतिल् 35959
करू 35947
तिक 35935
बन्धु@@ 35914
मर 35907
निलैयिल् 35905
विश्वविद्यालय 35904
दिय़ेछेन 35903
स्थापना 35902
वच्चु 35899
अध्ययन 35896
J@@ 35888
न्याय 35881
क्षण 35862
विळ@@ 35862
इविटॆ 35850
सक्षम 35845
ल्ट@@ 35844
प्पट्टु 35839
199@@ 35831
मात्र@@ 35829
मणि@@ 35825
गण 35798
पदक 35796
वच@@ 35788
ऩम् 35745
तृ@@ 35744
नन 35738
अवु@@ 35721
ूर् 35714
्रि@@ 35710
रण्टु 35708
नल्ल@@ 35705
लने 35704
नया 35701
ऐतिहासिक 35689
आർ@@ 35688
परीक्ष@@ 35688
पद्धति 35684
्लु 35684
चिकित्सा 35667
संस्था@@ 35653
त्तदॆ 35650
साबका 35642
महाराष्ट्र@@ 35640
थशे 35636
ऎल् 35625
ङ्ङळॆ 35625
निज 35616
पाकिस्तान@@ 35612
भाइ 35604
राजनीति 35603
सबੰधी 35602
ol@@ 35601
एऩ् 35599
बाकी 35592
198@@ 35591
ंचडं 35588
सेन 35587
जिसका 35574
दीपिका 35569
ड़ि 35554
त्रा@@ 35547
आसे 35539
प्ल@@ 35524
लिदॆ 35515
कह 35510
ंचाडु 35508
आण@@ 35503
ब्रे@@ 35501
वीर@@ 35498
इलाके 35479
स्वयं 35446
म्हणाले 35426
श्रमि@@ 35426
अने@@ 35423
प्रबंधन 35418
पोऩ्ऱ 35388
हिंदी 35388
बेटे 35383
भाव 35374
मून्न् 35357
रिऩ् 35352
किछुइ 35323
उनमें 35310
द्या@@ 35305
प्पतु 35288
दश@@ 35273
मिलने 35246
केल 35230
वायरस 35229
शास्त्र@@ 35210
अदे 35193
वैश्विक 35174
चॆल@@ 35164
ऱिൽ 35157
बाधि@@ 35154
ग्री@@ 35149
सरि@@ 35122
छुं 35119
छेः 35109
पोलॆ 35099
ऎन्नि@@ 35054
रंग 35051
सർ@@ 35040
बाइबल 35011
ॆयु 34998
कदेर 34987
रं@@ 34979
ङ्ङळुटॆ 34973
जनवरी 34967
सेना@@ 34922
त्ताऩ् 34920
लागत 34907
सर्कार 34905
ंदनि 34903
आफ् 34900
कौन 34891
निंद 34885
जारि 34869
ंद्र 34862
स्पष्ट@@ 34860
ट्च@@ 34846
त्यारे 34838
प्रसाद 34823
करिथिले 34822
ग्रेफतार 34811
इवर् 34809
कोर@@ 34808
ञ@@ 34798
थइ 34798
ऩि 34793
करदा 34758
सिद्ध@@ 34734
कोट्लु 34730
फॆ@@ 34729
ऋ@@ 34725
जिल्ला@@ 34721
दाम 34721
ऎम् 34702
इद@@ 34693
इदन्नु 34687
प्रवർत्ति@@ 34678
तेमना 34677
बादी 34669
ण्ट 34657
खे 34653
डानिकि 34647
तळ@@ 34642
वाई@@ 34622
रोक 34619
मरा@@ 34615
शुल्क 34613
व्यवसाय 34609
T 34593
किऱार्कळ् 34593
मार्ग@@ 34593
न्नू 34588
तुलु 34525
ण्ड@@ 34522
चरि@@ 34520
रोजगार 34510
नवी@@ 34509
सोबत 34509
नीर् 34501
धार 34497
इतै 34492
कट 34491
माइ@@ 34481
हीन 34480
लेल्या 34479
ञ्@@ 34474
एड@@ 34463
वजों 34412
गिन 34385
नियुक्त 34376
मल्ल 34372
सदस्यों 34360
साक्ष@@ 34343
भिडिओ 34334
परिबार 34320
मनं 34317
किट@@ 34315
नटत्ति 34277
होइ@@ 34263
मुख 34261
अनिल 34245
मंचि 34237
चॆंदिन 34228
मारा@@ 34228
त्तिलाण् 34219
तीसुकु@@ 34197
वरुं 34197
el@@ 34189
राशि 34181
ञ्ञ@@ 34179
कटन्त 34178
काङ्किरस् 34177
un@@ 34175
हमला 34175
सम्प@@ 34168
१६ 34168
कप 34167
मिशन 34158
अऱियिच्चु 34157
l 34153
पडु@@ 34152
फर्@@ 34152
स्कू@@ 34152
गीत 34125
वित्तीय 34115
मारी 34101
आश@@ 34100
पदा@@ 34087
गेले 34078
स्टेशन 34076
प्पोൾ 34067
पीठ 34054
छात्र@@ 34035
गांधी@@ 34030
जन्म@@ 34028
लपै 34015
केजरीवाल 34012
प्रवा@@ 34005
कुटि@@ 33998
नाहीत 33993
साय@@ 33981
तव@@ 33956
मुटियातु 33947
होणार 33946
कुं 33939
युवा 33934
उपचार 33933
टल 33929
पाक 33928
रवि@@ 33927
सत@@ 33926
पोर्@@ 33925
ैत् 33917
सने 33908
खाते 33906
ळर् 33900
क्यू@@ 33890
सम्पर्क 33888
उत्त@@ 33868
नायक 33853
कॊण्ट 33849
साह@@ 33838
तं@@ 33832
तमिऴ् 33832
आवेदन 33818
बढ़ाने 33811
स्थिति@@ 33802
भावना 33797
राखा 33797
क्कविल्लै 33792
सबाइ 33781
करण्यासाठी 33767
यिहोबा 33767
ळॆ 33762
जार@@ 33749
माझे 33748
सूचि@@ 33746
भारते 33738
दिव@@ 33736
बचा@@ 33732
थेकेइ 33728
निर्वहि@@ 33726
भवन 33725
यन 33714
ंटि@@ 33707
केइ 33705
आद्य 33702
केरल 33702
नम्म@@ 33702
दरकार 33701
न्नॆ@@ 33694
हॊर@@ 33675
प्रमाण@@ 33670
ंदी 33659
मळी 33654
ऎफ् 33648
क्कवुम् 33630
शरीर 33623
त्तुक् 33615
रहिछि 33615
कुन्न 33606
काजे 33603
जुलाई 33600
ऱ्प@@ 33597
अवरन्नु 33596
निൽ 33585
नर्@@ 33580
सेल 33580
अपेक्षा 33575
अशा 33565
आव्यो 33555
नालु 33555
जावेगा 33547
लिन 33546
कभाबे 33539
किर@@ 33531
१३ 33515
राजनाथ 33502
पूर्ति 33501
काव@@ 33494
चेर्@@ 33488
बिल@@ 33469
ऎऩ्पतै 33468
किऱेऩ् 33451
कऴि@@ 33445
200@@ 33442
लੰ@@ 33428
ठा 33417
बर्तमाने 33412
काणु@@ 33408
दिल@@ 33392
दित 33391
कह्युं 33386
क्ट 33381
ऎऩवे 33380
किंग 33370
पणि@@ 33367
कक् 33360
छोट 33348
गन 33344
प्रचार@@ 33335
तें 33334
ताना 33333
उठ@@ 33296
स़ी 33287
ताल् 33286
सिर@@ 33275
विमान@@ 33273
नुळ्ळ 33264
डन 33259
चाहीदा 33255
पुतु@@ 33254
बेटी 33253
तीव्र@@ 33250
पੱ@@ 33250
व्यापक 33241
कू 33221
ट्रो@@ 33218
ण्याचा 33215
धार्मिक 33206
हमारा 33201
माना@@ 33196
शक्ति@@ 33192
होण 33183
बीर 33175
छन्ति 33172
पोताना 33166
चित 33159
इन्त्य@@ 33147
खूप 33139
अरब 33136
मिलेगा 33133
इद्दरु 33131
जरूर 33129
राज्यपाल 33128
मानिल 33126
अनुमान 33125
शातं 33123
लता 33120
पासे 33103
िलॆ@@ 33100
अच्छे 33098
अवसरं 33081
पुल@@ 33070
ध्या@@ 33068
आध्यात्मिक 33062
दॊ@@ 33060
इलावा 33036
ऩु@@ 33033
दिआं 33011
बौ@@ 33009
तेमने 33002
एलाकाय़ 32993
अंतरराष्ट्रीय 32987
कीऴ् 32967
ईमान 32960
चालु 32959
आदमी 32958
देशीय 32958
बाड़ि 32952
लिल् 32950
पूजा 32945
हेळिदरु 32945
नाय़ 32944
हिंदू 32931
फार्@@ 32930
अभ@@ 32923
ऎप्पटि 32916
मॊदल 32914
बार्@@ 32909
फोर्@@ 32907
कस 32904
ग् 32892
रस 32892
अऩैत्तु 32891
सना 32883
दिला 32881
श्र@@ 32880
निहत 32875
त्तैयुम् 32861
चॆप्प@@ 32853
विराट् 32850
ष्टा@@ 32847
गागि 32835
खुबइ 32832
यांची 32831
पेट्रोल 32830
अल्ल@@ 32825
कंपनियों 32824
न्द@@ 32819
इनकार 32815
लग@@ 32814
ंदे 32812
म्पु@@ 32799
किलोमीटर 32795
संख्या@@ 32792
संविधान 32791
अण@@ 32774
ऎन्ताण् 32772
कैमरा 32766
ॎ@@ 32757
लू 32754
जेमां 32753
शुरुआत 32739
क्के 32707
नें 32705
कोविड् 32696
्युं 32687
संदेश 32685
एऱ्प@@ 32680
निच्चयमाक 32674
आधार@@ 32668
प्रती@@ 32657
किटै@@ 32637
ण्टु 32624
विट 32624
इन्तप् 32623
तर्@@ 32623
जरिए 32621
नाळ् 32620
मती 32620
तीർच्चयायुं 32617
तकवल् 32601
सिंग 32598
es@@ 32594
सिर 32580
त्य 32579
प्रमाणे 32577
पॆरिय 32570
पूर्व@@ 32557
ऱु 32555
तुम्हें 32536
थाकते 32536
घरे 32533
भिन्न 32525
स्ते 32515
ङ्ङൾक्क् 32503
आरोपियों 32501
वुमायि 32499
सप्ताह 32495
ing 32488
कॊल्ल@@ 32487
मुण्टा@@ 32483
शिक्षक 32481
३० 32456
इणै@@ 32455
प्रया@@ 32454
तय 32438
तन्ऱॆ 32435
गत@@ 32423
बिषय़@@ 32415
हाज़र 32412
बैठ@@ 32390
जोवा 32382
आशुपत्रियिൽ 32378
ऎङ्ङनॆ 32372
संभावना 32370
आकिय 32363
गेर 32352
कर्ता 32350
बंद@@ 32338
शिक्षा@@ 32334
पर्यटन 32317
बरामद 32313
१८@@ 32291
m 32288
निदेशक 32282
कमि@@ 32263
मों 32256
्रे@@ 32254
प्रजा@@ 32253
नेशनल 32242
मीटर 32237
तमा@@ 32229
ीदेर 32226
ऱॆ@@ 32225
ंदुकु 32220
पटै@@ 32220
विडुदल 32213
पॆट्ट@@ 32206
सार्@@ 32192
खान् 32191
प्पट्ट@@ 32188
कोल 32183
कॊळ्ळु@@ 32175
त्ता 32170
विदिआरथीआं 32161
कराने 32149
गति@@ 32144
येथे 32140
देण्यात 32136
मिकच्च 32134
आकुम् 32121
प्रश्@@ 32107
ऱ्ऱि 32105
केट 32100
राव 32096
टिके 32083
बाबत 32079
मॉ@@ 32079
१७ 32078
सारि 32065
कार्यालय 32054
सध्या 32054
अंश@@ 32051
लेखक 32045
कथित 32042
पक्षा@@ 32038
क्ल@@ 32036
धारा@@ 32036
निङ्ङൾक्क् 32019
वाहन@@ 31993
R 31988
न्तिरु@@ 31987
फू@@ 31986
झो@@ 31958
ियुम् 31957
अक्ष@@ 31932
प्रभा@@ 31932
रुं 31924
उभ@@ 31916
फाइल 31901
4,@@ 31897
st@@ 31888
करी@@ 31887
न्नायि 31883
हम@@ 31878
कौशल 31865
यथा@@ 31860
लाक 31856
D 31846
छीए 31844
नियमि@@ 31840
वंटि 31840
इंका 31837
en@@ 31828
तेमनी 31825
जाएंगे 31824
ल्लां 31814
फर 31813
त्तो@@ 31811
शोध 31797
लॉन्च 31785
नारी 31765
बोलि 31762
अबस्थित 31760
हॊंदि@@ 31754
ब्ब@@ 31719
अंद@@ 31715
परिस्थि@@ 31710
पऱ@@ 31701
कूऱिऩार् 31698
कारु@@ 31695
सोनिया 31677
स्को@@ 31667
भारतद 31666
अह@@ 31655
संबोधित 31648
j@@ 31647
ारेर 31643
चेय़े 31636
अमरीका 31631
केस् 31626
कन 31621
ंडा@@ 31618
पद्ध@@ 31602
चक्र@@ 31594
सांग@@ 31578
घड@@ 31569
सरा@@ 31567
ऎरडु 31555
रॊ@@ 31555
यावेळी 31550
तुंदि 31549
नये 31547
पूर्ण@@ 31543
मुत@@ 31539
प्रस्ता@@ 31532
al 31530
कोट्ल 31512
रह्यो 31509
हि 31509
त्ततु 31504
अमैच्चर् 31488
यिरिक्कुं 31488
जरि@@ 31478
रम@@ 31451
टीवी 31443
मतलब 31435
संख्य@@ 31425
त्तुळ्ळतु 31424
अवरॆ 31423
न्स@@ 31420
सीटों 31418
संघा@@ 31411
सरकारि 31407
यार@@ 31405
ियतु 31401
शं@@ 31400
ॆय्@@ 31400
ीय 31395
यहाँ 31388
गळिंद 31373
वर्त@@ 31368
तेव्हा 31357
दाय़ित्ब 31351
डेटा 31342
स्मार्टफोन 31339
याव 31323
थाका 31305
गठित 31303
बारिश 31302
व्या 31291
टाइ 31287
अड@@ 31285
द्य@@ 31281
कर्मचारी 31272
समीक्षा 31269
निजेदेर 31254
तॊट@@ 31244
द्रुत 31243
जानि 31237
त्तिर@@ 31237
क्कൽ 31228
मिक@@ 31225
बावजूद 31213
ऎण्ण@@ 31211
अळ@@ 31208
काढ@@ 31208
टिते 31185
भाषण 31181
नൽकि 31143
प्पटुत्त@@ 31139
ङ्ङु@@ 31130
घर@@ 31127
ब्रिटिश 31125
ऎन्नु 31119
रुन्नु 31116
प्रियंका 31114
ऊपर 31113
मुटियुम् 31099
पाई 31092
चित्रपटा@@ 31088
प्रभु 31083
विजयं 31082
देखने 31079
दन@@ 31073
५० 31072
वेबसाइट 31067
चन्ति@@ 31060
स्तुन्न 31044
नुसार 31039
वੱध 31032
परिवर्तन 31008
नज़र 31007
मुला@@ 31006
निऱुवऩ@@ 30981
संभवं 30969
कर्त@@ 30963
रहते 30962
अतऱ्कु 30950
परामर्श 30941
खिलाड़ी 30936
्येर 30925
कूऱु@@ 30921
टिया@@ 30910
तुन्न 30902
हिंसा 30896
कर्मी 30892
प्रभुत्व 30892
मेऱ्@@ 30890
सदी 30886
बदलाव 30881
मोहम्मद 30874
वाच@@ 30872
छह 30862
शादी 30851
आरोपि@@ 30846
मास 30834
ंदर 30829
विल्ल@@ 30819
वऴङ्क@@ 30795
श्य@@ 30785
राहुൽ 30783
य्य@@ 30775
१८ 30775
उद्यो@@ 30773
्यू@@ 30754
दृष्टि 30751
कोण 30750
is@@ 30742
अनुरोध 30736
उद्घाटन 30721
केरळ@@ 30717
पाकिस्तानी 30698
कथा@@ 30662
आकाश@@ 30623
बिक 30621
बरु@@ 30602
पॆरुम् 30597
त्व 30589
कੱ@@ 30584
मद@@ 30576
म्हणजे 30576
शेष@@ 30553
ॆयिंद 30550
पातुकाप्पु 30549
त्तिൻऱॆ 30544
कळैप् 30542
भुगतान 30537
वेल 30533
माता@@ 30522
टं 30518
कूट 30505
माडि 30501
विस्तार 30481
24@@ 30467
उनको 30466
48 30465
टका 30460
जिनमें 30438
संभव 30436
बजट 30413
कॆलवु 30403
मृत्यू 30396
लनि 30395
क्कळ@@ 30386
400 30383
नय@@ 30376
दिखा@@ 30372
विक@@ 30371
उण@@ 30370
चॆल्@@ 30368
इतऩ् 30367
सिटी 30355
पेर@@ 30347
तिय 30346
त्तिनु 30345
स्तारु 30345
स्थिर 30344
सरे 30341
सक्रिय 30319
खरी@@ 30317
डोनाल्ड 30316
महे@@ 30311
बेहद 30296
ॆन्न् 30272
ट्या@@ 30269
ट्रंप 30267
विद्या@@ 30265
क्वा@@ 30261
मति 30256
फेर 30251
पाव@@ 30248
लन 30239
आल्लाह 30237
नम्@@ 30231
निभा@@ 30229
देवा@@ 30226
ज्ञ@@ 30221
क्कुकयाण् 30220
जिल्ल@@ 30219
आधिकारिक 30215
मुक्किय 30215
भरोसा 30214
डिग्री 30213
्यात 30210
कूटि 30207
अभ्यास 30166
ऑस्ट्रेलिया 30166
पोरा@@ 30158
दूसरा 30137
अऴै@@ 30135
भाषा@@ 30133
ऎऩ@@ 30129
कवे 30129
पाशापाशि 30114
लगाने 30112
केंद्र@@ 30103
पैसे 30102
बाइ@@ 30100
चिकित्स 30098
वार्@@ 30095
अवർक्क् 30087
पूर्@@ 30080
स्वतंत्र 30070
रच@@ 30061
ऋण 30038
स्टी@@ 30033
क्का 30015
उन्नत 30006
निൽ@@ 29994
धारणा 29993
तेन 29992
भेजा 29990
समझ 29990
न्त् 29988
गां@@ 29979
g 29973
काबू 29969
विळि@@ 29964
पॊऱु@@ 29962
न्यू 29958
किताब 29948
एंड 29938
निज@@ 29937
ंचे@@ 29931
सीबी@@ 29929
ऱिप्पोർट्ट् 29921
अऱस्ऱ्ऱ् 29919
सत्र 29917
एन्@@ 29916
बदला@@ 29915
र्या@@ 29909
क्कप्पट्टुळ्ळतु 29896
सेबा 29895
सनी 29892
निर्ण@@ 29889
नाइ 29883
सीमा@@ 29876
जवान 29873
ऐलान 29866
ऊ 29856
प्राकृतिक 29855
गैर 29835
वैरस् 29831
तेम 29816
अंतर्राष्ट्रीय 29795
ऱुं 29790
नात 29788
प्रकार@@ 29786
स्वागत 29770
फरार 29763
फिल्@@ 29755
हय़तो 29751
अभिनय़ 29745
कोण@@ 29737
हॉ@@ 29734
स्पि@@ 29727
धीरे 29725
प्त 29725
तादेरके 29721
ैच् 29721
il@@ 29713
जेलार 29712
निति 29698
ion 29696
़्या@@ 29691
चॆय्तु@@ 29687
इतुवरॆ 29683
संभवत्तिൽ 29678
व्यक्त@@ 29676
समाप्त 29673
p 29666
प्रशंसा 29664
क्शन 29656
विੰदर 29655
उयर्@@ 29654
मेन्ट 29652
परु@@ 29649
समाचारं 29645
जार्@@ 29643
6,@@ 29642
शपथ 29642
औद्योगिक 29638
अप्प@@ 29620
रखते 29618
भय़ 29612
न्तऩर् 29608
काछ 29602
हत@@ 29601
रहे@@ 29600
धरा 29597
65 29594
अटक 29594
इतऱ्कु 29584
कोरट 29575
माർ@@ 29574
ra@@ 29572
पऱयुन्नु 29566
स्थल@@ 29560
ारनि 29557
निष्@@ 29546
घरेलू 29542
टों 29542
एसब 29525
पिऱकु 29522
नक@@ 29515
क्षि@@ 29511
याओय़ा 29507
खेला 29504
मुर@@ 29503
प्रकटि@@ 29488
घ 29487
मदत 29487
संप@@ 29487
वातावरण 29481
लट्चम् 29468
# 29447
वरून 29445
सहज 29444
निया@@ 29438
बोध@@ 29436
कोच 29428
कालीन 29426
ङ्कळुम् 29408
पटम् 29400
ल्लु@@ 29396
ताप@@ 29395
कहीं 29393
उॎ@@ 29385
प्पटुकिऱतु 29377
मुंबै 29373
जैसी 29372
जनके 29369
बय@@ 29367
दरू 29351
तीत 29350
मीद 29346
न्ता@@ 29341
षे@@ 29338
ed 29331
आईसी@@ 29308
त्तिदॆ 29308
जांदा 29299
बाइबेल 29286
अरचियल् 29258
पती 29247
ट्टिल् 29238
गृह@@ 29236
हरा 29234
विर@@ 29233
रोड 29232
बच्चन 29230
आवशे 29227
कुटुंब 29227
त्ब@@ 29225
परीक्षण 29221
मुऴु@@ 29210
मौसम 29206
थया 29204
अम्म@@ 29201
ध्य@@ 29200
त्याचा 29196
ढाका 29184
कॊळ्ळ 29175
टर् 29175
पिऱ@@ 29172
150 29165
करायाइछि 29157
कान@@ 29157
क्रे@@ 29155
नायक@@ 29152
जैसा 29151
ल्स् 29147
अर्थव्यवस्था 29132
वरील 29125
उद@@ 29118
मैनूੰ 29105
कुरितु 29104
अनुसंधान 29102
असलेल्या 29088
निवे@@ 29087
क्षा@@ 29081
अम्@@ 29074
स्तोंदि 29074
रहेगा 29059
कॊडु@@ 29052
साडे 29048
बछरेर 29045
च्चे@@ 29044
अबश्यइ 29040
गं@@ 29038
निधन 29030
पात@@ 29029
अबस्था 29025
लक्षल 29015
जों 29006
निका@@ 29000
भर्ति 28992
कल्@@ 28988
ारु@@ 28985
कळैक् 28983
कनिपि@@ 28981
हिरासत 28979
पुੱ@@ 28968
स्थळ@@ 28967
वों 28965
परिबर्तन 28961
अन्य@@ 28960
शै@@ 28951
ंचि@@ 28942
ताङ्क 28939
दुआरा 28939
सीएम 28934
मऱ@@ 28910
जरिगिंदि 28908
कीय 28899
खराब 28892
गुरुतर 28890
फि 28890
पोयि 28888
33 28878
केवी 28873
पत 28862
मऱ्ऱॊरु 28855
वेष@@ 28845
स्तान 28836
किऩ्ऱऩ 28835
44 28829
अनि@@ 28801
नटत्तु@@ 28801
शानदार 28800
लिख@@ 28798
प्पॆटु@@ 28797
नाथ@@ 28792
ऱे@@ 28788
निगम 28787
कखनओ 28786
गठबंधन 28770
अतिक 28759
कड@@ 28757
प्रिय@@ 28755
पुन@@ 28754
णे@@ 28748
पणे 28747
इव्@@ 28743
ङ्कर 28743
झु@@ 28740
विश्वसि@@ 28725
प्रार्थ@@ 28718
फिल्म@@ 28712
पारी 28706
धित 28705
करणे 28698
प्पुडु 28697
विੱचों 28695
इरुप्प@@ 28680
तङ्कळ् 28679
समर्थ@@ 28676
मुखी 28660
ियुळ्ळतु 28657
सबेकु 28652
फरवरी 28651
इतिൽ 28650
आण्टु 28647
ऩ्प@@ 28644
ज़ी 28640
स्या@@ 28631
ुल 28631
एकमात्र 28630
दिखाई 28620
हुੰदा 28616
विधान@@ 28603
हवे 28601
चिंता 28590
आरोपी@@ 28586
चरित्र@@ 28583
लिखित 28578
महिला@@ 28564
जोके 28556
चोण 28550
आसि@@ 28544
माध्यम@@ 28536
हेळिद्दारॆ 28522
बढ़ावा 28517
तॆलिसिंदे 28514
अबश्य 28508
नाइ@@ 28507
होवेगा 28505
देरके 28504
योगी 28499
सुं 28493
िय़े@@ 28488
ण्ड 28485
बराबर 28479
हैदराबाद 28470
नीरु 28464
करब 28463
शासित 28447
प्ट@@ 28446
इदरिंद 28437
घटे 28430
अफ 28423
आरम्भ 28422
प्रगति 28418
ऎൻ@@ 28409
शरू 28389
वर्षों 28382
लेखा 28377
2013 28375
आलोच@@ 28374
एसे 28368
यांच्या@@ 28359
शू@@ 28357
समाज@@ 28357
ऎऩ्ऩ@@ 28353
ंतर 28348
न्नाडु 28345
होकर 28345
बलि 28343
ठाकरे 28334
लक्ष्य@@ 28330
अनेक@@ 28327
हेळु@@ 28322
कण्@@ 28308
पऴ@@ 28306
करतो 28305
ੱट 28305
सहायक 28302
उळ्ळऩ 28301
क्रो@@ 28297
प्पिच्चु 28283
अभिवृद्धि 28278
ग्रि@@ 28275
न्यायाधीश 28275
अंक 28273
कलेज 28255
किय 28249
अरि@@ 28241
फ्या@@ 28241
मिलेगी 28240
कागा 28237
पाकिस्तानेर 28228
गान्धि 28205
ऩुम् 28203
36 28202
सामग्री 28190
पुस्तक 28183
M 28182
अनुयाय़ी 28181
गलत 28175
इൻ@@ 28163
विट्टतु 28157
फी 28147
त्यात 28146
दोष@@ 28145
कयायिरुन्नु 28138
नवीन 28135
चेरु@@ 28130
छोड़ 28117
कृष्ण@@ 28104
पॊरु@@ 28102
बादल 28102
प्रसिद्ध 28095
आपल्याला 28094
ऎऩ्ऱ@@ 28094
भग@@ 28093
प्पट्टुळ्ळतु 28077
डॉ@@ 28066
रल्लि 28066
रिक्कुन्नु 28059
एके 28054
ष्य@@ 28050
201@@ 28046
आठ 28046
संस्थान@@ 28045
बदले 28039
नष्ट 28029
विल 28027
कुऱित्त 28016
चलच्चित्र 28014
ऩिऩ् 28011
कही 28005
सुमारु 28001
कय़ेक 28000
असेल 27968
घटन 27968
सॊ@@ 27962
पाय@@ 27958
वायु 27957
सन् 27947
पर्यावरण 27926
स्बास्थ्य 27925
घटा@@ 27916
क्कुत् 27914
फिलि@@ 27905
ंचडानिकि 27897
होईल 27896
इला 27893
कऩ@@ 27882
कुट्टि@@ 27869
बधाई 27868
तापमान 27861
ज्ञान@@ 27849
क्कप्पटुम् 27842
ऎन्नॆ 27829
तला 27827
दों 27814
बाँ@@ 27810
जानिय़ेछे 27808
पठि@@ 27800
दारी 27798
आंध्र 27782
टरी 27779
लय 27777
तहित 27767
२५ 27766
मेल 27763
ङ्ङൾ@@ 27760
उइ@@ 27754
पदक्षेप 27753
वीर 27751
काश्मीर@@ 27746
घणा 27743
तिळि@@ 27733
शास्त्र 27733
एर्@@ 27724
अधिकांश 27720
गैस 27716
निर्भर 27704
क्कागि 27692
नीय 27685
ro@@ 27681
पवित्र 27680
उसमें 27676
स्य@@ 27672
वकैयिल् 27671
आत्महत्या 27663
ब्यांक् 27656
तन्नॆयाण् 27651
चिन्ता 27627
चॊल्ल@@ 27616
१९८@@ 27612
र्ड 27609
मुൻ@@ 27598
लिंग 27593
मुल@@ 27589
प्रेसिडेन्ट 27587
ੱक 27585
& 27580
ur@@ 27573
पाप@@ 27573
हार्@@ 27573
नटु@@ 27567
जिन्हां 27562
ऩा् 27560
शिशु@@ 27559
फायदा 27558
षण@@ 27555
करीने 27545
इल्लि 27543
समुदाय 27532
वॆऱ्ऱि 27521
शाल 27517
नीड@@ 27515
हिमाचल 27512
तरि@@ 27504
सर्वोच्च 27504
केसिൽ 27497
मुतൽ 27493
वंतॆ 27491
सत्ता 27490
इळ@@ 27487
मूऩ्ऱु 27477
अवनु 27467
िलूटॆ 27466
ंपु 27457
X@@ 27447
वायरल 27441
ॎ 27430
२१ 27426
197@@ 27422
कुमाർ 27422
नेताव् 27419
कौणसि 27418
पिता@@ 27409
ढ़@@ 27397
लेख 27388
धर्@@ 27383
सिन्ऱॆ 27381
मांग@@ 27376
जापान 27372
जाना@@ 27359
थयो 27356
रय़ेछेन 27352
जस्टिस 27348
ा् 27347
काश्मीर 27344
प्रतिक्रिया 27338
वानो 27335
ट्टिरु@@ 27325
जिन्होंने 27324
आना 27321
ट्लु 27312
आർ 27304
शि 27297
ज्ञ 27295
पातुका@@ 27292
ऩ्ऱ@@ 27290
ंपै 27280
पवार 27278
गुण 27265
तेथी 27265
खो 27262
विधेयक 27261
सफलता 27260
ङ्ग@@ 27252
पड़@@ 27247
रिय 27244
अवरुक्कु 27240
ri@@ 27237
सकੱतर 27237
लना 27235
स्टार् 27235
अत्यन्त 27224
कोट 27224
इन्तियाविल् 27219
अक्षय 27217
कൾ@@ 27197
चिऱु@@ 27194
इव@@ 27193
जमा@@ 27187
अन्न@@ 27183
आत@@ 27178
ੱल 27177
ियुळ्ळ 27174
मन्त्र@@ 27170
वास@@ 27165
मनस्@@ 27164
असते 27162
वाल् 27159
यिरि@@ 27157
प्रेक्ष@@ 27149
मात्रा 27142
ळ्ळि 27141
पलि@@ 27138
मुख्यमन्त्री 27137
तॆर@@ 27132
वेलै@@ 27132
लीग 27131
मृत्यु@@ 27129
सैनिक 27125
55 27117
खाने 27117
पहुंचे 27114
लगी 27105
प्रवक्ता 27104
दृश्य@@ 27097
ियन 27096
सीरीज 27094
उर्@@ 27093
्लि@@ 27085
ऩिल् 27083
यी@@ 27081
चेस्तुन्नारु 27078
पੰ@@ 27077
बिश्बेर 27069
श्रेष्ठ 27069
ट्चि 27068
5,@@ 27066
दੱ@@ 27058
कळे 27052
दृष्टि@@ 27047
जीव 27044
आटक 27038
तानु 27036
तिरु 27036
यामुळे 27036
इन्नू 27033
पक्षॆ 27030
राम् 27021
निर्मित 27016
ৰा@@ 27013
००० 27010
२४ 27010
वीण्टुं 27009
कोथाय़ 27000
मुळ्ळ@@ 26999
त्तुव@@ 26998
करोड़ 26997
यानी 26990
भाब@@ 26986
सां 26983
सिੱ@@ 26982
कोवि@@ 26978
वेऱु 26974
कान 26968
बाब@@ 26963
आदि@@ 26962
तऩ@@ 26955
कॆलस 26952
काळ@@ 26948
परिवहन 26946
अमिताभ 26944
पाकिस्ता@@ 26931
त्तिलुं 26928
वकील 26928
मेल@@ 26922
इदक्कॆ 26900
योगा@@ 26895
सेन्@@ 26894
अवि@@ 26890
पॆद्द 26890
परिगणि@@ 26888
हारा@@ 26887
ऩ्ऩ@@ 26884
जेर 26878
मन्@@ 26878
ङ्ङि 26869
अन्नु 26863
ङ्ङि@@ 26862
पथे 26859
इमरान 26833
षो@@ 26833
ऩ्च@@ 26832
शेख 26799
कयाण् 26795
ञा@@ 26787
मुक्ति 26787
क्किऱार् 26777
ंद्र@@ 26775
वानुं 26775
पतिवु 26767
बाबु 26760
स्थाप@@ 26755
तरुवात 26741
तमारा 26737
सुप्रीं 26737
मक्कळ@@ 26727
मॆंट् 26715
पार्टी@@ 26714
नने 26703
दरमियान 26700
ऎनि@@ 26699
कॊनि 26698
समस्या@@ 26695
अवकाश@@ 26693
खेती 26692
उयिरिऴ@@ 26679
संख्य 26667
प्रण@@ 26666
षि 26666
स्टेट 26666
युळ्ळ 26664
नाटु@@ 26661
पाने 26651
एखनो 26647
कूऱ@@ 26637
उद्य@@ 26633
अमॆरिक्क 26630
अवर्कळुक्कु 26630
त्तल् 26622
पऱञ्ञ@@ 26621
ंडी 26616
ंश 26608
9,@@ 26607
इतुवरै 26601
इंदुलो 26597
क्कलाम् 26597
विति@@ 26593
गोल 26589
वू@@ 26588
दुर्घटना 26578
चिन 26575
शारीरिक 26565
खारिज 26558
प्रतिनिधि 26545
यार् 26536
धरती 26532
क्कुक् 26526
अध्यक्षता 26522
ൺ@@ 26520
ऎंदुकु 26513
स्थानिक 26512
तेबे 26511
झि@@ 26506
तॆलुगु 26503
प्पा 26503
संगति 26498
ियम् 26492
एजेंसी 26488
ीने 26484
पर्याप्त 26482
28@@ 26472
सिहत 26469
कड़ी 26458
आरा@@ 26449
गोल@@ 26448
ंटा@@ 26442
व्यक्तिगत 26442
कॅ@@ 26440
दिल्लि 26439
पोलि@@ 26436
विश्वास@@ 26432
वल्ल@@ 26430
नाथ् 26429
फ्रा@@ 26429
विअकती 26428
फिलम 26422
रख@@ 26419
आग्रह 26415
सचि@@ 26410
किन 26408
म्पा@@ 26405
ऎति@@ 26399
किऩ्ऱऩर् 26386
घेतली 26383
L 26376
ल्कळ् 26376
र्त्त@@ 26370
ऱै@@ 26369
कले@@ 26366
ंग्@@ 26349
तमिऴ@@ 26345
नियमित 26343
नस@@ 26338
कुन्नु 26325
षण 26320
अङ्कु 26315
ऑनलाइन 26312
केबल 26311
कऴिञ्ञ 26306
क्कुकयायिरुन्नु 26299
अन 26298
34 26294
विल्ल 26293
नन्न 26289
खान@@ 26286
भोजन 26284
ऱ्ऱा@@ 26282
ज़िआदा 26279
ल्ड 26274
बजा@@ 26273
बांग्लादेश 26270
वेल@@ 26269
माजि 26268
लिक 26266
नेते 26259
याओय़ार 26250
अगस्त 26249
बुझते 26245
सुरੱखिआ 26233
अंगे 26232
न्ऱ@@ 26230
साहित्य 26220
निल 26215
कळुक्कुम् 26214
किलो 26214
@ 26205
नके 26203
विट्टु@@ 26191
अतिकरि@@ 26188
शुद्ध 26187
मानि@@ 26176
गोवा 26175
साबित 26170
विरोधात 26162
धोनी 26154
राह 26151
उरु@@ 26147
आरो@@ 26145
शत@@ 26145
स्ऱ्ऱ् 26143
पुत्र@@ 26141
ट्ल@@ 26136
ऐस@@ 26132
कय़ेकटि 26132
वली 26132
ट्रंप् 26130
अवर्@@ 26121
अप 26117
मिलकर 26117
बिश्ब@@ 26113
भार्य 26110
गरम 26102
मोडी 26098
सॆक्रट्टऱि 26097
मेडिकल 26090
वला 26088
वास्तव 26087
हेतु 26083
गिरावट 26081
वेण्ट@@ 26076
रोल 26070
प्पॆट्टु 26061
पोयिंदि 26057
ऒव्वॊरु 26054
वऩ@@ 26047
विൽ 26046
वॆटि@@ 26040
रान 26039
इंडियन 26036
ऎन्नी 26028
तुऱै 26016
गं 26015
बह@@ 26014
चॆय्या@@ 26007
लੱख 26004
अप्पोतु 26001
राव@@ 25999
निया 25990
कारोबार 25985
कळाक 25983
नवीं 25981
मैंबर 25964
वकु@@ 25963
ৱ@@ 25959
मग 25958
सुनवाई 25946
कालं 25935
अवरै 25922
मीण्टुम् 25922
पहिली 25916
अतिൽ 25911
असल्याचे 25911
धीन 25905
जिस@@ 25904
ङ्ङळाण् 25883
ळै 25875
चीनी 25869
पिरा@@ 25869
वम् 25869
मुस्लिम 25867
करिछि 25853
बिजॆप@@ 25848
सुतरां 25848
नेन 25846
n 25841
कालि@@ 25841
जिसने 25825
रिक 25823
सद 25823
कोलकाता 25815
व्यवहार 25803
क्कप्पट्टु 25800
सान 25797
केओ 25796
नൽकु@@ 25793
प्रती 25792
आगु@@ 25786
निन 25784
अऩुमति@@ 25774
गुलिते 25774
पारा@@ 25772
चीज़ 25771
बळिक 25771
दानि 25762
बद्दल 25760
जिन्हें 25758
सेट 25749
निर 25746
साहिब 25746
त्यांची 25742
370 25728
कुऴु@@ 25728
कर्या 25726
रद्द 25723
पॆट्रोल् 25719
सरकारने 25714
हालात 25713
कल्प@@ 25706
मऱ्ऱ् 25703
समें 25702
करशे 25683
त्याची 25682
स्टर 25676
सत 25673
चॊल्@@ 25664
लेला 25664
वेळ 25651
दिੱते 25646
तंड@@ 25639
पटि 25638
पुढे 25638
शिल्प 25636
घੱट 25635
नॆय 25635
त्यां 25633
मानिल@@ 25621
फार 25616
धिक 25608
भव@@ 25597
क्कुळ् 25592
करदिआं 25589
हैदराबाद् 25577
ul@@ 25576
क्कै 25576
कुटुम्प@@ 25573
कर्मचारियों 25572
स्थल 25566
ेइ 25563
धिकार 25562
ीरा 25562
हृदय@@ 25556
मोड@@ 25546
खेतर 25544
दिवस@@ 25543
सात@@ 25532
मते 25526
कप@@ 25518
दोषी 25508
वारिकि 25508
तप्पि@@ 25507
ईश्बर 25501
ताय़ 25501
मੰग 25489
क्कं 25485
बाळ@@ 25482
शास@@ 25476
श्या@@ 25475
दॊड्ड 25472
ारो@@ 25470
फेसबुक 25466
ऎन्त@@ 25460
विवा@@ 25458
क्कै@@ 25452
देय़ा 25451
्पु@@ 25439
मुन्न@@ 25429
पोयि@@ 25427
माडलु 25420
ङ्कुम् 25416
शिशु 25413
विन 25409
ग्राह@@ 25408
ऎൻऱॆ 25407
गुन्हा 25407
मिल्ल@@ 25404
पाक् 25391
चोदि@@ 25383
लागे 25383
पॉ@@ 25378
दर्याप्तु 25375
मनी 25374
हर्@@ 25374
मूडु 25373
फिर@@ 25372
सङ्@@ 25363
कय@@ 25352
द्रा@@ 25351
संक्रमण 25347
चाहे 25344
इनि 25338
ग्या@@ 25332
एगिय़े 25328
रौ@@ 25314
विशिष्ट 25306
दाखलि@@ 25292
पार्ट@@ 25288
2011 25287
एसेछे 25276
खंड@@ 25275
त्तवॆ 25275
वरिगॆ 25265
स्वामी 25255
प्पॆट्ट 25254
पेय़े 25253
पनि 25236
लग 25235
अणि@@ 25229
भा 25225
हृद@@ 25225
2012 25224
विचारि@@ 25220
वर्षा@@ 25219
दौरा 25215
निरापत्ता 25204
न्द 25204
G 25203
ण्टो 25196
संसारि@@ 25192
सिंदि 25192
शिल्प@@ 25190
समूह@@ 25189
अदर 25180
प्रेम@@ 25177
भरण@@ 25177
सेरि@@ 25174
चॆय्युं 25161
et@@ 25157
इक्कड 25154
खुशी 25153
सुत्ति@@ 25150
टक 25143
सतत 25142
as@@ 25141
कह@@ 25137
कोल@@ 25134
आउट 25127
होइछि 25118
B 25117
न्ने 25117
अहम 25112
त्यांच्या@@ 25105
ज़मीन 25104
न्द्र@@ 25093
प्पॆट्ट@@ 25092
42 25089
हलेन 25080
नोट 25074
लक्षं 25070
राखते 25062
ज़रूरी 25052
सुरु 25050
रास्ता 25040
99 25037
ण्यास 25034
हिं@@ 25030
अग्र@@ 25029
शनि@@ 25027
शं 25018
जनरु 25015
तिट्टम् 25011
ात 25011
संग्रह 24999
पाय़ 24998
समुद्र@@ 24986
राजि@@ 24972
राओ 24968
O 24964
यॆहोवा 24958
ङ्कि 24955
म्हण@@ 24955
सल्लि@@ 24945
सिद्दरु 24940
गिद्दु 24938
छेले 24932
दर्शन 24928
सेरा 24928
स्थाने 24927
वाणिज्य 24925
वुकळ् 24921
सुनील 24913
नाट@@ 24912
अशोक 24911
उपयोग@@ 24907
२२ 24907
इन्त्ययुटॆ 24887
१९७@@ 24885
मट्टुमे 24881
पित 24877
विष@@ 24869
एगा 24845
पाँच 24844
झालेल्या 24834
शर्@@ 24833
कार्यवाही 24832
पुष्टि 24831
अक्क@@ 24828
रिंद 24828
किछि 24827
कत्त@@ 24825
इंग्लैंड 24819
टैय 24818
हॆच्चिन 24816
चन्द्र@@ 24810
धान 24803
अटु@@ 24802
हेब 24799
छेड़े 24792
तॆलंगाण 24792
अल्प@@ 24788
37 24786
तरलिंचारु 24784
नारा@@ 24777
of 24773
ऎलांटि 24769
अन्तर्गत 24764
रल 24762
दां 24759
अवरुटैय 24746
क्किऱ@@ 24745
वचन 24744
बाइरे 24742
भाइ@@ 24741
यारु 24741
आৰु 24740
पेस़ 24738
सुबह 24733
सिनिमालो 24722
क्षा 24718
रहमान 24715
बजे 24712
सवार 24707
रओ 24700
जरु@@ 24688
वास 24685
तने 24679
अंटे 24666
शारु 24649
टार@@ 24648
रक्त 24645
मैया@@ 24642
/@@ 24639
कार् 24638
प्यार 24638
भुल 24637
चिऱ@@ 24636
पुन्हा 24627
क्य@@ 24620
महामारी 24616
एत 24609
नुक@@ 24601
विखे 24597
मोट 24587
अऴि@@ 24586
यात्री 24575
मध्य़रे 24574
ग्रस्त 24569
बुध@@ 24565
चमूक 24563
ळ्ळत् 24562
बिन 24552
मुंदु 24538
इन्तियाविऩ् 24534
काँ@@ 24526
दिने 24525
रोहित् 24521
दिला@@ 24516
पहुंची 24509
दुर@@ 24506
ऒन्नुं 24503
स्ति@@ 24503
निऱुवऩम् 24501
विवाह 24501
समुद्र 24500
वले 24493
करलेन 24488
मृत्युर 24487
कठोर 24485
निग@@ 24483
उयർ@@ 24470
अज@@ 24468
संघर्ष 24467
गुरू 24463
वड@@ 24461
टाइ@@ 24460
इव्वाऱु 24459
ज़िल्हा 24453
पेरु@@ 24452
फक्त 24452
पानि 24449
बरी 24449
अविटॆ 24443
फोन् 24437
मॊद@@ 24422
सिंग@@ 24421
गिरुव 24420
च्या@@ 24419
बास@@ 24411
तमने 24410
युब@@ 24407
नेरि@@ 24403
वलों 24401
्त्त@@ 24396
पं 24391
अलागे 24390
रीति 24388
काजेर 24384
प्रत्या@@ 24382
रोजु 24379
नन्नु 24377
हाज@@ 24375
मुँ 24374
ियु 24363
इला@@ 24362
शक 24345
सहोदर@@ 24344
नटत्तिय 24342
समाचार 24339
इप्पटिके 24337
लर् 24330
आपवामां 24329
वोट 24326
अबस्थाय़ 24325
ळ्ल@@ 24323
निकट 24322
दारा@@ 24321
वापर@@ 24310
विश्वा@@ 24309
ॆगळु 24307
क्षति 24306
इल्ला@@ 24300
दिवसं 24300
तॆरिवित्तार् 24289
ंड्@@ 24286
निर्मला 24277
प्राय@@ 24269
पारबे 24265
ऒरे 24261
तऩि@@ 24254
फे 24252
ർत्थ@@ 24247
योगायोग 24245
षी@@ 24241
ठेव@@ 24240
पट्टि@@ 24236
अंदर 24235
भाजप@@ 24235
ac@@ 24233
मळशे 24228
नामक 24224
जीएसटी 24221
शहीद 24216
वधारे 24213
असम 24210
कारा 24210
सुधार@@ 24205
ियिरुन्नु 24202
प्पुकळ् 24195
शान्ति 24194
मृति 24192
श्रम 24187
जमीन 24182
संबंधिंचिन 24181
खत्म 24175
x 24174
रोज 24173
काले@@ 24168
विचारण 24165
ड्रा@@ 24163
सैन्य 24163
आळु@@ 24160
आँ@@ 24159
शने 24147
सदर 24143
मं 24130
पाड@@ 24125
स्वि@@ 24124
बंने 24122
राजीव 24121
हुण 24118
मार्च@@ 24110
कके 24109
तॊटर्पाक 24107
डिजिटल 24105
वद@@ 24102
जखमी 24096
यायि 24095
डिंग 24089
इऴ@@ 24088
तॆरि@@ 24087
करणं 24077
सिक 24077
वळर्@@ 24076
टार्@@ 24070
अनुष्का 24069
ओरो 24065
तुऱै@@ 24065
कवि@@ 24062
रणबीर 24056
काँग्रेस 24054
सदस्य@@ 24054
रजि@@ 24052
द्दा@@ 24048
ष्टि@@ 24047
समय़ेर 24037
ियिट्टुण्ट् 24034
ख्@@ 24033
बाहिनी 24031
रात्रि 24030
होतो 24028
47 24024
प्रका@@ 24022
परे@@ 24018
वॆंटने 24018
कारु 24013
याची 24013
अनुष्ठित 24003
कർ@@ 23997
न्ऱ् 23995
पाहिजे 23992
पड़ 23984
स़रमा 23983
धिकार@@ 23982
F 23973
आण्टु@@ 23972
याचा 23972
गड@@ 23966
अर्जुन 23962
ंडु@@ 23961
जुन 23958
ळर्कळ् 23954
पङ्कु@@ 23947
स्ती 23944
यत 23941
ियो 23941
इन्त@@ 23939
एबार 23939
लेइ 23939
अरुण 23933
इदर 23933
यांचा 23930
इंडिया@@ 23920
लाई@@ 23920
माझ्या 23910
विवरि@@ 23910
नेत 23909
िरु@@ 23907
निर्देश@@ 23902
ग्रुप 23901
पुलि@@ 23895
and 23889
चौधरी 23874
त्रण 23872
ताकवुम् 23870
त्वं 23869
निर्देशक 23865
संकट 23864
कार्यक्रम@@ 23863
बललेन 23857
दृश्य 23854
त्ताल् 23838
नमगॆ 23837
बाड़िते 23833
प्रत्यक्ष 23832
वेग@@ 23830
आव्युं 23829
साझा 23824
जातीय 23823
एसपी 23818
सिनेमा 23817
मौका 23815
मैदान 23814
उൾ@@ 23811
बनने 23786
मरिच्चु 23786
हण 23786
वरॆगॆ 23782
रूस 23777
वार्कळ् 23777
वार्षिक 23775
कृत्य@@ 23771
मूसा 23769
Re@@ 23754
जावे 23737
तॆरिवित्तुळ्ळार् 23733
पाटु@@ 23733
डिस्@@ 23725
स्थापि@@ 23722
ीन 23718
वागु@@ 23716
गिणती 23713
अन्यतम 23706
र्य@@ 23706
बीमा 23703
ठर@@ 23689
ओർ@@ 23673
दिसंबर 23670
चीफ 23656
भविष्य@@ 23656
गुत्तदॆ 23650
उम्मीदवारों 23644
बिश्ब 23644
ओय़े@@ 23625
कहिछन्ति 23624
संदर्भ 23622
असं 23619
वारि@@ 23613
जाति@@ 23612
पिੰड 23612
मोहन 23603
:@@ 23602
शाहरुख 23591
कुटुंबा@@ 23580
उङ्कळुक्कु 23578
अमरीकी 23572
किवें 23567
काळ 23565
कार्यं 23562
ङ्ग 23557
पुत्त@@ 23555
संक्रान्त 23551
on 23539
हळ@@ 23537
हिन्दु@@ 23534
टेल 23533
सिन् 23533
ऎऩ्@@ 23529
मास@@ 23512
ad@@ 23511
चम्पवम् 23507
मत्तॆ 23503
सों 23501
लोड़ 23495
म्य 23487
द्देनॆ 23484
तेवै@@ 23482
कात 23477
आकार 23475
पुरी 23475
धरि@@ 23474
संसाधन 23465
बंध 23458
तॆलि@@ 23450
कॉलेज 23443
खरीद 23438
समान@@ 23436
प्रसिडन्ऱ् 23435
सूत्र@@ 23435
क्काण् 23426
इऩ्ऱु 23415
पडॆ@@ 23414
न्ते 23412
वरुटॆ 23410
अऱ@@ 23397
कलन्तु 23396
चिऱन्त 23391
मनुष्य 23390
न्नदि 23389
ऒळ@@ 23383
वेलै 23372
कांना 23366
सागर 23362
घेतला 23361
विवाद@@ 23360
वർष@@ 23355
ंचुकु@@ 23350
ढिल्ली 23350
रता 23349
शिकार 23349
एइ@@ 23341
अऱियि@@ 23340
दौरे 23336
ङ@@ 23333
करवानी 23331
ण्टि 23329
पेक्षा 23328
आफ्रि@@ 23327
काने 23326
थाकार 23325
मानना 23322
निगरानी 23320
रन्नु 23320
दय@@ 23319
प्रतिदिन 23319
प्रवർत्त@@ 23319
मंत्रि@@ 23313
ओनी 23312
इन्न@@ 23308
3:@@ 23304
श्रीलंका 23302
वॆळियि@@ 23297
उपयुक्त 23296
लया@@ 23293
मोह@@ 23290
नओ 23289
टॆयाण् 23284
मित 23283
शक्तिशाली 23281
ढ़ 23277
पराति 23271
शहरी 23271
इप्पोൾ 23270
नमां 23270
वैज्ञानिक 23266
दोन्ही 23261
आतंकवाद 23260
केल्या@@ 23260
दंड 23259
अणि 23255
ड़ि@@ 23253
चिन्ति@@ 23250
तिळिसिद्दारॆ 23243
फाय@@ 23238
क्कप्पटु@@ 23237
भरा 23234
खर्@@ 23233
अथ@@ 23225
समझ@@ 23222
याद@@ 23212
तारं 23209
चीफ् 23206
नीय़ 23198
जाम 23194
योजन@@ 23194
खोज 23192
वन्त 23189
माट@@ 23187
शोध@@ 23184
अतनु 23183
जरिगिन 23182
सलि@@ 23180
उत्पन्न 23174
कळाल् 23174
पणिया@@ 23174
समय़@@ 23174
चित्रपट 23173
मानङ्कु 23172
निलैय@@ 23171
उणर्@@ 23164
मारुति 23164
कत्तिल् 23161
कारे 23159
वारिनि 23159
मुऩ्ऩाळ् 23158
रहेंगे 23153
मॆडिक्कൽ 23150
तकनीकी 23149
एब@@ 23148
यत् 23146
रित 23146
क्ट् 23143
मेल् 23140
पॆण्@@ 23139
वरी 23131
पर्य@@ 23129
बाध@@ 23127
अर्जन 23123
त्तम् 23121
बाग@@ 23121
बिमान 23121
ot@@ 23120
सिੱखिआ 23118
नर् 23115
प्रारंभि@@ 23114
त्तुऱै 23102
प्राक्तन 23096
चॆऩ्ऩै 23093
आड@@ 23091
निरा@@ 23088
कळुटऩ् 23084
ट्विटर 23081
कपू@@ 23080
्ऱ@@ 23078
पूർ@@ 23065
मॊदटि 23064
कारि 23061
हिंदु@@ 23055
लोकोने 23053
ील 23051
पर्या@@ 23047
तोमाके 23044
मनमोहन 23039
बੱचिआं 23038
प्रदर्शित 23034
रेट 23034
38 23033
प्पॆटुत्तु@@ 23030
पिल्ल@@ 23028
प्रभावी 23025
मੱ@@ 23025
पहिला 23023
8,@@ 23018
चन 23013
कारेर 23010
ੰद 23008
हवा 23004
40@@ 22993
तुहानूੰ 22993
पाए 22989
सिस 22984
ेल 22983
शरीर@@ 22977
श्रे@@ 22970
श्वर 22970
मेमु 22967
न्यायमूर्ति 22964
ॆये 22962
य़न 22957
तुर@@ 22956
सितंबर 22950
ण्ण 22941
माहिति 22936
रिलीज 22934
केंदर 22930
काർ@@ 22929
स़ी@@ 22928
विजे@@ 22924
देवेंद्र 22915
वीडियो@@ 22914
च्@@ 22911
अञ्च@@ 22907
पिन्नॆ 22905
अनुच्छेद 22904
ർक्क् 22898
खुश 22897
कुरि@@ 22893
हटा@@ 22889
पुणे 22888
किसानां 22878
प्रतिनिधि@@ 22873
जानानो 22870
तॆलु@@ 22870
ऎल्लां 22869
पूर 22869
कुर@@ 22867
टिव 22865
64 22863
बढ़कर 22862
अभिन@@ 22861
तुऱ@@ 22858
भारती@@ 22853
प्रभाब 22850
पऱयु@@ 22849
मारु@@ 22847
हिन्दु 22842
पक्क@@ 22840
माऱु@@ 22837
यिसू 22832
बाकि 22825
आमा@@ 22823
नियों 22822
पाठ 22821
2:@@ 22818
27@@ 22817
१९६@@ 22815
परवरदिगार 22813
विदॆ 22807
पॊली@@ 22805
ब्यां@@ 22804
नटवटिक्कै 22800
चॆयल्प@@ 22797
सहाय 22794
कलिसि 22793
परिकल्पना 22789
हेले 22787
तमिऴ्नाटु 22783
अप्पोൾ 22780
जीबनेर 22779
पोतानी 22779
इन्नु 22775
इरुन्त@@ 22760
सीसी 22760
वासी 22759
मना 22758
यौन 22757
परिचालक 22755
मारि@@ 22754
गड़@@ 22749
नाव 22744
पॆऱु@@ 22744
क्कण@@ 22743
मऱ्ऱ 22741
ईआं 22735
एयर@@ 22734
मोटी 22732
आशा@@ 22723
आहार 22721
मानङ्क 22711
अंगीकरि@@ 22705
तुन्नारु 22703
मेरकु 22698
स्कुल 22685
काबट्टि 22684
ऐੱ@@ 22681
196@@ 22679
पदे 22675
थाक@@ 22667
आसले 22655
कित 22649
भाषाय़ 22649
इरुक्क 22645
चॆय्तत् 22645
दरॆ 22645
कारणमाक 22644
ऒप्पि@@ 22641
पोल 22639
चान 22635
ऱ्कु 22627
टॊ@@ 22626
प्रॊ@@ 22623
तमिलनाडु 22622
तयार 22620
वच्चिंदि 22617
बहन 22612
त्याचे 22608
किउं 22605
ारी@@ 22603
तीसरे 22597
उलक 22587
तुन्नायि 22584
तुम्हाला 22579
निऱु@@ 22578
चले@@ 22577
सोने 22575
मुद्दों 22574
भेट 22572
बिचार 22564
प्रभु@@ 22562
मुऩ्ऩ@@ 22556
क्कुळ्ळ 22555
क्किल्ल 22554
ार्थ 22550
अध्यक्षुडु 22549
म्हटले 22548
कुरु@@ 22546
तिनटि 22536
चॆय्युम् 22533
सेवाओं 22528
बोर्@@ 22524
\ 22521
शत्रु@@ 22515
पहिले 22513
रूपाय् 22512
नकर@@ 22504
सजा 22503
यां@@ 22501
उन्नय़न 22499
नेट 22496
पाजक 22495
केंदरी 22492
न्नुण्ट् 22491
कने 22490
निन्नु 22488
देह@@ 22478
नीडि@@ 22478
मक 22478
महात्मा 22477
आपनाके 22471
डार 22469
रिपोर्@@ 22469
मण 22468
मित्र 22466
लकर 22465
सचिन 22463
शाह@@ 22460
िलो@@ 22460
शनेर 22458
द्देवॆ 22455
नोटिस 22453
डू 22451
कैय@@ 22447
ट्टम् 22447
सुवुदु 22444
ॊंदिगॆ 22443
पुलस 22442
लोने 22436
कंप@@ 22433
काज@@ 22431
ऱै 22422
एकटु 22421
बारा@@ 22421
पिऩ् 22419
प्रशं@@ 22418
स्तू 22418
ंटे 22414
तीआं 22414
विधा@@ 22412
यों 22409
भद्र@@ 22407
चेस्तु@@ 22406
ऩ्ट@@ 22405
धरी 22400
मऱ्ऱु 22397
अवൾ 22395
मात 22394
प्रोत्साहन 22390
श्रद्धा 22386
हेळ@@ 22386
अंदु@@ 22382
लगाए 22378
कपूर् 22369
थयुं 22369
आक्रमण 22367
कारं 22365
प्रकरणी 22361
ig@@ 22360
एऱॆ 22359
ोटु 22347
सर्वात 22333
इੱथे 22332
संविधानं 22324
कपिल 22322
अनुवदि@@ 22321
महसूस 22317
मुख्यमंत्र@@ 22314
आत्मा 22312
भारे 22309
वद्द 22306
सूर्य@@ 22305
ऒरुवर् 22297
सीन 22297
अऩै@@ 22296
ation 22292
कालु 22292
झे@@ 22291
यिल्ल 22290
टस 22282
मालिक 22280
सहायं 22280
वाना 22275
झा 22271
त्यांचे 22270
अभिया@@ 22267
पृथ्वी 22265
पोलुं 22264
ऱ्कुम् 22264
39 22263
आफ@@ 22262
ऎल्ल 22261
पाह@@ 22256
पाठानो 22248
पाल् 22245
वारं 22245
देशं 22241
उण्ट् 22239
सर्वा@@ 22235
लेदनि 22231
क्वि@@ 22227
कारक 22225
गीआं 22222
रहेशे 22222
जोरदार 22217
दिल्ली@@ 22217
आपकी 22211
िल्लै 22209
गुरु 22207
लभ्य@@ 22206
कुं@@ 22201
मत्त@@ 22200
अभियुक्त 22197
विस्त@@ 22193
बंदि@@ 22191
१९९@@ 22191
रक्षि@@ 22190
बिभाग 22189
वर्गा@@ 22180
क्कुन्नति@@ 22168
जड़ित 22167
तिൽ 22166
न्नताण् 22165
ओफ् 22163
जीवित@@ 22163
द्ध 22161
थाना 22149
ऒऩ्ऱु 22147
जिन@@ 22146
मीर 22145
ळ्लु 22141
लड़@@ 22140
त्तिल्ल 22138
वून 22128
शायद 22121
वलि@@ 22108
ण्याचे 22105
एमनकि 22104
ियत् 22099
महत्व 22096
अरविंद 22087
पोल@@ 22087
िय़ाय़ 22085
नवंबर 22084
चेन्नई 22082
52 22081
राष्ट्रा@@ 22080
कोंग्रेस 22079
निराकरि@@ 22079
ञ्च् 22076
०० 22076
आयुक्त 22074
मीटिੰग 22074
नाल् 22071
कालज 22068
िल्ला@@ 22068
जास्त 22063
एमिटि 22062
मानी 22062
नेपाल 22061
चोरी 22055
बिजेपिर 22050
मरणं 22044
इसलाम 22043
वतै 22040
मार्क 22030
देवी 22027
पैसा 22027
कहे@@ 22023
टॆयुं 22018
पाद@@ 22016
सामरिक 22007
रस@@ 22006
ष्टु 22002
ार्थ@@ 21999
बांध@@ 21997
दीनिकि 21996
सेवा@@ 21994
फ्ट 21993
ीत 21989
वीटु@@ 21988
टॆस्ट् 21987
देगा 21985
मुकाबला 21984
अवकाशं 21975
ताङ्कु 21970
शोक 21965
अल्लाह् 21962
तॆन्न् 21957
न्ने@@ 21950
कार्यकर्त@@ 21949
जिसकी 21943
इप्पटि 21942
हेर 21941
त्तिलुम् 21934
बिरोधी 21934
एशिया 21931
्ति@@ 21929
किल 21928
मैयाऩ 21927
हासल 21927
एछाड़ाओ 21925
कटर 21925
रूपे 21924
कत् 21922
रुग्णालयात 21922
कप्प@@ 21913
टिं 21913
वੱडी 21912
कल्पना 21902
बणाउण 21902
होक 21902
नमुक्क् 21896
ब्रिटेन 21895
ॆयुळ्ळ 21895
दरेक 21892
प्रतिष्ठित 21887
पोषण 21886
भिन्न@@ 21885
केमन 21878
आबेदन 21876
परियोजनाओं 21874
त्तुटऩ् 21869
लित 21861
तला@@ 21854
पलु 21853
बाजी 21852
रचना 21850
व्यक्तमा@@ 21850
साधारण@@ 21846
ङ्ङळु@@ 21841
नायि@@ 21839
सफर 21836
राज्यसभा 21835
समयंलो 21824
देंगे 21822
परबर्ती 21816
सन्तान 21816
37@@ 21815
गुजरा@@ 21811
साथी 21811
सहायि@@ 21808
नीय@@ 21804
भगवान 21802
ज़ी@@ 21798
अळविल् 21797
फ्@@ 21794
नरे@@ 21787
ङ्ङळिलुं 21783
कळिलुं 21779
निन्ऱॆ 21779
कॊंडि@@ 21777
दूजे 21777
प्रेस 21776
कल्वि 21772
नम् 21772
ऱिन्ऱॆ 21771
म्पोൾ 21753
सीमित 21748
नूतन 21747
बंदी 21746
प्रशा@@ 21744
उपराष्ट्रपति 21743
बां@@ 21734
उंटायि 21731
प्रयत्नि@@ 21725
सूत्रों 21725
चर्यलु 21723
महिळा 21717
कळिलुम् 21703
शिखर 21699
बड@@ 21692
जस@@ 21691
साक्षि@@ 21689
इक्कार्यं 21680
चाय़ 21673
कारीदेर 21664
बज@@ 21664
िये@@ 21664
१०@@ 21664
इरुन्त 21660
कल्पि@@ 21657
जीवितं 21657
लेंगे 21651
ੰड 21650
मॆन्नुं 21639
अधिकारुलु 21636
चित्रत्तिൽ 21636
स्तो@@ 21631
आग्रहि@@ 21627
ch@@ 21620
मुऴुवतुम् 21619
फ्ल@@ 21617
पिछ@@ 21615
नेट@@ 21614
क्लिक 21613
माग@@ 21612
नीडु@@ 21611
ियाऩ 21608
अंतर 21606
बातें 21605
यम् 21599
th@@ 21595
डल 21590
मोठ्या 21590
चुनौती 21588
अजय 21586
प्रधानमन्त्र@@ 21586
फुट@@ 21579
गुप्ता 21566
गरि@@ 21558
दूरी 21558
किरदार 21555
त्री@@ 21555
हाकि@@ 21555
51 21554
मरि 21552
बंध@@ 21550
छड़िय़े 21549
संकेत 21534
संबाद 21534
अलुवल@@ 21533
विकल्प 21533
ढ 21529
इंत@@ 21527
तारीख 21526
त्यांचा 21526
मरिंत 21524
येणार 21524
मंडल 21522
वेळी 21520
तुल 21518
दुःख@@ 21517
दीर्घ 21515
कर्म 21514
चॆय@@ 21511
कया@@ 21509
दाय़ेर 21506
कॊंडु 21505
स्टोरेज 21505
आवे@@ 21502
विभागा@@ 21502
ऒळि@@ 21494
बदल@@ 21494
राइ 21489
us 21488
शाला 21487
स्थानं 21478
जावेगी 21474
मायि@@ 21474
मऱै@@ 21471
रम् 21452
वस@@ 21452
डेर 21447
ंचालनि 21446
त्तिनुं 21444
ओए 21443
श्रेणी 21441
आंदोलन 21437
आल्लाह् 21433
मन्तब्य 21429
दम 21423
उस@@ 21420
रॉ@@ 21418
केटलाक 21417
वुलु 21415
२३ 21414
पाप 21411
ड़्@@ 21411
मक्क@@ 21404
अद्याप 21394
आछेन 21394
परस्पर 21394
56 21392
ar 21386
मासे 21385
कन्नड 21384
मायुं 21372
याऩ 21371
आती 21369
मेय़े 21369
अർ@@ 21366
बुद्धि@@ 21366
आसान 21359
तङ्ङळुटॆ 21359
अकाली 21357
च्चॆ@@ 21354
ऱिय 21351
स्वतंत्रता 21344
पुस्त@@ 21343
चारि@@ 21340
वेळॆ 21338
अनुष्ठाने 21337
ऎटुत्तु@@ 21337
सिनिम@@ 21336
प्राण 21335
ड्स 21331
क्कानुळ्ळ 21329
वर्कळुक्कु 21329
मात्रमाण् 21328
राजे@@ 21312
शब्द@@ 21306
राय़ 21304
भार्य@@ 21301
क्रिकॆट् 21298
जिलों 21294
अफ्रीका 21288
अऩु@@ 21287
इतना 21286
संस्@@ 21284
ियुळ्ळ@@ 21284
गुलोते 21279
आतंकी 21277
प्राण@@ 21274
रचि@@ 21267
एप्रिल 21265
रिक्कुन्नत् 21263
स्वच्छ 21253
मुखर्जी 21252
लागिदॆ 21252
ir@@ 21248
चयन 21247
नोट् 21245
केसु@@ 21244
सिस्टम 21244
लढ@@ 21240
मुंबई@@ 21239
मोत 21237
गयो 21230
प्रजलु 21230
करणार 21223
प्रवेशि@@ 21220
निकऴ्@@ 21219
ऎल्@@ 21212
निगॆ 21210
आद्य@@ 21207
हित@@ 21204
सचिब 21203
रहता 21202
हक 21202
नीर@@ 21195
सूबे 21194
बागा 21191
प्पट 21186
रेखे 21185
खाराप 21181
भीतर 21179
लमां 21178
घन@@ 21177
ৰे 21176
हान 21174
एं@@ 21173
हस्त@@ 21170
्ले@@ 21168
सोच 21167
जीबन@@ 21165
विदेश@@ 21160
डाय@@ 21158
समझौता 21156
चना 21153
बिज्ञान 21143
ऎन् 21142
43 21141
नौ 21139
नाटक 21136
फौ@@ 21134
00 21133
एटाइ 21119
नना 21117
करल 21113
तच 21111
गम 21108
फडणवीस 21098
न्तिर 21097
नवा 21093
एर्पाटु 21092
करीना 21092
माम@@ 21088
अधिकारीआं 21082
इवർ 21080
एक्स@@ 21080
ियिंद 21077
49 21076
गांधि 21076
समन्@@ 21076
सिल@@ 21075
थानाय़ 21072
संभा@@ 21064
विषयी 21054
चार्ज 21043
डू@@ 21041
सित 21041
नइ 21026
केट्@@ 21024
उल्लंघन 21018
तॊलि 21001
ष्ठ 20999
कार्यदर्शि 20998
सहा@@ 20998
बहार 20989
थी@@ 20985
सम्मानित 20981
प्रथमे 20978
शहरेर 20977
णां 20976
चों 20975
नहि 20972
आउण 20967
भागीदारी 20967
शुभेच्छा 20960
चॆय्याൻ 20959
और@@ 20958
म्ब@@ 20958
ऱिया@@ 20958
di@@ 20956
कॊंड@@ 20956
आगुन 20955
$ 20952
पॊतु 20952
वर्ल्ड 20952
कराई 20945
सहा 20943
क्कियत् 20942
सोच@@ 20938
तैनात 20936
वरॆ@@ 20935
तेर्तल् 20934
त्तर 20932
ंडे@@ 20931
नेतृत्व@@ 20928
लेते 20928
ियागि 20927
बिक्री 20923
मुऩ्@@ 20920
गाँव 20918
सम्पूर्ण 20914
दनु 20903
मध@@ 20903
गरीब 20899
अवर्कळै 20898
अतिकार@@ 20896
पिन 20896
चॆय्युन्नत् 20895
ऱॆ 20889
अनुसरि@@ 20887
दुःख 20887
केवलं 20882
ठाकुर 20880
बर्तमान 20877
शों 20876
प्पॆटुत्त@@ 20875
ंचालि 20870
क्षमा 20866
तिआर 20862
बाकु 20861
चेसुकु@@ 20860
ख् 20853
खी@@ 20852
उत्पाद 20850
बचाव 20849
मुसलिम 20849
वागि@@ 20847
ओर् 20845
वितरण 20840
ऎरि@@ 20837
बारि 20837
पत्@@ 20832
समोर 20829
बिय़े 20828
माऩतु 20828
नमु@@ 20826
कामना 20825
अफ़@@ 20823
इੱ@@ 20823
em@@ 20820
जेटली 20817
संग@@ 20817
काट्टु@@ 20813
कऴिञ्ञ@@ 20812
संदर्भंगा 20811
पोल् 20804
दीर्घ@@ 20796
बन्धु 20794
क्कुन्नुण्ट् 20793
सगळ@@ 20793
ियाँ 20790
सुंदर 20789
अहीं 20788
रवा@@ 20788
बर्त@@ 20787
ऒप्पु@@ 20784
क्ति 20783
समझौते 20773
निकल 20765
कांग@@ 20759
रियर 20758
कॊल@@ 20756
MP 20746
> 20738
प्रीत 20736
१७@@ 20734
मेगापिक्सल 20729
क्रिकेट@@ 20725
तकർ@@ 20724
अमॆरिका 20722
ियॆ@@ 20721
मूल्य@@ 20719
नज@@ 20714
म्य@@ 20713
आदालत 20708
नागरिकों 20708
क्किऱार्कळ् 20704
सज्@@ 20703
प्रसाद् 20702
रैली 20690
कले 20687
बोध 20685
बिष@@ 20683
कार्यङ्ङൾ 20682
याइ@@ 20682
कखनो 20676
बले@@ 20676
दारों 20666
एऱ्ऱु@@ 20662
अड्@@ 20661
म्स् 20661
लाया 20656
शकतो 20655
अतिनाൽ 20652
नाटु 20647
तालिका 20646
मुੱ@@ 20645
योग्य@@ 20644
दौर 20640
ञ्च 20639
हिੱसा 20639
क्कानुं 20636
डिकि 20629
टेलि@@ 20627
ड्ड@@ 20627
रास़टरपती 20627
सारा@@ 20624
काश्मी@@ 20623
किऱोम् 20619
नेटवर्क 20618
कार्यक्रमा@@ 20616
बणा@@ 20613
लीटर 20613
स्ता 20610
निर्माता 20604
युवा@@ 20603
चॆय्युन्नु 20600
बिश्बबिद्यालय़ 20600
ॆयू 20594
टुत्त 20591
बनाव@@ 20589
हरे 20589
सेस 20578
कोर 20576
रणवीर 20576
हौ@@ 20576
जाय 20572
पऱञ्ञुः 20567
बीजा 20562
कष्ट 20560
भावि@@ 20560
क्कप्पॆटु@@ 20556
ंटु@@ 20555
लेट 20555
सुना@@ 20551
सूच@@ 20550
प्रकरण@@ 20546
थाकेन 20538
नट्लु 20538
सिन्हा 20538
१९४@@ 20537
टेड 20533
त्रि 20532
असा@@ 20518
उतवि 20516
जाइ@@ 20516
रेल@@ 20515
7,@@ 20503
शौ@@ 20503
कारणम् 20496
उपाध्यक्ष 20495
वाऩ 20491
प्रदेश् 20485
१५@@ 20484
पऱ्ऱिय 20483
निर्यात 20481
250 20476
तलाश 20473
तटु@@ 20468
याबाबत 20467
पशु@@ 20461
ॆङ्किलुं 20459
मिनि@@ 20457
वस्तु 20452
चेर्न्त 20450
वैद्य@@ 20446
लेले 20444
लोकि 20439
शाखा 20436
सथान 20430
वार्ता 20429
सेन@@ 20428
ज़रूरत 20427
बाईबल 20426
रानी 20425
सभाय़ 20424
कायम 20423
कूऱि@@ 20423
कॊण्टा@@ 20422
करीए 20421
पक 20419
ऱ्ऱिൽ 20418
कऴ@@ 20415
कोटी 20414
फिल्मों 20412
V 20411
व्यक्तमाक्कि 20406
ताम 20401
दस 20398
प्रयोग@@ 20397
िलेये 20392
एदेर 20390
बहि@@ 20390
इंड@@ 20384
निर्धारण 20382
िल्लॆन्न् 20382
ट्ल 20381
करण्याची 20377
प्रै@@ 20373
तियों 20372
परिजनों 20362
यांचे 20354
पौर@@ 20347
नेरत्तॆ 20343
नेर्@@ 20332
तुरंत 20331
आपूर्ति 20317
पार्त्त@@ 20310
संस्थानों 20309
कंगा 20305
नियु@@ 20305
येसु 20305
गढ़ 20303
प्पऱ्ऱि 20302
अवै 20301
नमो@@ 20299
द्विपक्षीय 20290
परेइ 20280
ऎंतो 20278
रब 20273
यायिरुन्नु 20267
अप्पटि 20264
तीने 20262
घटेछे 20257
द्दानॆ 20257
कट्चि 20256
एकाधिक 20252
ळर्@@ 20252
डब्ल्यू@@ 20251
प्पि 20238
आमिर 20234
विशे 20232
id@@ 20230
स्पा@@ 20230
यॆकोवा 20225
गरज 20223
तस्वीर 20223
दारि 20223
म्स 20223
सप@@ 20220
पॆण् 20218
आंतरराष्ट्रीय 20212
उय@@ 20206
जणे 20202
नॆतिरॆ 20200
प्रतिष्ठान 20195
क्किऩ्ऱऩ 20189
स्री@@ 20189
शीघ्र 20185
ियल् 20174
सुन@@ 20170
प्रदेस़ 20165
घरा@@ 20164
ऒऴु@@ 20163
सिन@@ 20161
उपकरण 20153
विरैविल् 20150
खंड 20148
संशोध@@ 20148
बण 20143
प्रकृति 20136
मनोहर 20131
अतनि 20129
ट्रै@@ 20129
परमाणु 20128
घा 20126
पेർक्क् 20124
ऎत्ति@@ 20123
तॊऴिल् 20119
चॆय्युन्न 20113
तोरि@@ 20113
दल्लि@@ 20112
नत 20112
भ्र@@ 20112
हस्ताक्षर 20112
अक्टूबर 20110
हानि 20107
ऩ्स् 20100
संघटन@@ 20100
्ताऩ् 20100
बलेछिलेन 20099
भूषण 20099
मैयै 20098
बंग@@ 20097
अन्तर्भुक्त 20090
ग्रेप्तार 20085
अबस्थान 20082
क्केण्ट@@ 20082
वन्त@@ 20080
बनाई 20079
मंदि@@ 20079
जू 20077
लीआं 20070
सम्पन्न 20068
आस्ट्रेलिया 20059
विस़व 20055
त्तिलुळ्ळ 20052
ङ्कळु@@ 20049
मन्त्रि@@ 20047
पाशे 20046
स्य 20046
अनुसारे 20042
बढ़ा 20039
झे 20036
प्रस@@ 20029
ळ्ल 20028
तरी@@ 20025
मट्टुम् 20024
यूनीवरसिटी 20023
ियायि 20012
लिय 20011
यादव् 20010
ठिकाणी 20008
निंग 20006
मुगि@@ 19996
णाऱ्या 19995
पैपिळ् 19995
न्नानु 19994
ारो 19992
तिन@@ 19989
उपरांत 19988
यितु 19982
पंच@@ 19978
प्रतियोगिता 19976
दिय़ेछिलेन 19971
मज@@ 19970
योजना@@ 19970
ंचंडि 19968
इतैयटुत्तु 19966
लत 19964
च्चिट्टिल्ल 19963
मऱि@@ 19954
ंज 19947
डॉक्टर 19946
परीक्षा@@ 19946
बँ@@ 19943
पुरो 19941
मान्@@ 19914
चाला@@ 19913
कलु 19912
एच 19907
तिरञ्ञॆटु@@ 19907
नियमों 19902
जऩ@@ 19901
सोमवार 19897
क्कायि 19894
जानी 19893
ताल 19891
तुटङ्ङि 19891
ंडर 19886
गिद्दारॆ 19885
रह्युं 19884
सदा@@ 19884
दीनि 19883
नॆय@@ 19882
ंसी 19871
स्क 19856
कानूनी 19842
गुणवत्ता 19839
एत@@ 19838
मिलियन 19838
हरिआणा 19838
एयर 19835
आरंभ@@ 19833
लाई 19828
999 19826
पूर्बे 19824
लैण 19824
रिन 19822
२०@@ 19819
सोश्याल 19818
प्रख्यापि@@ 19817
वायि@@ 19812
साई@@ 19811
चॆय्ति@@ 19809
अला 19806
ic 19798
पला@@ 19796
अतिर्@@ 19795
अनंतरं 19795
तान@@ 19795
अध्या@@ 19794
ंसाठी 19793
गाड़ि 19790
बरं 19789
वंत@@ 19789
तिन् 19786
मुनु 19783
भागा@@ 19781
मानेर 19780
फरी 19779
नॉ@@ 19773
व्यक्तियों 19773
om@@ 19766
भाबेइ 19762
साव@@ 19762
चिय@@ 19757
त्तैक् 19757
गिरु@@ 19756
पहेला 19754
पन@@ 19751
पाटील 19750
ൽनिन्न् 19749
क्षेत्रीय 19745
राजु 19745
तिरिच्च@@ 19736
ap@@ 19726
दीप् 19725
करोड 19723
कलिगि 19711
वार् 19710
ट्टं 19709
उक्त 19708
ୱ@@ 19708
उऱु@@ 19700
होवेगी 19697
रख 19696
यिक 19695
बੰद 19693
देशद 19690
ब्ला@@ 19690
गोटा 19689
युवक 19687
कैयिल् 19681
दरि@@ 19677
माहि@@ 19676
लख@@ 19669
नमू@@ 19663
मनस्सिला@@ 19661
लाए 19660
पट्टण@@ 19657
दृ@@ 19656
नदी@@ 19656
जानेन 19654
क्काർ 19652
मेने 19648
पद्धति@@ 19646
वाऩ@@ 19644
काउ@@ 19642
वलु@@ 19637
ज़ख़मी 19635
मता@@ 19627
इय़ा@@ 19623
मोटा 19622
राहीं 19619
हलवु 19619
बांला 19612
ारॆ@@ 19611
चट@@ 19610
ऎऩिऩुम् 19609
समर@@ 19605
तारु 19604
निन्नुळ्ळ 19604
प्रतिपक्ष 19604
यल 19603
ियाय 19600
वेरि@@ 19599
डर@@ 19596
तग्गि@@ 19596
पूरण 19596
लिऩ् 19594
यादेर 19593
आगू 19591
टने 19591
त्तैप् 19591
मुश्किल 19590
माने@@ 19587
दत्त 19581
बिहार@@ 19576
स्थानों 19575
प्रो 19570
क्कൾ 19566
धारण 19565
त्याग 19563
पॊलिसार् 19562
डाल 19556
कार्यकारी 19555
तप्प@@ 19553
विलै 19551
संबंधों 19549
सोषल् 19546
वाने 19544
बल्लेबाज 19542
िय़ेछे 19540
रखी 19537
कटवु@@ 19534
गम@@ 19534
कंपनी@@ 19523
म्म 19523
शतक 19522
ऒऩ्ऱ@@ 19514
मणि 19511
रੱखिआ 19509
अवतरिप्पि@@ 19508
यहोवा@@ 19507
गिद्द@@ 19503
ञ्चि@@ 19501
कस़मीर 19496
घरों 19491
न्ट@@ 19488
उग्र@@ 19485
आय्@@ 19483
बित 19479
कुऴन्तै@@ 19478
बाह@@ 19473
हिसाब 19473
बुझ@@ 19472
कुलदीप 19471
सम्प्रति 19470
गुलोके 19469
प्पट्टिरु@@ 19469
00@@ 19468
काय़ 19468
संगीतं 19465
दीनिपै 19461
झारखंड 19460
रिक्कुन्न 19460
देह 19459
परिसर 19456
संपर्@@ 19450
सकारात्मक 19450
लिൽ 19449
ष्ठ@@ 19449
पूर्वक 19443
वतिल्लै 19442
स्ट्रा@@ 19441
देकर 19440
पाल्गॊन्नारु 19440
हुੰदी 19439
टर्स 19438
आहोत 19432
ङ्गा@@ 19432
ब्यब@@ 19426
विळैया@@ 19424
ंपु@@ 19423
आते 19422
पूछ@@ 19418
छेले@@ 19417
तेमज 19415
बाहेर 19413
किउंकि 19412
चॆऩ्ऱ@@ 19409
बिबेचना 19403
मिल्ला@@ 19395
आणखी 19394
विमाऩ@@ 19391
संचार 19389
रस्त@@ 19387
विळै@@ 19382
सुबिधा 19376
ऎक्कुव 19368
परिमाण 19368
यासाठी 19368
संस्थ 19368
अनुसरण 19364
सठिक 19361
मूरु 19357
2021 19355
लेना 19353
तेमां 19348
तिक@@ 19344
इद्द@@ 19343
बधा 19342
चोट 19339
यॆकोवाविऩ् 19339
अदक्कॆ 19337
लाईन 19334
इतिन् 19332
किराम@@ 19326
जय 19325
मिट@@ 19324
मेला@@ 19322
गार्@@ 19320
हाई@@ 19318
शक्यता 19308
वाक्कु@@ 19298
ऎन्तु 19295
ञङ्ङळुटॆ 19290
घटनॆ 19289
चिकिॎसा 19288
मॉडल 19288
तनिखॆ 19281
िय़ाम 19281
पत्रि@@ 19280
जानता 19279
आदर्श 19278
तोटॆ 19278
एक्ट्रेस 19277
अप्पटि@@ 19273
एनसी@@ 19272
विन्ऱॆ 19271
लागि 19267
आकाश 19263
गेल्या 19258
एकता 19257
च्चिरिक्कुन्नत् 19256
सीपी@@ 19256
पो 19254
बान@@ 19252
अदा@@ 19249
निस 19248
ज़्यादा 19246
यौ@@ 19246
ंडे 19244
चेർ@@ 19242
माकुम् 19236
पार्क 19227
अॅ@@ 19221
वऴक्कु 19217
सैन्य@@ 19215
देबे 19214
वॆळिया@@ 19214
54 19213
देवर 19212
रण्टां 19212
कता@@ 19210
अश्@@ 19207
घटनास्थले 19207
मिश्रा 19206
विषया@@ 19206
करतेन 19204
झाल्या@@ 19204
चर्वतेच 19203
देस़ां 19200
शतांश 19200
लाल@@ 19198
स्मृति 19197
ऎൻ 19192
संबंध@@ 19189
सलाहकार 19187
तंत्र 19183
य़ु@@ 19176
राते 19174
तेव@@ 19168
केवळ 19166
तൻऱॆ 19166
प्रशासनिक 19166
ऩ्मै 19162
पाक@@ 19157
घंटे 19154
द्वारे 19149
ह्याँ 19144
शूटिंग 19143
षित 19143
इंटर@@ 19138
संपत्ति 19138
चोद्यं 19137
आतंकवादी 19129
न्य 19128
ec@@ 19127
चुमार् 19125
अभिषेक 19120
निङ्ङळॆ 19119
अल्@@ 19118
w 19109
पठा@@ 19095
बद्ध@@ 19093
मुखे 19092
पोकु@@ 19086
दर्शा@@ 19082
मैन@@ 19079
खुलासा 19078
दीपक 19077
पकु@@ 19074
आल्लाहर 19072
काट्ट@@ 19071
यिरुन्न 19071
स्नेहि@@ 19071
कारों 19068
बरे 19068
बसे 19062
हाउस 19057
भ्रष्टाचार 19056
नन्@@ 19055
ंस@@ 19047
जाय़गाय़ 19044
ंटारु 19043
प्रापत 19042
इङ्ङनॆ 19040
काउके 19038
अलि@@ 19037
पॆरुगु@@ 19037
आवास 19034
शरद 19034
ननी 19033
्र 19031
95 19029
स्तायि 19029
ञ्ञु@@ 19027
उंटा@@ 19026
अला@@ 19014
भोट 19014
क्कॊळ्ळ@@ 19012
अत 19009
ताहा 19007
न्नी 19006
रक्षा@@ 19005
वयस्@@ 19005
तुंबा 19000
वाय 18999
नस 18998
सूत्र 18995
वोम् 18990
परन्तु 18988
सम्पादक 18985
In@@ 18982
ंज@@ 18982
१४@@ 18979
आत्@@ 18977
ऎतुवुम् 18975
पहे@@ 18974
सिनेमा@@ 18972
सुद्धा 18970
गित्तु 18965
मानु@@ 18965
रहती 18962
आनन्द 18960
इत्यादि 18955
्लो@@ 18954
मान्यता 18948
होऊ 18947
मिळा@@ 18940
उटൻ 18939
तुट@@ 18937
केलेल्या 18934
नरेन्तिर 18934
एजे@@ 18930
ीए 18929
दृष्ट@@ 18927
आइन@@ 18926
माला 18925
प्पटुत्तु@@ 18924
लाश 18924
इयेचु 18923
रिकॉर्ड 18915
वർक्क् 18913
व्यापार@@ 18910
वॆऱु@@ 18909
सृ@@ 18907
धवन 18903
य़ेल 18903
ओना 18902
हीरो 18900
सर्कार@@ 18898
सर्वाधिक 18896
क्रू@@ 18892
ऒरा@@ 18888
कण्ण@@ 18884
सीनीअर 18884
वतऱ्काऩ 18883
ब्य़@@ 18882
सർ 18878
ताय@@ 18874
85 18873
लां@@ 18873
बिल्ल@@ 18872
बिधा@@ 18871
ॉ 18871
र्थ@@ 18865
ताൻ 18864
चाप 18863
अस्बीकार 18861
अमॆरि@@ 18858
व्हा@@ 18856
बुल 18855
वर्ती 18850
कृत@@ 18848
उसको 18844
बिर@@ 18841
म्याच 18837
आलोचि@@ 18833
नां@@ 18833
बासी 18831
जनऱൽ 18830
पेर्कॊन्नारु 18830
नैतिक 18829
पर् 18828
जिम्मेदारी 18827
बेका@@ 18827
प्रारंभ 18823
अगली 18822
ऎक्@@ 18815
चलेछे 18812
च्छ 18810
46 18809
बाध्य@@ 18807
नदि 18806
मसीही 18804
खाना 18800
जाओ 18798
आनंद@@ 18796
विरुद्ध@@ 18795
वाड@@ 18794
लोकांना 18790
41 18789
सिबिऐ 18787
च्छे 18784
राज्ये 18768
सुख 18764
यिलाण् 18758
छिलो 18755
अल्लॆङ्किൽ 18753
पऱयुन्नत् 18753
बैंकों 18753
सिद्ध 18753
आन 18751
क्कुक@@ 18750
जने 18740
स़हिर 18740
रक्षण 18739
डीजल 18733
दाखिल 18733
ङ्कळैयुम् 18730
बेळे 18730
आपका 18727
प्रयाणि@@ 18727
वास्तविक 18727
गबेषणा 18722
दाद 18722
स्बीकार 18722
इट 18713
यागिदॆ 18709
मस@@ 18706
निशा@@ 18705
गां 18702
चुੱ@@ 18702
बिभागेर 18701
मीआं 18698
आक्रान्त 18697
चाल 18697
नम्मൾ 18696
रोजु@@ 18694
एकत्र 18693
बाधा 18690
बइ 18687
असतात 18686
लीला 18685
पोर्ट 18680
क्टो@@ 18676
न्याया@@ 18676
्टि@@ 18674
उं@@ 18672
लेक 18672
अष्ट@@ 18670
तेणे 18669
देशि@@ 18669
लम 18669
लिखे 18665
तॊकु@@ 18663
हाईकोर्ट 18658
उळ्ळिट्ट 18650
परिचालना 18650
नियो@@ 18649
संसदीय 18649
ंटू 18647
ट्रम्प 18646
सिग@@ 18645
गृहमंत्री 18644
मनी@@ 18643
शाल@@ 18640
प्रतिबंध 18638
बॆळ@@ 18637
आसपास 18635
क्कप्पट्ट@@ 18632
रेखा 18623
काणा@@ 18620
ऩे 18618
निधि 18615
क्कुच् 18614
वन्तु 18612
मागणी 18609
पऱ्ऱ@@ 18607
मॆ 18607
हੱ@@ 18607
विस्तृत 18606
सभ्यु@@ 18603
स़ु@@ 18603
जिੱ@@ 18599
शर्म 18598
छोटी 18594
बाहिनीर 18590
तनु 18588
वरुकिऩ्ऱऩ 18588
फॉ@@ 18587
चिङ् 18583
लैंगिक 18582
शक्य 18582
सौ 18582
प्रमुख@@ 18581
इलाकों 18580
चिकिच्चै 18579
व्व@@ 18577
मांड@@ 18570
रार 18569
फाइनल 18566
क्षित 18559
ऎन्निव 18558
ऩ्ऱु@@ 18553
सिद्द@@ 18553
मीडीआ 18550
कट्टि@@ 18549
आलादा 18546
मैचों 18545
बॆंगळूरु 18542
मंग@@ 18542
पढ़ें 18540
वर्षीय 18538
अवसर@@ 18536
तीनों 18531
वेण्टु@@ 18529
उठे 18527
पेरॆ 18527
ईल 18523
बाज@@ 18521
केर@@ 18520
मोदि@@ 18516
केसुलु 18515
लड़@@ 18514
चोणां 18501
विरि@@ 18499
नेय़ 18496
कऴियु@@ 18494
कुमा@@ 18491
2010 18487
ईन्@@ 18487
तैयारी 18485
दिल्लीः 18483
बरोबर 18480
नट 18479
संचालन 18477
तीसु@@ 18476
परिचालित 18472
ऎफ्@@ 18467
le 18466
उमर 18460
क्षु@@ 18459
ऎन्निव@@ 18457
पहल 18457
न्नट्लु 18455
अतिन् 18453
यिशु 18452
क्कुमॆन्न् 18451
यावर 18449
प्य@@ 18447
रੱ@@ 18447
गंगा 18443
ऐੱस@@ 18435
किरा@@ 18434
खुले 18434
कळ्@@ 18433
श्रम@@ 18432
प्रबेश 18429
कळुक्काऩ 18425
ङ्का 18423
ईरान 18421
नेओय़ार 18421
रवी@@ 18417
ब्यक्ति@@ 18416
द्धा@@ 18415
चिन्न 18414
स्ना@@ 18413
गतिविधियों 18409
पयऩ्पटुत्त@@ 18409
यश@@ 18408
ऎन्नाण् 18405
निमगॆ 18402
यत@@ 18402
यात्रियों 18400
वण्यात 18398
os@@ 18395
इतऩै 18394
अच्च@@ 18393
ळिൽ 18392
चंडीगढ़ 18391
पव@@ 18389
इन्त्ययिൽ 18387
त्वा@@ 18385
टीं 18384
कटवुळुटैय 18382
याळ@@ 18382
चरित्र 18381
मऴ@@ 18381
ट्री 18379
वाർ@@ 18378
करेनि 18373
हइ@@ 18371
व्यक्तं 18369
्री@@ 18365
तुम@@ 18362
तिऩ@@ 18357
चेयडं 18355
शिक्ष 18354
वात@@ 18350
जिनके 18346
करवाइआ 18343
तेर्वु 18340
मुद्दा 18340
पटत्तिल् 18339
गुव 18334
रेख@@ 18334
पोस्टमार्टम 18329
पड़ेछे 18327
मून्नु 18327
तॊटर्@@ 18322
ंलोनि 18321
जर्मनी 18321
सहयोगी 18317
पॊरुळातार 18314
उळि@@ 18313
राजि 18312
निजेके 18311
शास्ति 18311
क्किऱेऩ् 18310
निकाल 18310
स्पी@@ 18310
नदेर 18307
धू 18305
आलिया 18303
ङ्किलुं 18300
आघात 18298
धिआन 18298
हॊंदिदॆ 18298
इतुकुऱित्तु 18297
कारो 18295
नाकि 18289
बेशक 18288
हिੰ@@ 18288
चोपड़ा 18287
शतमानं 18287
विऴु@@ 18286
वां@@ 18285
ऎन्निकल्लो 18284
ut@@ 18277
पणि 18277
कहानी 18275
नागरिकता 18268
्ता@@ 18266
तारा@@ 18263
मग@@ 18261
स्वस्थ 18260
विस़ेस़ 18258
नकु 18256
ऒऴि@@ 18253
ॊन्नुं 18246
चमू@@ 18245
डनी 18241
टू 18239
बहळ 18237
मट्ट@@ 18237
नमतु 18236
पाർट्टि 18236
रोकने 18236
शहरों 18233
इनके 18230
नटपटि 18230
मिय@@ 18230
ൾक्क् 18230
स्था 18229
पीडि@@ 18227
निलि@@ 18226
दारि@@ 18224
निङ्ङळ@@ 18224
पॆट्टु@@ 18223
म्यू@@ 18223
इते 18220
बातों 18220
600 18219
तीय@@ 18214
ीओ 18212
सीऎं 18208
एने 18207
क्कॊळ्@@ 18203
चूंटणी 18203
त्रु@@ 18201
पट 18201
माडिद्दारॆ 18201
सतर्क 18198
1:@@ 18197
ंति 18197
विया@@ 18194
सट 18194
कळॆ@@ 18193
निर्माण@@ 18193
नाल्@@ 18192
सिकॊळ्ळ@@ 18192
अभिप्राय@@ 18186
मेट्रो 18179
पळ्ळि@@ 18173
प्रचुर 18171
माव@@ 18168
ञ्चा@@ 18167
अडि@@ 18165
बालीवुड् 18165
सर्बोच्च 18164
आगेइ 18159
चिन्न@@ 18153
सैनि@@ 18151
सुपर 18149
बादेर 18146
बनाम 18144
काना@@ 18143
साबेक 18143
मुऱैयिल् 18141
नाळ@@ 18139
बढ़ा@@ 18139
विरुੱध 18139
आम्@@ 18124
कूटातॆ 18122
अधिकारि@@ 18121
साल@@ 18117
ब्यबहृत 18111
मॆन्ऱ् 18105
स्मरण 18105
धन्यवाद 18102
ठे 18096
ऎन्नु@@ 18095
रखना 18093
अऱिय@@ 18092
डिनि 18090
देखें 18089
आठ@@ 18088
२८ 18083
नेवाले 18081
जाहेर 18080
संबन्धिच्च् 18078
जागतिक 18075
सक 18075
तकव@@ 18072
पैकी 18072
आस 18068
पाल्गॊ@@ 18068
आउ@@ 18066
कॊड@@ 18065
मुस्लि@@ 18065
विवाह@@ 18059
खरे 18056
कৰा 18053
जनसंख्या 18052
दर्शक 18051
म्ः 18050
वित्त@@ 18049
हतां 18047
लग्@@ 18046
छबि@@ 18042
मिला@@ 18039
मळे 18037
स्ट्री@@ 18034
अङ्ङ@@ 18033
प्ले 18033
होनी 18031
कत्तिऩ् 18030
काला@@ 18027
अतऩाल् 18026
कणि@@ 18026
चली 18025
ॆटुत्तु 18022
ओरा 18021
तीरुमान@@ 18016
अनुमोदन 18012
कॆल@@ 18011
विचारण@@ 18009
त्तोटॆ 18006
मुटिवु 18006
कर्तृक 18001
टिप्पणी 18000
मातृ@@ 17996
शुभ 17996
ोने 17994
प्रयासों 17989
कोणा@@ 17988
श्रीमती 17988
ऱ्ऱ्@@ 17987
एलाका 17986
टिकट 17982
सरळ 17979
पैगा 17977
नायडू 17976
अनुभव@@ 17975
अतिन्ऱॆ 17974
उच्चतम 17973
न्यूनतम 17969
ईडी 17965
नज़@@ 17963
बार्ता 17958
प्रस्ताब 17957
शार@@ 17953
N 17952
जय़ 17949
2009 17948
आउ 17948
ओमां 17947
ल्ट 17943
परिशीलि@@ 17941
वाळ@@ 17939
उद्धव 17938
श्च@@ 17937
आकवे 17936
मोर्@@ 17936
छबिते 17935
अधिनाय़क 17932
बिरु@@ 17932
खर 17930
र्कळुक्कु 17929
थां 17926
नारा 17925
निर्णयि@@ 17924
यूपी 17923
सोशियल 17920
ीके 17920
प्रकल्प 17919
हद 17916
ऎत्त@@ 17915
आयिरुन्नु 17912
वेण्टिय 17906
र्य 17905
ंडु 17904
आसा 17903
गळिवॆ 17903
देती 17902
ट्टॆ 17901
मिन@@ 17901
बिश्@@ 17900
इतिहास@@ 17898
उळ्ळऩर् 17898
पेरु 17898
क्कुन्निल्ल 17893
5:@@ 17886
इन्तक् 17886
हेठ 17886
स्कर 17885
दं 17878
यला 17878
वनडे 17872
कण्टि@@ 17871
ऎൽ 17870
माडुव 17869
सें@@ 17869
फिल्ममां 17866
ऴ्च@@ 17863
सीटें 17862
मोद@@ 17861
विधंगा 17852
पूछताछ 17846
अभिनयि@@ 17840
हशे 17840
माऱि 17839
सका@@ 17837
इस्ला@@ 17834
ठि 17833
प्पतऱ्कु 17831
मोठा 17829
सामूहिक 17826
पावर 17823
प्रसारण 17820
कुन्नारु 17818
ूरु 17816
स्पंदि@@ 17812
अवन 17810
छत्तीसगढ़ 17809
वेतन 17809
सुशांत 17808
मृत@@ 17807
थों 17806
मुट@@ 17806
लके 17806
पाठा@@ 17802
सिय@@ 17802
पौलुस 17798
परिवार@@ 17795
यर@@ 17795
त्तऩर् 17794
सिलि@@ 17794
स्लो 17789
अनुभवि@@ 17787
कान्ति 17786
न्तुळ्ळतु 17784
१६@@ 17783
बंगा@@ 17780
देब 17776
नाने 17770
उदाहरण@@ 17768
पुस्तक@@ 17767
मिलता 17765
मुंदॆ 17764
उपाय 17762
समू@@ 17760
१९५@@ 17760
संवाद 17759
विक 17757
अभ्य@@ 17753
क्रमे 17752
ार्ड 17748
्रो@@ 17741
मावट्ट 17740
स्बामी 17735
ंता 17729
प्रदर्श@@ 17729
अक्कड 17724
प्रेरणा 17723
कोटि@@ 17722
ईटु@@ 17721
लघु 17720
पाच 17716
वनु 17715
आफ 17713
ताजा 17712
तही 17704
दोघा@@ 17704
ियू 17698
ट्टुं 17697
मीकु 17696
मत्सर@@ 17695
शुद्ध@@ 17695
तियन्नु 17692
बीमारी 17691
आमि@@ 17690
दायक 17689
साला 17686
दाय़ 17685
निन्न@@ 17685
तॊटर्पाऩ 17683
लिस्ट 17680
59 17678
केळि@@ 17678
ञ्ज@@ 17677
अय्य@@ 17675
उन@@ 17673
जिबि 17669
चित्रत्तिन्ऱॆ 17668
अवർ@@ 17667
ऩ्पटि 17660
युक्त@@ 17658
पडे 17655
कथ 17654
चिक्क@@ 17654
नൽकिय 17650
षॆ@@ 17648
घन 17647
कः 17645
शेषे 17645
कर्मकर्ता 17639
आगिदॆ 17638
फसल 17637
येईल 17634
कार्यों 17631
मुक्किय@@ 17631
गौर@@ 17630
ऎम्@@ 17628
इन्तिया@@ 17624
ळॆ@@ 17624
बालि@@ 17622
फिल@@ 17619
आक्रमण@@ 17616
कुंडा 17613
चिऱप्पु 17612
दबाव 17610
समागम 17610
जेट@@ 17609
बिराट 17606
ड्रै@@ 17599
अमे@@ 17597
ग्रामे 17595
57 17593
द्दे@@ 17592
भाज@@ 17592
पाइ 17588
३ः@@ 17588
ईश्वर@@ 17578
शतमान@@ 17578
कॊटुत्त@@ 17576
वाग 17575
ग्रह@@ 17574
सर्वश्रेष्ठ 17574
इटैये 17568
च्चाण् 17566
णात 17565
ग्रहि@@ 17564
एछाड़ा 17563
घाट 17563
करीत 17561
मेऱ्कॊळ्ळ@@ 17561
शनल 17555
चॆल्लि@@ 17554
उद्ध@@ 17549
प्पत@@ 17548
द्र 17547
लड़ाई 17547
बॊ@@ 17543
सथा@@ 17537
घणी 17533
सारि@@ 17532
4:@@ 17527
ट्चि@@ 17527
वन्ततु 17526
नॆगॆ 17525
प्रांता@@ 17524
करले 17514
क्को 17514
चालू 17513
चक 17512
मुतल्वर् 17508
दरा 17507
ख़ु@@ 17504
प्रतिरोध 17504
रां@@ 17504
साधन 17504
कहने 17499
कारणा@@ 17499
सत्ता@@ 17499
ർथ@@ 17498
अख@@ 17496
कच् 17493
ऎन्निकल 17492
सबार 17492
निलविൽ 17482
जणाव्युं 17480
प्रमा@@ 17477
पेरे@@ 17476
आख@@ 17471
प्रसार 17465
राखे 17462
सिंह@@ 17462
कूटिय 17461
जीवित 17460
पत्रकार 17459
नडुवॆ 17458
करॆ@@ 17456
बुनियादी 17456
घायलों 17453
किंग् 17452
मरुत्तुवमऩैयिल् 17452
निय़@@ 17450
2000 17449
म्पो@@ 17448
साधारणत 17448
ंचलेदु 17442
तालि@@ 17441
सिविल 17438
आश्चर्य@@ 17432
दानिकि 17427
ढि@@ 17426
आयात 17423
मुं@@ 17423
फ़ा@@ 17421
ोमां 17419
कारओ 17410
श्रमिक 17405
सर् 17403
नोट@@ 17400
जरग@@ 17398
क्काना@@ 17394
बदु@@ 17392
कोइ 17391
चित्रंलो 17387
सुरे@@ 17387
मुम्प् 17384
भाइराल 17381
स्क्री@@ 17376
चित्त@@ 17370
खुँजे 17368
रैम 17367
साक्षी 17364
सकें 17361
नाश@@ 17357
ऱुम् 17351
हॆच्चि@@ 17351
एक्स 17350
क्टि@@ 17350
वडाप्रधान 17350
मैंट 17349
आपले 17345
ऴ्च 17344
सोम@@ 17344
कोह@@ 17343
आपनादेर 17340
नाश 17338
ऴै@@ 17338
लोकेदेर 17333
ट्टो 17332
च्छे@@ 17331
lo@@ 17328
डाला 17328
कऴु@@ 17326
क्कुकया@@ 17322
परो@@ 17322
कल् 17321
नौकरी 17320
येथील 17317
58 17314
आय़@@ 17312
जना 17312
लीन 17312
यंत्र@@ 17309
उम@@ 17308
ॊरु@@ 17304
मेन 17303
ख्रि@@ 17293
३ः 17292
अहमद 17287
नं@@ 17287
परि 17283
भि 17281
स्ୱ@@ 17278
तृतीय़ 17274
प्रत्य@@ 17274
वेत 17272
गोली 17267
स्पो@@ 17266
जॆय@@ 17261
कैद 17259
अंदा@@ 17253
टिन 17253
बेरॆ 17251
करिबाकु 17247
लेखा@@ 17247
गईआं 17245
ंबर् 17242
तुम्हारी 17242
दायर 17242
पॆऱ्ऱ@@ 17241
मित्र@@ 17238
ड़ों 17236
परम@@ 17236
याग@@ 17236
क्कप्प@@ 17235
तंगा 17233
परइ 17232
नोक्क@@ 17229
उद्देश@@ 17225
एक्टर 17225
मेळ@@ 17221
मृतदेह 17218
जमि@@ 17216
वाटिनि 17216
फोൺ 17212
शुभ@@ 17212
फंड 17211
२६ 17211
मॊदलु 17206
रक@@ 17206
यॆकोवा@@ 17205
लंबे 17205
बिश्बबिद्यालय़ेर 17204
मेह@@ 17200
प्रधानमंत्रि 17199
नौजवान 17196
म्मि@@ 17193
्यु 17191
जला@@ 17189
पॆरि@@ 17189
वॆळ्ळं 17180
सेरिदंतॆ 17178
पारबेन 17172
मानं 17165
मिऩ् 17165
रिक्कुकयाण् 17164
लर्@@ 17161
सरदार 17161
दीन 17157
माऱ्ऱि 17157
असं@@ 17152
आफ्रिका 17147
ओवर 17143
अव्@@ 17141
ठार 17138
जोडा@@ 17136
राज्य़ 17136
गिय़ेछिल 17135
निश्चय 17134
पाकिस्ताऩ् 17133
संस्करण 17132
पढ़@@ 17131
यामध्ये 17131
चेसे 17129
निलयिൽ 17123
आबे@@ 17122
पड़्@@ 17121
सिब्बंदि 17118
कळिटम् 17117
अधिकृत 17116
बहा@@ 17116
ञ्ञ 17111
नयी 17111
मैंदि 17106
गौरव 17105
ओडिशा 17103
कॉन्@@ 17103
तमारी 17101
दरा@@ 17101
१ः 17098
रहेगी 17096
म्पोतु 17093
भेटि 17089
चेर 17088
सभ्य@@ 17088
निवडणूक 17087
फ्ला@@ 17084
वऴङ्कु@@ 17081
पेट 17080
देखो 17079
मुद्रा 17077
खों 17075
ऎळि@@ 17072
मही@@ 17069
दिना@@ 17067
ऎन्निवർ 17066
सदन 17066
बुरी 17065
उर@@ 17061
पबित्र 17056
लयों 17055
च्चिल्ल 17050
स्त्र@@ 17049
अवन्ऱॆ 17048
त्तिला@@ 17048
चेस्तुंदि 17046
संगठनों 17041
विवरं 17040
कड़ा 17039
मिसाल 17039
साम्पत्तिक 17039
आण्टिल् 17034
लोकप्रिय 17034
बॅ@@ 17032
हाँ@@ 17030
टेक 17028
सहमति 17028
सिङ् 17024
सामान 17021
मऴै 17019
बस्तु@@ 17018
स़ां 17018
परिणत 17016
मॊत्त 17015
ियर् 17015
इथे 17014
निर्बाचित 17013
वहाँ 17013
समृद्ध 17013
मले@@ 17007
निन्न 17005
दखल 17003
खरच 17001
मंच 16988
समक्ष 16986
आद्दरिंद 16985
सकदी 16985
इतोटॆ 16984
कൻ 16984
त्तुळ्ळ 16983
इप्प@@ 16979
इंरेजि 16977
मेक 16976
तनि@@ 16974
न्तर 16972
खिलाड़ियों 16970
नाट्टिऩ् 16970
ऎऩ्ऩै 16967
सौदि 16967
स्थिर@@ 16967
रिൽ 16965
सटे@@ 16964
ियन् 16960
तब@@ 16959
कृषि@@ 16957
कण्टुपिटि@@ 16956
नॆल@@ 16955
गृ@@ 16953
भक्त@@ 16944
बिज@@ 16942
रहो 16939
आसा@@ 16938
संतोष@@ 16936
गर्भ@@ 16934
भ्रा@@ 16932
मुंदिन 16931
दोष 16929
नारायण 16921
शुक्र@@ 16921
छबिर 16920
वीट्ट@@ 16919
ग्ल@@ 16918
गड़ 16916
खिआ 16914
कोൺग्र@@ 16911
परत 16909
od@@ 16902
बंधि@@ 16902
विरो@@ 16902
कोरि@@ 16900
ख़ा@@ 16900
प्रदा@@ 16900
ताइ@@ 16899
कैपटन 16898
आगा@@ 16896
पश्चिमी 16896
2008 16893
भट्ट 16892
जीबने 16891
कारो@@ 16890
आया@@ 16889
प्रपंच@@ 16889
अन्वेषण@@ 16886
इता@@ 16885
माहौल 16885
पੰज 16883
लैन 16883
नम्प@@ 16881
आसार 16879
परिष@@ 16879
किय@@ 16878
विषयंलो 16877
सरकारों 16876
एहाकु 16874
मुताबक 16872
ईरा@@ 16871
णै@@ 16870
नुंदि 16870
विनॆ 16869
टुत्त् 16868
निऱै@@ 16864
यहोव 16863
वित 16857
कलै@@ 16854
फिर्यादु 16854
शको 16854
अतेसमयं 16852
53 16850
ओडि@@ 16850
यूनिवर्सिटी 16848
ऎन्ता@@ 16846
मिर@@ 16845
पहा@@ 16843
मोच@@ 16842
लंड@@ 16838
वरुकिऱार् 16838
राष्ट्रंलो 16837
आयि@@ 16832
दादापु 16832
इड 16828
मान्य 16828
नागा@@ 16827
चुनावों 16826
दिवा@@ 16819
मज़बूत 16812
पणिकळ् 16809
नब@@ 16807
केंद्रा@@ 16803
आकॆ 16799
पाच@@ 16799
आदित्य 16796
काग@@ 16796
बलों 16796
बाङ्क् 16795
प्रयोजन@@ 16794
शाम 16794
ननु 16788
ूർ 16788
फेले 16787
कना@@ 16786
खुदा 16784
कोर्टे 16781
कमिटि 16779
6:@@ 16778
जॊतॆगॆ 16778
धे@@ 16778
इङ्कु 16776
वचन@@ 16776
र्स् 16774
वायु@@ 16774
ब्यक्तिर 16767
आति@@ 16766
इप्पुडु 16763
परिचय़ 16761
ोट् 16761
अपरा@@ 16760
ർत्त@@ 16756
उम्र 16754
थाए 16753
सफ़@@ 16753
एश@@ 16752
सीए@@ 16751
यन्त्र@@ 16749
कहे 16748
शियल 16748
केൾ@@ 16740
ट्वीट् 16736
काओं 16729
अऩ्प@@ 16728
खाबार 16728
यहू@@ 16728
घटने@@ 16727
मिड@@ 16722
त्तिरुव 16720
ब्यक्तिगत 16717
क्कुऱि@@ 16714
सोड@@ 16714
णम् 16713
यश 16713
बाध्य 16711
प्रतिषेध@@ 16710
us@@ 16709
सच 16708
दर्शकत्वं 16700
बैठके 16697
आनु@@ 16696
क्किल् 16694
लोका@@ 16692
हीगॆ 16692
जाकर 16691
ट्टुळ्ळ 16690
अऴ@@ 16686
अभ्यर्थ@@ 16685
अवर्कळुटैय 16685
प्रत्यक्ष@@ 16683
त्तुळ्ळार् 16678
संकल्प 16677
स्तरीय 16676
चंद्र 16674
इंटरनेट 16673
स्वർ@@ 16672
ऐप 16671
पकुति@@ 16671
टक्के 16668
काश@@ 16664
हार्दिक 16663
अनुकूल 16662
तुव@@ 16662
प्रार्थी 16661
माർ 16658
काർ 16654
त्तिनायि 16653
अदा 16646
नडॆयु@@ 16644
नेटि 16642
मुख्यमन्त्र@@ 16640
ड्या@@ 16639
उद्योगस्थ@@ 16638
छूट 16636
बिग 16629
ब्य़ा@@ 16629
समर्पित 16619
प्पॆट्टि@@ 16618
नोय् 16616
भाल@@ 16615
त्तुम् 16613
लाय़ 16613
पुऱत्तिऱ@@ 16612
ियुळ्ळार् 16611
गिद्दरु 16610
मसीह 16610
ङ्कळिलुम् 16606
मिक्क 16606
आरम्पि@@ 16604
यहो@@ 16604
सारवार 16601
निर्देशन 16597
कश्मी@@ 16595
दया@@ 16595
भारता@@ 16594
‎ 16589
्रा 16584
केम 16583
अर्थनैतिक 16582
एक्सप्रेस 16581
सीऱ्ऱु@@ 16580
ढु@@ 16578
पड़ता 16577
अद्भुत 16576
प्रतिष्ठा 16575
द्दीन 16570
गठ@@ 16567
अब्@@ 16565
स्तु 16562
मध्यम 16559
याइ 16559
वेद@@ 16557
टैय@@ 16556
पुरा 16556
भरपूर 16554
होइथिला 16554
उत्पादों 16553
अत्यधिक 16550
वश@@ 16550
शुक्रवार 16549
आगळ 16548
वीट्टु@@ 16548
डॆ 16543
पांडे 16541
नन@@ 16539
तिरुवनन्तपुरंः 16538
आरु@@ 16536
ab@@ 16531
दना 16529
होम 16527
कूट्टु@@ 16525
ऒप्प@@ 16522
दश 16522
कवु@@ 16521
अवनॆ 16519
चेक 16519
अवकाश 16516
त्बेर 16516
साकष्टु 16516
ऱൺ@@ 16512
माइक्रो@@ 16505
लोके 16505
सका 16503
टीडीपी 16502
पहुੰ@@ 16501
ऱ्कु@@ 16500
भारतीय़ 16493
कस@@ 16492
कोय@@ 16490
टुकळ् 16490
60@@ 16486
डोक्ट@@ 16477
मुलु 16476
आसछे 16472
कൾक्कुं 16472
निर्बाचने 16472
दूत 16471
हलेओ 16471
बिल्@@ 16470
कांनी 16469
अरचिऩ् 16467
मॊत्त@@ 16466
स्टार@@ 16463
ऐੱस 16462
u 16461
गॆलु@@ 16458
पूർत्तिया@@ 16458
पोलीसुलकु 16458
तिरिगि 16456
प्रपंच 16455
सेक्टर 16453
जियो 16450
दबा@@ 16448
घि@@ 16447
पॆऱ्ऱु@@ 16446
तिला 16444
प्रतीक 16444
करण्या@@ 16440
करिबे 16440
सिस्ट@@ 16440
इब्बरु 16437
सामा@@ 16435
दुल 16434
दावी@@ 16433
लग्न 16430
वॆळ@@ 16425
अज़ाब 16424
निरु@@ 16423
गोप@@ 16421
स़्री 16419
देशंलो 16418
स्थाय़ी 16415
करवा@@ 16414
विद्यार्थी 16414
शहरे 16414
माऱु 16410
ऎतिराक 16406
टीआं 16406
चेसु@@ 16403
मनोज 16403
आस्पत्रॆगॆ 16401
गडकरी 16400
फेर@@ 16400
बीते 16400
अजिहे 16399
क्किऩ्ऱऩर् 16399
क्षण@@ 16398
मिळि@@ 16397
तय्याऱा@@ 16396
बोल 16393
शिष्य@@ 16393
सीसीटीवी 16391
टीका 16390
युक्तराष्ट्रेर 16385
IC@@ 16384
मुऩ् 16380
स्टै@@ 16379
मानते 16376
मथि 16374
विरुम्पु@@ 16373
आरोप@@ 16372
कालत्तिल् 16368
क्किट@@ 16364
विटा@@ 16364
्ता 16363
आईटी 16360
सेज 16359
अंतरिक्ष 16354
800 16352
तल्या 16352
मानुष@@ 16352
लुक्कु 16346
अपकट@@ 16345
राजपूत 16345
कहि@@ 16343
कोन@@ 16340
कोस़िस़ 16340
वाൻ 16340
अणु@@ 16338
बु 16338
माक्कि 16337
मॆन्@@ 16336
तुम्@@ 16335
दोस्त 16335
रक्षिता@@ 16334
रण 16334
नार्@@ 16333
माऱ्ऱु@@ 16333
४० 16331
चम्पव@@ 16329
स्मार्ट 16329
सेवक 16328
उठा 16324
वताक 16322
हरी@@ 16319
कटि 16315
इव्व@@ 16312
एऱ्ऱ@@ 16312
गभीर 16311
कालाव@@ 16310
कमां 16309
समे@@ 16308
पहिल्या 16307
प्रारंभ@@ 16307
शासक 16307
आभार 16304
स्टु@@ 16303
नियुक्ति 16302
ൻड् 16302
चित्रानिकि 16298
णित् 16297
ओके 16295
कान्@@ 16295
यथेष्ट 16295
ल्य@@ 16295
यॊ@@ 16293
बनाना 16292
लेली 16292
केत 16291
सुरेश 16287
अतःपर 16285
आला@@ 16285
अनुरूप 16282
सहकारी 16282
उदाहर@@ 16280
चेशाडु 16278
रहा@@ 16276
घटणा 16275
क्कुन्नु@@ 16273
= 16272
फाँ@@ 16268
बੱचे 16267
स्ऱ्ऱा@@ 16265
आधी 16264
द्वि@@ 16263
घोष@@ 16261
चർच्च@@ 16261
बाई 16250
अञ्च् 16249
बिर 16247
गोयल 16245
कालम् 16243
सूचित 16243
चाहती 16242
दलों 16242
रुन्तु 16242
इसरा@@ 16240
विका@@ 16236
दाँड़ा@@ 16234
नयि@@ 16234
दुष्@@ 16233
खां 16232
नॆरु@@ 16231
नतीजे 16228
फाई@@ 16228
कृति 16227
अस्@@ 16224
उत्पत्ति 16223
इस्तीफा 16221
पुनः@@ 16221
धर्मीय़ 16219
आमे 16218
नौसेना 16216
वापर 16212
कॉर्@@ 16209
चित्रान्नि 16208
वेत@@ 16208
२९ 16207
अऱियु@@ 16203
तीर@@ 16203
शत 16203
वर्कळिऩ् 16202
नटन्न 16200
अगत्य@@ 16199
मस 16198
कहता 16197
ऎऩतु 16193
िर 16193
अनिवार्य 16192
um@@ 16189
67 16188
डां 16186
लव@@ 16177
प्रवेश@@ 16176
ओफी@@ 16175
उहनां 16173
ज्या 16171
ऩुक्कु 16170
प्रकरणा@@ 16169
य्क्कु 16169
ताकत 16168
आरुं 16167
णगे 16167
सौर 16166
चौहान 16163
नरिੰदर 16159
पेते 16159
विवाहं 16157
सुरक्ष@@ 16154
थि 16149
्ये 16147
कॊण्टऩर् 16145
तेति 16142
मुद्र@@ 16137
ओठे 16132
ट्यू@@ 16130
इकाई 16128
अटुत्त@@ 16127
काला 16123
वल् 16115
हरी 16115
चੰ@@ 16111
ट्रक 16110
कडिमॆ 16109
परिणा@@ 16109
सीपी 16109
क्कॊण्ट@@ 16107
कानि 16105
तान 16105
पाओय़ार 16105
शकाय 16105
टॊप्पं 16104
विला@@ 16102
त्तिलु@@ 16096
न्तो@@ 16096
अका@@ 16092
ओय़ार 16091
वतऱ्काक 16087
पेचु@@ 16081
स्बाभाबिक 16079
ईए 16075
उण्@@ 16073
एलाकार 16072
रोहि@@ 16064
z@@ 16063
इसला@@ 16062
मिश्र 16062
शाली 16062
स्वच्छता 16061
ay 16059
युवाओं 16059
चं@@ 16056
अरचिय@@ 16054
समाधान@@ 16054
चॊऩ्ऩ@@ 16053
पयिऱ्चि 16053
जॊतॆ 16047
काफ़ी 16046
घेऊन 16046
मांस 16045
पूछा 16044
हिमा@@ 16044
बस् 16039
्ट् 16039
मंत्र@@ 16036
यालु 16032
or 16029
निमि@@ 16029
अज्ञात 16028
व्यवहार@@ 16028
पट्टु@@ 16027
कीतीआं 16026
परेर 16024
रज@@ 16024
क्रै@@ 16021
घ्या@@ 16017
व्यो 16016
वर्कळै 16014
वापसी 16012
कलाकार 16009
म्पु 16007
X 16004
सेंसर 16004
नीटि@@ 16002
पुनरा@@ 16002
किमी 16000
कोने 16000
निःसन्देह 15999
नोक्कि 15996
मंद@@ 15994
वॆऱ्ऱि@@ 15992
वर्मा 15991
मॆन्नाण् 15990
योजनाओं 15989
सिपि@@ 15989
एमि 15987
गान्धी 15987
माफी 15986
प्रय़ोजनीय़ 15983
नड@@ 15980
अचानक 15978
सुलभ@@ 15978
संरक्ष@@ 15977
62 15975
विवरण 15975
लड़की 15972
स्क्रि@@ 15970
उद्देशि@@ 15967
बय़@@ 15967
प्रदेशेर 15966
खुशि 15964
तम्मिൽ 15963
क्टर् 15962
जयि@@ 15960
सम्भाबना 15960
कहा@@ 15951
वाढ 15950
पूर्वोत्तर 15948
करू@@ 15947
ऩार्कळ् 15947
पारेनि 15946
U 15942
वाटि@@ 15941
शान 15941
शासन@@ 15941
ंबर 15940
ङ्ङळा@@ 15940
आदित्यनाथ 15937
तॊलै@@ 15937
धिकारी 15935
भारतमां 15935
मूर्ति 15935
रहना 15935
व्यक्ती@@ 15934
न्तर@@ 15931
मंत्रिमंडल 15930
िलायिरुन्नु 15929
वेरिय@@ 15925
एथिरे 15921
नाद 15921
प्रधा@@ 15920
मुल 15918
आम्हाला 15916
माझ@@ 15913
मർ@@ 15913
अतिथि 15912
ऩ्कळ् 15911
श्रद्धा@@ 15906
कमे@@ 15905
सुपर@@ 15905
देखे@@ 15904
सिੰ@@ 15904
गुरि@@ 15903
कॊट्टि@@ 15902
निलु@@ 15901
वतिल् 15900
षन्@@ 15899
ൽप्प@@ 15897
राखार 15894
जहा@@ 15893
मोदीए 15893
लड़ाइ 15892
प्रवास 15888
80@@ 15887
ठाणॆयल्लि 15886
पेच@@ 15886
गेला 15884
जिंग 15884
रक 15884
सोष्यൽ 15882
जानाय़ 15880
णॆन्नुं 15879
दिदॆ 15878
आंतरिक 15876
निर्वा@@ 15874
घटन@@ 15873
मेय़े@@ 15867
कळैत् 15865
जुड़ी 15865
तेज@@ 15863
फ़ि@@ 15863
कार्प@@ 15860
विधेय@@ 15858
असाधारण 15854
स्पॆ@@ 15851
बायो@@ 15850
लिमि@@ 15850
षक 15850
नडु@@ 15849
इम@@ 15847
मधु@@ 15846
काश 15841
सूपर् 15840
केश@@ 15839
तथ्य@@ 15837
कनि@@ 15832
पिक 15829
राष्ट्रवादी 15826
उठाए 15825
ण्याच्या 15824
पतनी 15824
राजीनामा 15823
देखुन 15822
मधून 15818
न्नाण् 15816
य़क 15816
क्लो@@ 15815
प्रकारे 15812
ठारु 15811
मन् 15811
कोवडं 15810
पडि 15808
इन्हें 15805
बुल@@ 15803
ताओ 15801
कब्जे 15800
राष्ट्रीय@@ 15796
नका 15795
खू@@ 15789
पिआर 15789
हवा@@ 15789
शांत@@ 15788
ୱा@@ 15788
क्कुम्पोൾ 15780
रेड 15779
बेड़े 15778
स्बर्@@ 15778
ीङ्क 15777
न्लु 15773
करण्याचा 15772
अथच 15769
सभॆ 15768
रण्टु@@ 15767
उद्योग@@ 15766
तना 15761
उरि@@ 15759
उटल् 15754
उयि@@ 15754
त्तुप् 15753
ळ्ळतु 15752
आइनेर 15747
चित्रा@@ 15733
स्वामि 15733
त्री 15732
आबादी 15730
राद 15730
गंट@@ 15728
क्ता@@ 15726
त्तिद्दारॆ 15720
पाळ@@ 15717
ओफ 15716
मका@@ 15714
वट्ट@@ 15714
लक्ष्ये 15708
ञ्ञि@@ 15706
विवरङ्ङൾ 15699
ल्लाह 15697
ञ्ञ् 15691
बाद् 15691
होत्या 15690
अर्ध@@ 15689
कुंदि 15687
क्कप्पट्टिरु@@ 15687
केशन 15686
तिल् 15686
मॆन्न 15682
काय्@@ 15680
नेतृ@@ 15678
चेया@@ 15677
वुदन्नु 15677
ळ्ळार् 15676
शांत 15676
लते 15674
सुन्दर 15671
ल्नि 15663
अंतर@@ 15654
तन्न@@ 15653
ऩ्ऱि 15653
कुंटु@@ 15649
मय़ 15649
किऴ@@ 15647
मंगल@@ 15646
प्रकाश@@ 15641
चैन@@ 15640
त्तिनु@@ 15640
आकियोर् 15639
गणना 15638
निർम्मि@@ 15638
तिळिसिदरु 15637
रिपोरट 15635
घेत@@ 15631
इक्क@@ 15628
जाय@@ 15627
हेउछि 15625
प्रवासी 15622
त्ती 15618
प्रिय 15618
पुऱत्तु@@ 15617
क्काൾ 15616
जक 15616
गेंद 15615
प्पॆटुत्ति 15615
मौलिक 15614
टात 15611
टाल 15611
कडा@@ 15610
खेला@@ 15610
होसेन 15610
गੰभीर 15607
एहार 15606
तीरुमानं 15605
उण्टु 15604
पाർ@@ 15604
बर्णना 15603
भारतात 15603
सुझाव 15602
आसते 15601
फुल 15601
आश्र@@ 15600
मीडियालो 15600
ल्कळै 15600
नलु 15599
कुति@@ 15596
तृणमूल 15593
पहोंची 15593
शैक्षणिक 15590
शब्@@ 15589
ੰद@@ 15588
्य़ 15586
सिटि 15583
हत्य@@ 15583
कर्मियों 15581
प्रयुक्ति 15580
प्रयत्@@ 15578
भाई@@ 15577
भरा@@ 15574
संगीत@@ 15574
ीकरण 15573
तेच@@ 15571
जय़@@ 15570
तलैमै 15562
भागं 15562
मरण 15562
टॉ@@ 15561
ट्टो@@ 15561
कोभिड 15560
जॉ@@ 15560
यान्नि 15560
आजे 15556
२७ 15556
जहाँ 15552
सरकारे 15550
ङ्किय 15548
मुंब@@ 15547
क्रिय@@ 15544
सज़ा 15543
अऩैवरुम् 15541
द्रो@@ 15540
मुख्य़मन्त्री 15540
होइ 15540
दला@@ 15537
च्चिरिक्कुन्नु 15536
पछ@@ 15535
ट्राम्प 15534
वॊ@@ 15534
कमिस़नर 15533
कच@@ 15531
बीएस@@ 15527
त्तिऱ्कु@@ 15526
चॆऱु@@ 15525
अन्वेषि@@ 15524
मिल्लै 15522
धिकं 15521
बहुमत 15520
इणैय@@ 15518
ळ्ळु 15517
नटिकर् 15514
महासचिव 15512
ट्टुळ्ळ@@ 15511
हिस्से 15510
ॊक्कॆ 15510
रहिण 15507
न्यायिक 15506
मिलि@@ 15506
चम्प@@ 15505
आईपीएल 15504
आवेला 15502
चुक्ति 15500
निवासी 15499
विपक्ष 15498
३१ 15497
निपटने 15496
लेओ 15495
अद्देहत्तिन्ऱॆ 15494
आत्महत्य@@ 15492
शकत 15489
कोर्ट् 15486
ह्य@@ 15484
आन्@@ 15483
ॆङ्किൽ 15483
बने@@ 15481
रीतिय 15480
त्तॊ@@ 15479
पेज 15477
उत्पाद@@ 15474
तेमन 15474
नामेर 15474
c 15471
अगवाई 15468
ऎङ्कळ् 15468
नोंधा@@ 15467
29@@ 15466
द्दॆ 15465
बत 15461
जाहीर 15460
नामा 15460
ർक्कुं 15458
ब्याख्या 15457
मुना@@ 15457
उडा@@ 15456
झी@@ 15455
दिर 15453
चै 15452
संग 15452
पुनरु@@ 15451
ऩैकळ् 15446
मद 15442
तमिऴ्ना@@ 15438
द्वीप 15437
चॆय्तिरु@@ 15434
बडि 15434
वेणं 15432
अवळ् 15431
आहे@@ 15431
बदला 15430
हजु 15429
आसबे 15428
्तु@@ 15427
जबाब 15425
निय़न्त्रण 15425
ब्रो@@ 15425
सरो@@ 15425
छोड़कर 15424
सिया@@ 15422
विधायकों 15420
तेल@@ 15419
अजिहा 15418
निशाना 15418
यूनि@@ 15416
इवर्कळ् 15415
प्रतिटि 15413
टीसी 15412
डाउनलोड 15412
नोंद@@ 15412
लट्च@@ 15408
करतात 15406
बलार 15406
किऱ 15405
मध्येइ 15405
अक्सर 15402
खाता 15399
कॆय 15393
णीय 15393
तीय 15390
पिरच्च@@ 15390
चकोतर@@ 15386
बाबा@@ 15382
ब्यापक 15377
पीएम@@ 15375
फ़ी@@ 15375
72 15374
बीसीसीआई 15372
मिथ@@ 15370
तंत्र@@ 15362
ent@@ 15361
निश्चय़इ 15361
विन@@ 15361
ताने 15360
रामनाथ 15358
बइ@@ 15357
ऐम 15356
स्बा@@ 15356
तमिऴक 15355
आपला 15353
नाट्टु@@ 15353
नऩ्@@ 15352
नൽ@@ 15350
नाओ 15349
अवरु@@ 15346
पाणी@@ 15346
वकुप्प् 15346
संदर्भदल्लि 15344
केन्@@ 15343
चट्टम् 15339
सितु 15338
क्रैस्त@@ 15336
सेवाएं 15336
चूड@@ 15335
देत 15333
ड्राइ@@ 15332
मिडिय़ाय़ 15332
हय़ेछिलेन 15332
ताजागा 15328
षे 15324
सेटि 15322
इन्ड@@ 15321
घटनास्थल 15321
विजयि@@ 15315
ऎण्णिक्कै 15309
निम्नलिखित 15309
गीर 15308
ऒब्ब 15304
कदे 15304
आह@@ 15303
होवे 15303
विषयान्नि 15302
तनी 15298
प्पट्टऩ 15298
याइछि 15294
इरुवरुम् 15291
संघटन 15291
किभाबे 15288
गेट 15288
शिरो@@ 15287
श्रृंखला 15286
सबहुदु 15284
किशो@@ 15282
नुन्न 15282
तुम्हारा 15280
रइ 15278
परिशोधि@@ 15275
उत्ते@@ 15272
तेर्@@ 15271
ओय़@@ 15270
तह@@ 15265
हागॆ 15265
अन्न 15263
मुटियविल्लै 15259
लेकपो@@ 15258
ंचेंदुकु 15255
पदार्थ 15252
जल्दी 15251
ेओ 15251
ौर 15245
चेतावनी 15242
पृथिबीर 15237
ऒऴिवा@@ 15232
निः@@ 15232
तुटङ्ङिय 15229
प्रतिनि@@ 15229
अते@@ 15222
1000 15221
अर्थात 15221
लोजी 15221
छाड़ाओ 15219
वैद्यकीय 15219
देशात 15215
तुणै 15213
मामलार 15210
पालिका 15206
सिकॊळ्ळु@@ 15200
उज@@ 15199
मन्दिर 15199
शक्तमाय 15199
पत्रिका 15198
क्रिक्कऱ्ऱ् 15197
पकुतियिल् 15196
तॊटङ्क@@ 15193
प्रस्तुति 15193
क़ 15191
नॆगळु 15190
पुढील 15190
ममां 15189
सब्@@ 15188
प्रतिष्ठा@@ 15184
आरंभ 15181
उतवि@@ 15181
प्पटविल्लै 15179
शख्स 15178
थर 15165
इतिन्ऱॆ 15163
निय़ा 15160
आदालते 15159
दिग्गज 15159
ऐदु 15157
वॆलु@@ 15157
त्तेनॆ 15155
देशी 15152
पॆण्कळ् 15151
जनप्रिय़ 15149
किंबा 15144
मित@@ 15143
उंदनि 15142
चॆल्ल@@ 15141
बांला@@ 15140
स्टू@@ 15137
im@@ 15136
ंडी@@ 15136
संबाद@@ 15136
मऩित@@ 15134
डौ@@ 15133
दर्शकुडु 15131
63 15130
सकी 15130
ect@@ 15128
ध्यक्ष 15127
येला 15126
पवर् 15125
गला 15124
लक्षलु 15124
चॆय्युक 15120
इटै@@ 15119
स्वतः@@ 15118
इंस्टाग्राम 15116
साध्य 15113
योज@@ 15112
कण 15111
एकॆ 15107
धारी 15106
हवाले 15105
नशि@@ 15104
पीड़ित 15104
तेलंगाना 15102
गला@@ 15100
द्दि@@ 15099
आपने 15098
सीधे 15097
वज@@ 15096
दोवां 15093
परिणाम@@ 15092
सिनिम 15091
तले 15090
मृतदेहं 15090
उऱ्पत्ति 15087
आचरण 15086
जेट 15084
बला@@ 15084
नम्पिक्कै 15081
धमकी 15079
वच्चिन 15079
वळर्च्चि 15078
वेण्टाम् 15077
ट्टुम् 15075
अमर@@ 15074
सुरुवात 15072
लोकतंत्र 15070
झी 15069
लॊ@@ 15067
जिੱत 15064
तविर 15063
आतर@@ 15062
जगत 15062
डेट 15056
बजाय़ 15056
माडिद 15055
जੱ@@ 15053
स़ण 15053
तुरु@@ 15052
बाक्य 15051
काट@@ 15048
ओय़ा 15047
चेयडानिकि 15045
दोवें 15045
तीർ@@ 15043
ारे@@ 15043
त्ताൻ 15041
अग्नि@@ 15038
आएंगे 15038
प्रोगराम 15035
बली 15035
पङ्कॆटु@@ 15033
ऴ 15032
अऱिया@@ 15030
निय़ेछे 15030
मेऱ्कॊण्टु 15029
रूम 15029
इटङ्कळिल् 15026
कोड 15026
हृदय 15026
मुलज़म 15024
पੱधर 15023
सिकॊंडि@@ 15022
टिक् 15015
साहि@@ 15014
अनेके 15013
क्यु@@ 15012
पोरेशन 15011
निरंतर 15007
किंद 15004
नेरम् 15002
फ्रांस 15002
दुः@@ 14998
मान्य@@ 14995
ल्सि 14993
मय़@@ 14992
दर्शकत्वंलो 14989
काइ@@ 14988
कल्या@@ 14987
चरि 14985
मृत्य़ु 14985
याला 14984
जीता 14983
रੱखण 14982
ब्याज 14981
अतिकारिकळ् 14977
कानूੰन 14976
वरतों 14976
ट्टा 14975
उठाया 14973
चन्ते@@ 14973
पूर्ब@@ 14966
अमि@@ 14965
किं@@ 14961
गੱलबात 14961
दंतॆ 14958
सड़क 14958
रखता 14956
वादं 14956
अंग्रेजी 14954
प्रकट 14952
व्हि@@ 14952
अवൻऱॆ 14950
कुर्@@ 14950
तॆरञ्ञॆटु@@ 14950
त्ते 14949
सिनॆ 14944
उत्तराखंड 14942
कना 14938
मुक्त@@ 14936
विजेता 14936
नित 14933
नमक्कु 14931
बाढ़ 14930
ंश@@ 14929
परिष्@@ 14928
स्र@@ 14928
ৱा@@ 14928
अल्लि 14927
पग@@ 14927
क्षति@@ 14926
पोलिसा@@ 14926
ऒ 14925
ंदो 14924
पछन्द 14920
चिर@@ 14919
एबे 14918
क्कप्पटुकिऱतु 14918
अल्लाह्@@ 14916
ताङ्कर 14911
माऱ्ऱि@@ 14910
चाली 14906
करवुं 14903
तेनो 14900
वित@@ 14900
ag@@ 14897
उल 14897
दनि 14897
भीषण 14897
हुडु@@ 14896
अटिप्पटैयिल् 14894
प्राची@@ 14894
निवा@@ 14889
किछु@@ 14888
नूऱ्ऱा@@ 14888
उणवु 14887
याय 14887
एंट 14886
टिंग् 14886
डिस्प्ले 14879
खण 14877
ऐक्य@@ 14876
पुट 14876
प्रतिरक्षा 14876
बाज़ 14875
पड़े@@ 14871
पॆऱ्ऱ 14869
बानी 14869
इंडियन् 14867
फ़ैसला 14867
रिक@@ 14866
खड़े 14864
अफगानिस्तान 14863
गों 14863
हस्तक्षेप 14863
जेनारेल 14862
ण्टॆन्न् 14861
स्वल्प 14861
68 14860
ंदन्नारु 14858
ऎच्चरि@@ 14854
यां 14853
उपासना 14850
मीडिया@@ 14850
कोरिया 14848
मध्यप्रदेश 14848
महा 14848
संस्कार 14846
मके 14844
वेगळ@@ 14844
संबंधिंचि 14842
आखिरी 14841
आज्ञा 14841
लॉकडाउन 14841
विक्र@@ 14840
iv@@ 14839
फ्ट@@ 14839
लोकेरा 14839
मुम्प@@ 14838
साहित्य@@ 14835
प्पिऩ् 14834
ॊंदु 14834
ईने 14833
ईगागले 14832
पऱञ्ञत् 14832
बारेर 14829
उन्नति 14827
अमरिੰदर 14809
तनाव 14807
पक्षं 14806
लस 14804
ऒऱ्ऱ@@ 14802
कॊट्ट@@ 14800
यनि 14799
उं 14796
नानक 14792
लक्षण 14791
एंगे 14789
जरी 14789
कर्ज 14788
ब्यापार 14788
स्थायी 14788
ओदेर 14779
दाओ 14778
तॆळि@@ 14775
तेरे 14765
न्तेऩ् 14763
खुन 14757
रवि 14757
कंटे 14755
न्तिर@@ 14754
पुनः 14754
अरचाङ्क@@ 14750
वੰ@@ 14750
तियाक 14748
पञ्चा@@ 14748
आद्यं 14747
तरां 14747
ੱट@@ 14747
Ch@@ 14746
तल्ल 14746
इले@@ 14745
भाग्य@@ 14745
कलकाता 14744
खेडू@@ 14742
ष्य 14742
हाद@@ 14742
नीतिमऩ्ऱम् 14738
सराहना 14738
ियिलॆ 14737
इवै 14735
डिप@@ 14734
अन्या@@ 14733
देखभाल 14731
ियुटऩ् 14730
वैरल् 14724
ष्टि 14721
गमनि@@ 14720
सुषमा 14717
कायदा 14710
कूर्@@ 14709
K 14708
स़ो@@ 14708
125 14706
वुटऩ् 14706
सुत्तारॆ 14706
विद्याർत्थि@@ 14705
माझ्या@@ 14703
निजे@@ 14700
ऴ्स् 14696
क्कुन्नतिन् 14694
जाय़गा 14694
ऎक्स् 14690
हामलार 14689
्कळ् 14689
सुरक्षित@@ 14688
टॆलि@@ 14687
चॆऩ्ऱु 14684
बन्धप्पॆट्ट् 14684
बिषय़क 14682
कोप@@ 14678
ताहा@@ 14677
प्रोत्साहित 14677
गमन 14675
डिजाइन 14675
ऩ्ऩ 14674
स्टर् 14674
गੱ@@ 14672
चुऱ्ऱु@@ 14670
थाणा 14670
प्रश्नि@@ 14668
पिआ 14664
हीगागि 14664
सकेगा 14661
अनुभ@@ 14660
ङ्गा 14659
तिने 14659
120 14657
चिं@@ 14657
्य़@@ 14656
साडी 14654
ण्णा@@ 14651
कीमतों 14650
केंद्रित 14650
टक@@ 14649
मशी@@ 14649
सबु 14649
ॆन्नाण् 14649
नाल@@ 14647
नोडि@@ 14647
वർषं 14644
विलिय@@ 14641
नीत 14640
पुल 14637
पक्षद 14636
टिवि 14633
रवाना 14626
उटऩटियाक 14624
कूऱियुळ्ळार् 14624
कैबिनेट 14623
मण्डल 14623
तत्काल 14621
नबी 14616
नൽक@@ 14616
इरुवरुं 14615
प्रकट@@ 14615
जताई 14612
नल्@@ 14611
करमाय 14610
निर्वाचन 14610
स्बाधीनता 14610
आरोपों 14609
ोर 14609
चेस्ता@@ 14606
ज़ो@@ 14604
यातॊरु 14604
ज़े 14601
पिऩ्ऩ@@ 14601
याहा 14600
रमेश 14599
चित@@ 14598
डाटा 14597
पुरो@@ 14597
बिडुगडॆ@@ 14597
वैत्तु 14597
मला@@ 14594
मिलते 14594
गाव@@ 14591
दुइ@@ 14591
देशना 14590
संघं 14590
सत्यि 14590
सेंटर 14590
अजित 14588
दिल्ही 14586
बड़@@ 14586
डिसेम्बर 14584
* 14583
बिकाश 14583
ब्यक्तिदेर 14583
गुप्त@@ 14581
विन् 14578
वैद्य 14578
प्पिൽ 14574
ाऩ् 14573
10.@@ 14572
अव 14572
स्ऱ्ऱि@@ 14572
एटले 14570
जोड@@ 14569
वർधि@@ 14568
जोशी 14567
प्पे@@ 14567
लोक्@@ 14567
विद्यार्थि@@ 14565
पाबे 14564
प्रवർत्तन@@ 14562
स़ा 14562
टके 14559
ऱ्ऱർ 14559
इस्@@ 14558
जुलाइ 14552
रहस्य@@ 14550
हुੰदे 14550
पोराट्ट@@ 14549
अञ्चले 14548
असल्या@@ 14548
दाता 14547
ग्राहक 14545
आईपी@@ 14544
शाख@@ 14544
धन्यबाद 14542
ऎटुत्तु 14541
रमेश् 14541
सुल@@ 14539
बिचारपति 14538
Name 14537
खार 14536
याप्रकरणी 14536
बिचार@@ 14534
कुऱिप्पि@@ 14529
न्लो 14529
गले 14527
चॆय्तिरुन्नु 14527
छोटा 14525
याचि@@ 14522
वागित्तु 14522
पऱया@@ 14521
vs 14517
उपलब्धि 14514
आजि 14513
गुला@@ 14513
पहुंचा 14510
करॆ 14508
मार्गा@@ 14508
तस्वीरें 14506
भय 14506
शां@@ 14503
कार्यक्रमों 14502
भे 14502
अम्म 14501
सेवि@@ 14498
ृ 14497
जेना 14496
ियऩ् 14495
अवर्कळु@@ 14494
पत्त@@ 14493
भ्या@@ 14492
सहाय़ता 14491
योग्यता 14489
डिन 14488
पंद्य@@ 14487
असल 14486
क्करुत् 14483
चੰडीगड़्ह 14483
सार्लु 14483
कुऱिच्च् 14479
ऎत्तु@@ 14478
करेननि 14476
उतर@@ 14472
क्रेडिट 14471
ंटर 14467
ग्रामेर 14467
वसू@@ 14466
शहरा@@ 14465
ब्य 14464
लास़ 14463
नटन्तु 14460
मिलती 14460
कौं@@ 14459
चिह्@@ 14457
प्रदूषण 14457
एवी 14456
ल्सिन 14456
हय़े@@ 14456
केलं 14455
तन्त्र@@ 14455
दृष्टिकोण 14455
रੱख@@ 14454
पडी 14451
कालो 14450
दशक 14450
उभय़ 14444
मरुत्तुव 14443
कोटतियिൽ 14442
तुहाडे 14438
दळ 14435
स्थापन@@ 14433
खेळ@@ 14432
हलवारु 14428
ईन 14427
चेय़ारम्यान 14426
िल्ले 14426
चङ्क@@ 14424
ऎक्स्@@ 14420
खोला 14418
दक्षता 14418
द्ୱारा 14418
नाचा 14415
बाला@@ 14413
स्वरूप 14413
पश्चा@@ 14411
युग 14410
तियै 14409
राज्@@ 14405
औसत 14402
वादि@@ 14402
माध्य@@ 14401
मऩु@@ 14399
उऱुति 14398
ष्ठा@@ 14398
साफ़ 14398
पिन्न@@ 14395
ंगि@@ 14392
क्की 14392
गाल 14392
पडिंदि 14390
किता@@ 14388
डिजि@@ 14388
प्पॆट्टत् 14388
क्कियि@@ 14386
चिह्नित 14386
तॆलिय@@ 14386
is 14384
यॆहो@@ 14381
66 14380
द्दी@@ 14378
गोपाल 14377
क्रिया@@ 14374
ढांचे 14374
वन्नि@@ 14374
स्क@@ 14372
कवऩ@@ 14371
जानिय़े 14371
पतिल् 14370
मज़@@ 14369
परिशोधन@@ 14368
f 14367
मावट्ट@@ 14366
अधिकारिगळु 14362
्लि 14358
ੱध 14357
बातिल 14356
लिआं 14356
सख्त 14356
चन्त@@ 14355
ड्डि 14348
इवरॆ 14343
दूध 14343
आईए@@ 14342
अधिकतम 14341
आरोपण@@ 14339
डोर 14338
केट्ट@@ 14337
विशाल 14335
ऱ् 14334
इटि@@ 14331
ग्रां 14329
न्यूजीलैंड 14328
वॆळ्ल@@ 14328
सत्यिइ 14325
बळ 14323
र्कळिऩ् 14322
सुरक्षा@@ 14322
मॅ@@ 14321
कार्यकर्ताओं 14318
क्षमता@@ 14316
पेरिൽ 14316
ळुं 14316
किटैयातु 14315
जैन 14314
पेय़ेछे 14314
बोले 14314
योहन 14313
कर्ताओं 14311
चालिय़े 14310
समीप@@ 14310
बिला@@ 14309
औष@@ 14307
गाँ@@ 14305
चर् 14304
सिवल 14303
स्वतः 14303
मोठी 14301
ऎण्णं 14300
संतोष 14296
प्रतीक्षि@@ 14293
बजाय 14292
भेजे 14289
विट्टार् 14289
शाखा@@ 14287
सुप्रिम 14287
स्थगित 14287
व्यू@@ 14284
चॆन्नै 14282
आपल्या@@ 14277
राणा 14277
वाहनों 14277
संविधान@@ 14277
कब 14272
मरे 14271
स्बास्थ्य@@ 14271
ज़न 14264
चेर@@ 14263
अध्यक्षൻ 14262
इन्तिय@@ 14262
चुरु@@ 14261
कॆप्टॆन् 14259
चौकशी 14257
अमी@@ 14256
कुळ@@ 14256
तियां 14252
फळ 14251
उल्लेखयोग्य 14250
हज़ार 14247
भित्तिक 14246
बाप 14244
रष्टु 14243
कंग्रेसेर 14242
ज़रूर 14242
नानी 14242
the 14241
पिन्तुण@@ 14240
ववामां 14237
मोहन् 14236
नाऩ्कु 14235
लक 14233
घटनाटि 14229
ज्ञापन 14228
सत्त्बेओ 14222
नता 14219
न्यायालयाने 14218
द्दु@@ 14217
पांच@@ 14217
्यायि 14215
अ्यान्ड 14212
लाण् 14211
St@@ 14210
करुं 14210
ज़िੰदगी 14210
वेळ@@ 14209
अप्@@ 14205
रीत 14205
अपर@@ 14202
छा 14202
जदकि 14202
निङ्ङൾ@@ 14201
ग्य@@ 14200
नीडिद्दारॆ 14199
मुऱ@@ 14198
ॆन्नुं 14196
भेङे 14195
अतुकॊण्ट् 14194
यहोवयुटॆ 14194
द्व@@ 14193
पोटी 14193
रुग्णा@@ 14193
धान@@ 14192
भावना@@ 14192
ऎन्नुं 14191
निम@@ 14191
उप्पु 14190
ढी 14190
दवा@@ 14190
दिये 14190
ॆगळन्नु 14190
कलु@@ 14188
पॊंदु@@ 14188
बक्तब्य 14185
कारणंगा 14182
पैन 14181
रें 14181
तिथि 14178
नद@@ 14178
हामला 14177
गरी@@ 14169
फ्लि@@ 14165
शिख@@ 14165
ल्लाम् 14162
सेगुलो 14159
प्रमाणात 14157
आत 14156
सीजन 14156
चऩ् 14154
कोणत्याही 14152
गोष्टी 14152
समस्याओं 14152
पळ्ळि 14148
डाक 14146
भोग 14145
भित्ति 14144
उपजेला 14141
दिखाया 14140
प्राथमिकता 14139
आपनारा 14136
जाया 14136
अटल 14132
कट्टुप्पा@@ 14128
आयिर@@ 14127
कमिशन 14127
रेन 14127
माण 14121
मॊऴि 14120
ल्याने 14120
विद्यार्थियों 14118
लागा@@ 14115
पेट्रोलियम 14114
दल्ले 14113
स्वयं@@ 14113
हिंदॆ 14113
बुरा 14111
सरासरि 14109
असतो 14108
बीजी 14108
चर्चि@@ 14107
सञ्च@@ 14103
डियो 14100
जद 14096
ब्यू@@ 14095
स्कूलों 14092
एगुलो 14091
कण्टु 14086
घेत 14086
इटु@@ 14085
ऊर्@@ 14085
ऒक@@ 14085
बरॆ@@ 14085
१०० 14085
ർट्ट् 14082
वाचि@@ 14081
दृढ़ 14078
न्नतिन् 14078
am 14076
कैंसर 14075
ङ्ङिय 14075
पुष्@@ 14073
फ़िल्म 14073
कटवुळ् 14070
मेला 14068
उड़ा@@ 14067
तुन्न@@ 14065
ट्टे@@ 14064
सർक्कारि@@ 14064
किट्ट@@ 14063
निउ 14060
प्रदेशा@@ 14059
फ्रंट 14059
मूवी 14058
अरचु@@ 14057
देबेन 14055
वुकळै 14054
निंदा 14051
आलं 14050
साध्यत@@ 14050
प्राधिकरण 14049
रिंग 14049
परिबेश 14048
मेൽ 14047
य़ि@@ 14047
कटुम् 14043
ज्य@@ 14043
कॊण्टि@@ 14041
य्क्कुं 14041
रन् 14041
ल्लातॆ 14040
आसेन 14039
ർच्च@@ 14038
विअकतीआं 14037
जाईल 14036
.@@ 14035
रुल 14033
सबूत 14031
हाजर 14029
आदरू 14028
कऴियुं 14028
ताक्कु@@ 14028
नील 14026
लगाई 14025
मिथ्या 14023
आब@@ 14022
रात्र@@ 14022
इते@@ 14020
पट्@@ 14017
प्रथम@@ 14017
उपस्थिति 14014
घटि@@ 14014
लोके@@ 14014
ऊऴिय@@ 14010
सन्तोष@@ 14009
ऎक्कुवगा 14007
दिस@@ 14007
पुरेर 14005
खतरा 14004
रीआं 14004
घेतले 14002
बेड 14001
कून 14000
नम 14000
अतः 13998
अंटू 13997
सौकर्य@@ 13995
चारी 13994
एना@@ 13990
नजर@@ 13988
महिन्या@@ 13986
मुऩ्प@@ 13986
चिन्@@ 13983
चनि@@ 13982
धरपकड 13981
लीआ 13980
बिलकुल 13975
ग्रं@@ 13972
बढ़ोतरी 13971
बुक 13971
वाण् 13970
मुहम्मद् 13969
अयाൾ 13967
गणि@@ 13967
रहीआं 13966
याह 13963
पौल 13958
मुऱि@@ 13958
जिर 13957
नडॆद 13957
शकते 13957
गळा@@ 13955
इरुक्किऱ@@ 13954
ॆयो 13954
यात्रा@@ 13952
राहु@@ 13952
आय्कॆ 13950
पॊंद@@ 13949
दैनिक 13948
चालै@@ 13946
ट्टिऩ् 13945
कोवा@@ 13944
वासि@@ 13944
रने 13942
अभियुक्त@@ 13941
रालु 13939
जर् 13938
राल 13938
वडंतो 13937
तोड़ 13936
कीलक 13934
डेल 13934
कधी 13933
नोटि@@ 13932
सदा 13932
विषा@@ 13930
अफि@@ 13927
मेन्@@ 13927
शेतकऱ्या@@ 13927
दान्नि 13926
प्रावधान 13923
वाल@@ 13923
मेल्@@ 13922
गुल@@ 13912
जवळ 13912
प्रीति 13912
भक्ति 13912
ऩाक 13911
नीर 13910
शाहिद 13910
तली 13909
} 13908
ऎऴुत@@ 13908
त्तेक्क् 13906
पारित 13906
निർम्@@ 13904
पोषि@@ 13904
ak@@ 13903
तन्त्र 13902
टियाक 13900
पार्ल@@ 13900
वयतु 13900
ुलकु 13899
मुग्गुरु 13898
खेले 13897
४ः@@ 13895
पिंग 13892
शील@@ 13892
वश्य@@ 13890
अमैच्च@@ 13889
अवर्कळिऩ् 13889
कारणों 13888
गुर्ति@@ 13885
क्की@@ 13883
परिश्रम 13883
सलायितु 13883
महत्व@@ 13881
परी@@ 13879
ऱ्का@@ 13876
चारों 13874
एनएस@@ 13872
तालु@@ 13869
आका@@ 13868
गें 13868
रेड्डी 13867
कूटातु 13860
अक्रम@@ 13857
ईश्वर 13857
ट्टाण् 13857
res@@ 13856
रुक्कुम् 13855
कथापात्र@@ 13854
वੱल 13854
न्ऱॆयुं 13852
औरत 13849
बाइक 13846
भरे 13846
विडियो 13846
अब्रा@@ 13845
ताँ@@ 13845
बसपा 13843
ay@@ 13842
दारुण 13842
विवरालु 13840
1.5 13837
आरे 13837
प्पाऩ 13834
प्रधानमन्त्रीर 13834
गुन्@@ 13833
छू@@ 13833
बॉक्स 13833
आय्वु 13829
टूर्नामेंट 13829
युद्धेर 13828
पोस्ट् 13823
महत्त्वा@@ 13823
टक्कर 13822
चॆय्तऩर् 13821
मुऴु 13821
कुऴन्तैकळ् 13819
ठो@@ 13818
ताऩ@@ 13818
सीईओ 13815
क्य 13814
प्लान 13814
त्तिलिरुन्तु 13813
योचि@@ 13813
त्तिया@@ 13811
रੰ@@ 13811
सम्पद 13809
तक्रार 13808
ल्लिरुव 13807
राजस्व 13806
कॊलै 13805
पहुੰच 13801
op@@ 13800
अप्पो@@ 13799
मुंबै@@ 13798
संदर्भ@@ 13796
होगु@@ 13796
क्किऱोम् 13795
ऒट्टु 13794
खुँ@@ 13793
बौद्ध 13793
आराध@@ 13791
ओपन 13791
कोल्@@ 13791
जटिल 13790
ऎन्त् 13789
ऒक्क@@ 13786
शुभकामनाएं 13786
दुनिया@@ 13785
तीविर@@ 13784
वाह 13784
जारि@@ 13783
नटपट@@ 13783
उपाय़ 13781
मक्कळु 13780
शिवाय 13778
करुत@@ 13776
मुतलिल् 13776
Y@@ 13775
बाड़छे 13775
दिग्@@ 13774
२ः 13769
साब@@ 13768
चिकित्सॆ 13767
त्यासाठी 13766
वुन्न 13763
अवैध 13759
वाय्प्पु 13759
मर्या@@ 13758
२ः@@ 13757
निൻऱॆ 13756
प्रीमिय@@ 13755
उपकरण@@ 13751
गईं 13749
प्पट्टुळ्ळऩ 13749
काल्@@ 13748
बर्ती 13747
साक्षि 13746
चेवै 13745
किरु@@ 13742
पल्कलैक्कऴ@@ 13742
ter@@ 13738
वधी 13737
आल्लाह्र 13735
बर्ग 13735
पिक्@@ 13734
कंडु@@ 13733
सपा 13731
कवागि 13730
साहमणे 13729
अध्यापक 13727
चलता 13727
दिशा@@ 13726
सशस्त्र 13726
अवा@@ 13725
स्ऱ्ऱे@@ 13725
जाणार 13721
आट्च@@ 13720
माह 13718
वैय@@ 13717
बाग 13716
मन्त्रक 13716
कुऴु 13714
लीड 13714
त्ৰ@@ 13712
अऱिवु@@ 13711
चांदी 13711
सहभागी 13711
चेयालनि 13710
क़ा@@ 13707
सपै@@ 13706
उठाने 13704
मास्क 13704
लोन 13704
सामेल 13704
स्मि@@ 13702
सथिती 13699
नॆर@@ 13698
कार्ट@@ 13696
रेल्वे 13696
आपण@@ 13693
कॊरोऩा 13693
पट्टा@@ 13693
संयोग 13692
गणित 13689
मारुं 13689
राज्यत्तॆ 13688
शिप 13688
बडि@@ 13687
होणा 13687
स्रोत 13686
b 13685
अली@@ 13685
निय 13684
प्पाक 13683
टल् 13682
ध्बंस 13682
आपे 13680
क्रिकेटर 13678
मऩै@@ 13678
मार्गदर्शन 13677
चन्द्र 13676
नाच्या 13675
भरी 13674
ियाना 13674
इੰडीआ 13672
बारदु 13672
नीती 13670
टम 13668
ढे@@ 13668
स्नातक 13667
कुऱिप्पिटत्तक्कतु 13662
प्पिर@@ 13660
टेक्@@ 13659
हർ@@ 13659
सत्या@@ 13657
हंत@@ 13656
पायि@@ 13654
पॆयर् 13654
मामला@@ 13654
अप्पुडु 13650
अयिना 13645
पटत्तिऩ् 13644
राजीव् 13644
नेओ 13642
नाला 13641
कय़ेकजन 13639
य़ार@@ 13635
अभ्यर्थि@@ 13634
करेछिलाम 13634
हिन्दि 13632
आक्@@ 13631
प्पुम् 13631
जोलि 13630
बलछे 13628
िली 13628
प्रतिनिधित्व 13626
हास@@ 13626
मलि@@ 13624
तकनीक 13623
69 13622
चिलर् 13621
मऩि@@ 13621
रहें 13619
सभार 13617
्यू 13617
बारि@@ 13614
मक्कळुक्कु 13614
गिंदि 13612
तरुण 13610
भू 13610
आयि 13609
आपली 13608
सॉ@@ 13608
बताते 13605
वराण् 13605
स्ति 13605
ख्या@@ 13604
व्ही@@ 13604
माणवर्कळ् 13603
ळे@@ 13601
2022 13600
भीकर@@ 13600
तवण 13599
बलात्कार 13599
तिकळ् 13596
चार्य 13595
भीड़ 13593
सिद्दु 13593
णॆगॆ 13590
मीडियावर 13590
बिक्षोभ 13588
वरुट@@ 13588
षू@@ 13585
समय़रे 13583
डीआं 13582
ऱुकൾ 13582
ड्यू@@ 13581
India 13580
वक@@ 13578
श्रीनगर 13566
पूर् 13563
जीतने 13557
निर्णयं 13556
टॆल्लि 13553
अनू@@ 13551
गुना 13550
प्रसिड@@ 13549
वुद@@ 13547
सीआं 13547
पॆऱ@@ 13546
गुप्त 13545
जन् 13543
विद्युत् 13542
हल्@@ 13542
च्छा@@ 13541
जिੱथे 13541
डनि 13541
त्ताण् 13539
मूलत 13535
मिटार 13534
एभाबे 13533
टिय 13532
हिस्सों 13530
लेनि 13525
मागे 13523
पोट्टियिल् 13522
उत्तरी 13521
डिग्रि 13521
वैत्तिरु@@ 13521
क्रिस्त@@ 13520
शब्दों 13520
विरोध@@ 13519
इत्तरं 13518
कॉल 13518
वੱडा 13518
उङ्कळु@@ 13516
निषेधि@@ 13516
शुधुमात्र 13516
ैन 13514
किटैक्कुम् 13512
आस्पत्रिकि 13509
डलु 13508
सन्देह 13507
गुलिके 13505
उल्लेख@@ 13502
त्यावर 13502
बरे@@ 13502
सेइ@@ 13501
ist@@ 13500
दूरु 13499
चित्रद 13498
वना@@ 13496
त्वरलोने 13494
ठोस 13493
दळ@@ 13493
अनुसूचित 13492
एकदम 13490
किना 13490
जनर 13490
तियिल् 13487
उल्लेखनीय 13484
टुत्तत् 13483
शहर@@ 13483
ऎल्लावरुं 13479
विद्युत 13477
सिरि@@ 13476
बढ़ती 13475
भित्तिते 13475
िलायि 13475
अवि 13472
करिगॆ 13472
वीरि@@ 13472
निम्न 13471
चेयरमैन 13470
शान्ति@@ 13470
ताब्यात 13469
गलि@@ 13466
दुसर@@ 13459
माध्यमिक 13459
PM 13456
ऒकटि 13456
परिवारों 13456
कवऩि@@ 13455
स्मिथ 13455
मद्य@@ 13454
एटी@@ 13452
पॆऱ्ऱु 13446
हिੱ@@ 13445
दाग 13443
बिशिष्ट 13439
मगरों 13439
कॆलस@@ 13433
झू@@ 13433
पाटि@@ 13431
इन्तत् 13430
किती 13430
लंबी 13430
उत्तरा@@ 13429
संहिता 13429
करुणा@@ 13427
अजि@@ 13426
कॊंड 13425
रखे 13425
ऱाण् 13424
अन्यदेर 13423
तॆय 13423
ओर@@ 13422
बिआन 13422
घटनाओं 13418
इदरल्लि 13416
टाके 13416
स्को 13414
ंचायि 13413
मात्रमल्ल 13413
सिरफ़ 13413
वारे 13412
रिजल्ट 13411
क्ले@@ 13409
कोविंद 13404
जेडी@@ 13403
कांत 13402
जण@@ 13401
मन्दि@@ 13401
संस्कृत 13399
अद्@@ 13398
अंदाज 13397
चർच्च 13397
दाखलागिदॆ 13396
निरीक्ष@@ 13390
बिजेपि@@ 13387
अम 13386
प्रबੰ@@ 13386
पिऩ्प@@ 13385
वन्तु@@ 13385
जम@@ 13382
स्वर@@ 13382
निजे 13381
प्ति@@ 13379
सर्कारद 13376
कৰ@@ 13375
मुयऱ्चि@@ 13375
ऒरिक्कलुं 13373
जगा@@ 13373
त्तिलेक्क् 13373
तङ्क@@ 13372
मल्ल@@ 13372
मेडि@@ 13370
वाऩ् 13369
णालु 13368
इंटर्@@ 13367
समस्यार 13366
2007 13362
स्वकार्य 13362
गौतम 13360
उंडालि 13359
थाने 13359
इतनी 13357
चिन्ता@@ 13357
नालु@@ 13357
बिद्युॎ 13357
परिबार@@ 13356
न्या 13351
ङ्कळैप् 13350
जांदी 13350
पड़ते 13349
पेरि@@ 13347
न्ता 13346
मलै@@ 13345
अतिकम् 13344
एमि@@ 13343
शिव 13339
कर्नाटक@@ 13338
णिआ 13336
यॆहोवन 13336
इरि@@ 13331
सोना 13331
बर्ष@@ 13330
हू 13329
पवन् 13328
्तो 13327
मंत्रियों 13326
अधीने 13322
कुऱु@@ 13322
मराठी 13321
प्रबंध 13319
अञ्चलेर 13318
ळ्ळऩ 13318
हिर 13318
आशि@@ 13317
मुसलमान 13316
प्रादेशिक 13315
तीव्रंगा 13314
निति@@ 13314
न्नो 13313
दारु@@ 13312
वर्ण@@ 13312
कसे 13311
चिह्न 13308
पक्षरु 13308
बोली 13308
भारतदल्लि 13306
सेक्स 13305
प्राइ@@ 13304
सास 13302
हिन्दी 13301
एगी 13299
मरी 13298
मसू@@ 13298
कुऱिप्पिट@@ 13295
स्रा@@ 13295
बण@@ 13293
क्कळै 13292
न्तऩ 13291
हासपाताल 13291
इन्डिय़ा 13289
वंत 13289
ूर@@ 13289
टै 13288
ड़ने 13284
निन@@ 13284
अन्तप् 13282
गिरफ्तारी 13282
मायाण् 13281
त्तुळ्ळऩर् 13278
प्रसं@@ 13276
निनक्क् 13275
आय़ोजन 13274
टाने 13274
सिरुव 13273
इक्कार्यत्तिൽ 13271
प्राप्त@@ 13269
त्याच्या@@ 13266
घू@@ 13265
फरी@@ 13265
रंगा@@ 13265
ंचिन@@ 13264
अटिय@@ 13264
यारुम् 13263
मण्डल@@ 13259
शरी@@ 13258
ंदर् 13257
उमेदवार 13256
मक्कळिऩ् 13256
कार्यत्तिൽ 13254
सिनिमानु 13253
्ली@@ 13252
अध्य@@ 13251
अपर 13251
स़ाह 13250
कमाई 13249
इटम् 13248
करुत्तु@@ 13248
फळरे 13245
िय़ेछिलेन 13245
ऴ् 13240
ज्योति@@ 13239
ेऱ्ऱ@@ 13237
देइछन्ति 13235
अंदुलो 13229
इलांटि 13228
कमायि 13228
सिੱख 13227
होंगी 13226
जरिये 13224
निवार@@ 13223
शैली 13222
पर्याय़े 13219
कट्च@@ 13216
िलेक्कु 13216
दले 13213
आहार@@ 13210
वीट्टिൽ 13208
इंदिरा 13207
जੰ@@ 13206
स्त्र 13206
नॆयुं 13205
लम् 13205
केळ्वि@@ 13203
अमेरि@@ 13202
जमानत 13202
जेथी 13202
इतिमध्येइ 13200
वॆळिये@@ 13200
ल्ले@@ 13198
डाइ@@ 13194
रूपये 13194
साइड 13194
निवास 13191
पुराने 13191
वरुन्न 13191
सख@@ 13191
पयि@@ 13187
en 13186
आमादेरके 13186
कुन्न@@ 13179
आलो@@ 13178
स्ती@@ 13177
साहस 13175
पिणऱायि 13174
आऱु 13173
राजमार्ग 13172
et 13171
चलने 13169
ंचुको@@ 13166
इंट@@ 13165
इउनिय़न 13165
नित्य@@ 13163
क्कल् 13162
ऎवरु 13160
शकता 13159
इयक्क@@ 13156
द्धि@@ 13156
चित्रपटात 13155
खिला@@ 13150
बिल्कुल 13150
कटै@@ 13149
दिलेन 13146
सिनिमाकु 13146
कद@@ 13145
ओय़ान 13143
प्रणब 13143
ंचु 13141
चक्र 13139
स्क्रीन 13137
निट@@ 13136
संस@@ 13135
पडॆदु@@ 13132
वादा@@ 13131
निन्नॆ 13130
दाँ@@ 13128
एइच@@ 13126
चुੱके 13126
तन्@@ 13126
तिनॆ 13125
कच्चे 13124
बुद्धि 13123
वੱडे 13123
पुर्@@ 13122
61 13121
माडिदॆ 13120
होटल 13120
गिद्द 13117
याब 13117
िल्लॆन्नुं 13117
फुटबल 13116
द्वी@@ 13115
ण्टायिरुन्नु 13112
मेहनत 13111
ऎंबुदु 13110
य्यारु 13109
कारी@@ 13108
सम्पा@@ 13108
क्कुऱिच्च् 13106
खंडि@@ 13106
लक्षण@@ 13103
सैफ 13103
खुश@@ 13101
रॆंडो 13098
कट्चि@@ 13097
कर्णाटक 13096
नरी 13095
अंड् 13093
जाएं 13091
नोडि 13091
बलेओ 13089
काळात 13084
एरि@@ 13082
कें 13082
रियल 13082
सट@@ 13082
देखी 13080
देशमां 13078
बलल 13077
न्तुम् 13075
ऐकट 13073
स्तुन्नायि 13073
प्रदरस़न 13072
मृतदेह@@ 13072
जाल@@ 13071
पणं 13071
्प्प@@ 13070
डिया 13068
तत्त्@@ 13067
अल्ला@@ 13065
रविवार 13064
मञ्च@@ 13063
साहेब 13060
परिहार@@ 13059
य़क 13056
इंतह 13053
र्कळै 13053
नटप्पा@@ 13052
अतएब 13050
पोयारु 13048
पुरस्@@ 13045
चूपि@@ 13044
डൽहि 13040
तेवै 13039
सामान्य@@ 13039
सत्यं 13038
हत्या@@ 13034
परेशान 13033
स्कोर 13030
अमल 13029
ट्टिൽ 13029
परिशोधन 13029
विटुम् 13027
सीतारा@@ 13027
किशोर 13025
पॆऱ्ऱो@@ 13020
चेयालि 13019
चोद्य@@ 13018
नेरॆ 13017
12.@@ 13015
जागा 13015
000@@ 13014
ity 13014
खेल@@ 13014
कोल्पो@@ 13013
दाइ@@ 13013
महिळ@@ 13012
ॉर्@@ 13010
ऎंत 13002
अयि@@ 12998
कർ 12998
विव@@ 12997
सिल्ल 12995
गुलो@@ 12993
वरॆगू 12992
अन्न् 12990
तिच्या 12987
ियाद 12987
देवुनि 12985
बैठे 12985
तप्पु 12984
लाना 12984
कारां 12983
बर्ण@@ 12982
वाऴ्क्कै 12981
शार 12980
मुलज़मां 12979
ळ्ळि@@ 12975
ंडर् 12974
चूड़ान्त 12974
नीआं 12974
रोमा@@ 12974
यिरुन्निल्ल 12972
कर्ना@@ 12971
द्बि@@ 12970
दिवसा@@ 12969
सभॆयल्लि 12968
हराया 12968
कॆळ@@ 12967
पिळ्ळै@@ 12966
मानुषके 12966
तुटऩ् 12965
चॆबु@@ 12964
वालिआं 12964
आहमेद 12963
एरा 12961
नाट्ट@@ 12961
सहमत 12961
तरलि@@ 12960
वरला@@ 12960
संगी@@ 12960
बੰदी 12959
क्काल@@ 12958
क्कॊण्टिरु@@ 12957
द्या 12956
चैन 12955
लाल् 12955
तपास@@ 12950
निय़न्त्र@@ 12950
ंटि 12949
चिन्त@@ 12949
स़िकाइत 12949
हस्ता@@ 12945
क्ति@@ 12944
संश्लिष्ट 12944
बस्@@ 12943
कैमरे 12942
तळ्ळि@@ 12941
लंदन 12941
लिं@@ 12940
४ः 12939
ध्रु@@ 12937
पटा@@ 12936
co@@ 12935
तॆरकॆक्कि@@ 12935
देइथिले 12935
तथापि 12934
कमजोर 12932
बछरे 12931
िलॊ@@ 12931
करनगे 12930
क्र 12930
शाही 12929
हैंः 12927
चेशा@@ 12925
कमल 12922
पੱतर 12921
एऱ्पट्टतु 12920
पकुतिकळिल् 12920
गीत@@ 12916
बीज 12915
रखें 12915
कैगॊळ्ळ@@ 12913
चेत 12912
सौंप 12912
परिच@@ 12911
संक्रमित 12911
नन्नायि 12910
ओय़ार्@@ 12909
विनियो@@ 12908
दम@@ 12907
सम्भबत 12905
सूक्ष्म 12905
आद 12903
आर्टि@@ 12903
उऱुति@@ 12902
ड़े@@ 12901
sh@@ 12898
राज्य़@@ 12897
उपभोक्ता 12896
कनी 12896
उळ@@ 12895
माडबेकु 12895
रल् 12895
इप्पोऴुं 12893
वस्तुओं 12892
म्यान 12890
जरिगि@@ 12887
घटणास्थळरे 12886
येहेतु 12886
वरन्नु 12886
अतिशय 12885
तॆगॆदु@@ 12884
बल्लेबाजी 12884
भारताच्या 12884
ओटि@@ 12882
िलिरु@@ 12882
अत्याचार 12881
ंदागि 12878
मੰतराले 12876
आत्मा@@ 12875
ऎत्र 12875
गल्प 12875
लुः 12874
मेले 12872
कोष 12870
बंदिदॆ 12868
विमर्श 12867
व्यवसा@@ 12865
वाज@@ 12864
पञ्च@@ 12862
लाही 12860
ित@@ 12860
जिं@@ 12859
पशुपालन 12857
अनेकेइ 12856
टानिकि 12856
परिष्कार 12854
कळैच् 12853
तलॆ@@ 12852
कक्ष@@ 12851
किरिक्कॆट् 12848
राने 12847
and@@ 12845
पोक्कुवरत्तु 12845
माർग@@ 12845
चाह@@ 12843
हाल@@ 12839
पालिय़े 12838
यिट@@ 12838
चॆलु@@ 12836
तैक् 12834
तैप् 12834
धीर 12834
विऱ्कु 12834
77 12833
जरुरि 12833
91 12832
लवकरच 12832
यद 12831
श्रद्धि@@ 12831
मेघ@@ 12830
नीतीश 12829
ूर 12829
दॆहलि 12828
लीय 12828
त्तिൽ@@ 12827
ऒदगि@@ 12826
गिल्ल 12826
जस्ऱ्ऱिस् 12819
ৱा 12819
दूसरों 12817
ंदरॆ 12816
गिरि 12816
गुजरात् 12815
पोर@@ 12814
शरीफ 12812
करदी 12811
चैना 12811
कौश@@ 12809
चाहीदी 12809
चੱल 12808
मत्सरि@@ 12808
असॆंब्ली 12807
सित्तु 12807
बरो@@ 12800
सुविधा@@ 12799
तलु 12798
दुख 12797
प्पिच्च 12796
हिंसा@@ 12795
सुकु@@ 12794
बैटरी 12792
पशु 12790
स्तुन्न@@ 12789
गौरव@@ 12788
लोड 12788
निमित्तं 12787
मायिरु@@ 12785
रखि@@ 12784
ऱू@@ 12783
बनर्जी 12782
नुन्नारु 12781
राज्यात 12781
ोनी 12780
क्कर@@ 12779
चलच्चित्र@@ 12779
71 12776
नावा@@ 12776
घटनास्थळी 12775
हालमां 12774
आप्यो 12773
गेंदबाज 12772
जमी@@ 12772
निवडणुकी@@ 12772
अनुष्ठान 12771
पुकार् 12771
बढ़ने 12771
मेखल@@ 12769
पट्ट 12766
फलि@@ 12765
रावु 12765
कर्त्त@@ 12762
हफ्ते 12762
तरीका 12760
वधीआ 12760
ट्वि@@ 12759
मोटर 12759
आछि 12757
क्ता 12757
पास@@ 12756
पीसी 12755
कॊलपातक@@ 12754
प्रकास़ 12754
at 12753
क्कणमॆन्न् 12753
टाई@@ 12750
समज@@ 12750
नव्हते 12747
आटो@@ 12746
84 12745
वकै@@ 12745
वॆल्ल@@ 12744
आलि@@ 12743
गेछेन 12741
ट्रिक 12741
म्पटि 12741
अखिल 12740
वच्चे@@ 12739
विश्वासं 12738
रेकर्ड 12734
सिन्@@ 12734
मण्ड@@ 12733
अतॆ@@ 12732
माकुन्नु 12732
इमार@@ 12728
प्रतिकरि@@ 12728
मासेर 12728
्तु 12727
एवुं 12725
मरी@@ 12724
संबन्धिच्च 12724
तरे 12723
पृथिबीते 12723
ट्टुळ्ळत् 12722
तसवीर 12722
बॆलॆ 12721
वाट 12721
किऩ्ऱ@@ 12720
उंदा 12715
मलिक 12714
कन्या 12713
ख़ास 12713
डार@@ 12710
नजी@@ 12710
बच@@ 12710
ॆयॆ@@ 12710
पू 12709
पेरुं 12709
ढी@@ 12708
ऴा@@ 12707
दवरु 12706
वृत्त@@ 12705
नालुगु 12704
साउथ 12704
बाही 12702
तात्@@ 12701
श्रद्धांजलि 12701
अतऩै 12700
विक्क@@ 12700
le@@ 12699
दिल्ल@@ 12699
नटैपॆऱ्ऱु 12699
वेऩ् 12699
पछाण 12697
सारीआं 12697
विवे@@ 12696
ङ्ङൾक्कुं 12695
कामा@@ 12694
कॉम 12694
फरियाद 12694
01 12693
पीपी@@ 12690
मुख्य़ 12689
कळाय 12687
जੰमू 12687
क्षेत्रा@@ 12686
इरुक्क@@ 12685
प्पी@@ 12685
वधारो 12684
कर्तृपक्ष 12683
चॆय्युन्न@@ 12682
बिशाल 12682
मिश@@ 12682
ळुक्कु 12681
चीना 12680
ज्यां 12678
तुटङ्ङिय@@ 12678
तॊटर्पिल् 12678
मोर 12677
उनि 12676
ह्या 12674
टेली@@ 12673
डिगा 12673
फरा@@ 12673
आदा@@ 12671
३५ 12671
मैडीकल 12670
लागुत्तदॆ 12670
अनेदि 12669
शून्य 12669
स्नेह@@ 12668
षु@@ 12667
आईसीसी 12666
आतन 12666
त्तेवॆ 12665
संबोधन 12663
अनुदान 12662
उमीदवार 12662
करुतु@@ 12662
ऩाऩ् 12662
कालंलो 12661
समये 12661
दुका@@ 12657
लेस 12657
II 12654
अੱगे 12654
चारा@@ 12654
रोस 12654
युटऩ् 12653
ल्ड् 12652
इंतजार 12651
बन्धं 12648
दुसऱ्या 12647
संसार 12647
हैक्कोटति 12647
म्हणा@@ 12646
ार्ः 12646
प्रकृत 12645
बॆंगळू@@ 12645
रह्यां 12643
आकां@@ 12642
म्भ 12642
अऩ्ऱु 12641
उणा 12640
पडशे 12640
बांलादेशे 12640
बेस्ट 12638
मुऴुवൻ 12638
य्य 12636
बलछेन 12631
न्त्र@@ 12630
सूर्य 12629
निकट@@ 12627
मट्टु@@ 12626
अध्यय़न 12625
बारी 12623
गुज@@ 12622
फ़िलम 12622
चॆय्त् 12621
निको@@ 12621
अन्ना@@ 12619
काकुंडा 12616
दंड@@ 12614
वर्ग@@ 12614
शिक 12613
क्षतिग्रस्त 12612
सम्पर्कित 12612
मानव@@ 12611
उत्तम@@ 12610
स़र@@ 12609
अपाय@@ 12607
सहयोगिता 12604
वरै@@ 12603
खड़ा 12599
74 12596
कावा@@ 12595
ल्लू 12595
केटे 12592
प्रस्तावित 12592
खून 12589
नेइ@@ 12589
नकार 12587
साली 12587
किऩ्ऱतु 12586
लीय़ 12586
नटै@@ 12585
ढा 12581
सम्मति@@ 12581
अनुमति@@ 12580
समाधा@@ 12580
तुमच्या 12579
समाधानं 12579
स्ट्रि@@ 12579
प्स 12578
बाइबेलेर 12577
मुखोमुखि 12577
कहां 12575
न्नॆ 12574
तुरੰत 12573
नियंत्रित 12572
अक्टोबर 12571
सूक्षि@@ 12570
ऩ्मै@@ 12569
दिनां 12568
विज्ञा@@ 12568
ताप 12565
एർ@@ 12563
शित 12562
कारिय@@ 12561
कृष्णा 12561
वस्त्र@@ 12561
गूगल 12560
वरैयुम् 12560
रजिस्ऱ्ऱർ 12558
विश@@ 12558
क्कॊळ्ळ 12556
यिलुं 12556
ऱां 12556
१ः@@ 12555
सरल 12554
भले 12553
कूटॆ 12552
व्यावसायिक 12550
चऩ@@ 12549
तद@@ 12547
नेरत्तिल् 12547
आवाज 12546
स्ट्रे@@ 12546
पुरे 12545
ुर 12545
आह्बान 12544
ॆनु 12544
एने@@ 12540
दिय़ेछिल 12539
त्तिऩर् 12538
स्स@@ 12536
ब्बर 12534
डिपटी 12533
ऎक्क@@ 12532
करोना@@ 12530
न्यूडൽहिः 12530
ब्यु@@ 12527
जांदे 12525
दरु@@ 12524
पट्टु 12523
पोलीसु@@ 12523
सबु@@ 12523
नभेम्बर 12522
छाड़@@ 12521
नेपथ्यंलो 12520
ञ्चु@@ 12519
वङ्कि 12516
रसू@@ 12515
क्कैयिल् 12512
ळ्ळऩर् 12512
निर्धार@@ 12509
जिवें 12508
दांतो 12505
रिजर्व 12503
वास्तव@@ 12502
करमैन 12500
क्रो 12500
वरकू 12500
IPL 12498
ट्रां@@ 12497
विधाइक 12497
मिश्रण 12496
किस्@@ 12495
सिबि@@ 12495
उद्दिन 12494
ङ्कळा@@ 12494
हण@@ 12493
ट्स@@ 12491
मॊऴि@@ 12491
लुक 12490
कल्ल@@ 12489
मंजूर 12487
क्सी 12485
रघु@@ 12485
एकदिन 12484
वण 12484
मातम् 12483
विलु@@ 12483
कोर्टु 12482
अर्थाॎ 12479
न्यु@@ 12479
अल्प 12477
न्ताल् 12476
च्चुं 12475
भलाई 12473
कांच्या 12472
नव्@@ 12472
कॆगॆ 12470
करतां 12469
पराजय@@ 12468
मऱुपटि 12468
कूल@@ 12467
वजन 12467
वन् 12467
अर्जुन् 12466
कटु@@ 12464
क्कप् 12463
अधिकतर 12462
राज्यमंत्री 12462
आसानी 12459
कद 12459
जिय@@ 12458
वटि@@ 12458
विൻऱॆ 12457
स्टाफ 12457
पहुंचने 12455
गिर 12454
छੱ@@ 12454
बनाकर 12454
स्वर्ण 12453
बछ@@ 12452
कस्ट@@ 12451
दूत@@ 12451
पवन 12446
फिक 12445
सैनिकों 12445
दानि@@ 12444
वेले 12444
आइए 12443
बल्@@ 12442
वळि@@ 12442
कण्टु@@ 12439
ऊन 12438
ग्रिफ़तार 12438
चिकित्स@@ 12436
इटीवल 12434
उंटु@@ 12434
ल्यानंतर 12434
तलु@@ 12431
शुरूआत 12431
पड़ी 12430
लूक 12430
इप्पटि@@ 12429
नीनु 12429
तियु@@ 12428
पिरतेच@@ 12428
क्षी@@ 12427
खेलते 12427
तेर्तलिल् 12427
ंब 12426
आदर 12423
अवरि@@ 12418
आरब 12418
अनुकूल@@ 12412
टीमि@@ 12412
विप@@ 12412
ग्लो@@ 12411
मासिक 12411
ळळ 12411
संख्यॆ 12410
निऱैय 12409
नृत्य 12409
अयोध्या 12408
700 12404
सिद्धार्थ 12404
यात्र 12403
हारा 12401
फलं 12399
भेद 12399
हेठळ 12399
लिह@@ 12397
परमाय 12396
स्थानंलो 12396
एदिन 12395
देखि 12394
माൻ 12394
देरओ 12393
स्पोर्@@ 12393
ग्ग@@ 12392
वेय@@ 12390
इंच 12389
अञ्चल 12387
परिस्थिती 12387
ऱिप्पोർ@@ 12384
अमेरिक्क@@ 12383
व्यस्त 12382
हाजरा@@ 12382
हानी 12381
किछुटा 12380
तॆलिपिंदि 12378
चेअरमैन 12377
विपत्तु 12377
ञ्ज 12376
नेतलु 12376
बृष्टि 12375
मऩित 12375
वन्नू 12372
िय्@@ 12372
श्रा@@ 12371
पारम्प@@ 12370
मनुष@@ 12370
पलर् 12369
ारॆ 12369
अभिज्ञता 12366
भेद@@ 12366
तमि@@ 12365
प्रीति@@ 12365
स्ऱ्ऱो@@ 12361
घेण्यात 12360
तुताऩ् 12359
नितिन 12359
रत्@@ 12358
वासियों 12358
कीआं 12357
पौँछे 12356
हाय@@ 12354
ल्लिन 12352
ूक 12351
दास@@ 12350
महानिदेशक 12348
उपयो@@ 12346
सहियोग 12346
पर्यट@@ 12345
प्रेमि@@ 12344
आचर@@ 12340
हाँ 12339
आइआ 12336
टाइम 12335
नम्मुटैय 12335
वच्चि@@ 12335
अमॆरिक्का 12334
सलागुत्तदॆ 12334
चूऴ्@@ 12333
किरी@@ 12331
दिल्लिर 12330
सुपरीम 12329
नीण्ट 12328
डैन 12327
भक्@@ 12327
अमेरिक्कൻ 12325
कॆयन्नु 12325
नऩ्ऱि 12325
स्थिरीकरि@@ 12325
याचे 12324
सटा@@ 12323
उदा@@ 12321
जिला@@ 12321
करवानो 12319
अतडु 12318
चुना 12318
गळू 12317
ज़ोर 12317
तॆन्नुं 12315
86 12314
संबंधा@@ 12313
य़नि 12312
अहमदाबाद 12311
ऎल्लाम् 12311
चिव@@ 12311
पावसा@@ 12310
चॆऱिय 12308
बढ़@@ 12308
सुप्रीं@@ 12304
माणॆन्न् 12302
स़े@@ 12302
म्याचे 12301
आगेर 12300
२०१४ 12299
छबिटि 12298
काब@@ 12297
काळजी 12297
डंतो 12297
डीओ 12296
ल्यान्ड 12294
बिषय़टा 12293
मावट्टम् 12293
निवारण 12290
ate 12287
कोर्ट@@ 12287
मुकेश 12287
मॊऴ@@ 12287
ट्वी@@ 12286
टिस 12284
जेकर 12283
सपोर्ट 12283
ग्रो@@ 12282
तरा 12281
100@@ 12280
अमेरिके@@ 12280
संत@@ 12280
av@@ 12278
कुठ@@ 12278
पाർट्ट@@ 12278
मकिऴ्च्च@@ 12278
शेअर 12278
ण्णु@@ 12277
्त 12276
अधिक@@ 12273
गोटिए 12273
ताम@@ 12272
प्रमादं 12272
काळा@@ 12271
बेडि 12270
बाबु@@ 12269
78 12268
पीसी@@ 12268
सालां 12268
तोल्@@ 12267
ऎव्वाऱु 12265
दिद्दारॆ 12264
एकबार 12261
कइ 12260
गिरि@@ 12259
सफाई 12259
सम 12259
होणगे 12259
स्वप्@@ 12258
अवसानि@@ 12255
डिमांड् 12255
नवें 12255
सके@@ 12255
बेइ 12253
क्कळुं 12252
पाँच@@ 12250
ष्टे 12250
छय़ 12247
अक्@@ 12246
टमिरुन्तु 12245
मनि@@ 12245
विनोद 12244
औरतां 12243
तिंग@@ 12239
क्षम@@ 12238
सर्वेक्षण 12235
विद्याർथि@@ 12234
कलन्तु@@ 12231
गोष्टी@@ 12231
लिंक 12231
ia 12226
तोने 12224
पेच्चु@@ 12224
विश्लेषण 12222
चोटु 12221
ियान 12220
इणैन्तु 12217
ज्यादातर 12215
तीब्र 12215
घे 12213
परिचाल@@ 12213
२०१९ 12213
उपयोगी 12212
पिन्नालॆ 12210
बिद्यालय़ 12210
81 12206
सुस्थ 12204
लोनू 12202
कुणा@@ 12200
रोजी 12200
गोष्ट 12198
न्डार 12197
वरॆयुं 12197
सिक्कि@@ 12197
कर्णधार 12193
उऱुप्पिऩ@@ 12192
संधी 12192
च्चाൽ 12191
पदों 12191
अपराध@@ 12189
पात्रलो 12189
लखनऊ 12189
ऎन्नो 12188
ताकुम् 12187
मेऱ्पट्ट 12187
ंकि 12185
क्कूटिय 12185
दानेर 12183
इऱा@@ 12180
स्ऱ्ऱർ 12180
जिंदगी 12175
उण्मै@@ 12173
करुत्तु 12173
तिरञ्ञॆटुप्प् 12171
कोथाओ 12170
तॆरियविल्लै 12170
मुकदमा 12170
र्लु 12170
िलै 12170
अंते@@ 12168
मुहैया 12168
मोहाम्मद 12168
गुरुत्ब 12167
स्फो@@ 12166
to 12163
जिज्ञेस 12162
अमैच्चकम् 12159
पादुकोण 12159
गुलि@@ 12155
अद्देह@@ 12154
नद 12153
आईएस@@ 12152
कऱ्ऱु@@ 12152
माथा 12152
प्रणा@@ 12151
प्रवाह 12151
रॉय 12151
पॆरुम्पा@@ 12150
ov@@ 12148
जलवायु 12148
गोष्ठी 12147
जाव@@ 12147
रालेदु 12146
कत्ति@@ 12145
िय 12145
इरुन्तार् 12144
आराम 12142
मूर्@@ 12142
करायाइथिला 12141
जयंती 12140
हाकि 12139
जॆडिऎस् 12132
शय@@ 12131
णीत 12129
जेलाय़ 12128
दोस़ी 12126
महीनों 12126
कलम 12123
बाबे 12123
रुख 12121
स्मार्ट@@ 12121
भरती 12120
ൻसि@@ 12120
हें 12119
कोनो@@ 12117
मामलाय़ 12116
लगने 12116
21@@ 12115
प्पटि 12114
पट्ल 12111
सीनियर् 12111
अभिने@@ 12109
अंतर्जातीय 12108
जेम 12104
भरि@@ 12103
षूटिंग् 12101
प्रकटन 12100
बेस 12100
लीगेर 12100
संशोधित 12100
उइकेट 12098
कार्यकर 12098
कमिटिर 12097
धील 12095
कार्यकर्ता 12094
पिऩ्@@ 12094
चੱ@@ 12093
जागरूकता 12093
दोबारा 12092
व्यक्@@ 12092
ंच् 12091
टॆक्@@ 12090
आसन 12088
एन्ड 12086
प्पटुकिऩ्ऱऩ 12086
हिरिय 12086
कायमटै@@ 12084
बिमान@@ 12083
प्रचलित 12081
सेप्टेम्बर 12077
वऱ्ऱ@@ 12075
निं@@ 12074
चंद्रबाबु 12073
मोटरसाइ@@ 12071
अंदुके 12070
वाहतूक 12070
निऱुवऩङ्कळ् 12069
अया@@ 12068
आयनकु 12068
जित@@ 12068
निषेध 12068
लोकोनो 12068
इप्पोतु 12067
अटिस्थान@@ 12065
जवानों 12064
पूर्तिगा 12064
पणम् 12063
अन्य़ 12060
जाणी@@ 12059
मरीजों 12058
मुटिया@@ 12058
पाहा@@ 12057
ऐंड 12056
प्रभाव@@ 12056
मॊबैल् 12056
दक 12055
प्रभारी 12055
होस्पिटलमां 12055
कॊंडिद्दारॆ 12054
अंदुकु 12052
च्यु@@ 12052
मनाया 12052
करुछि 12050
आमदार 12047
राग 12047
कलिगि@@ 12046
पेशा@@ 12046
अब्दु@@ 12044
नशिप 12044
ओप@@ 12042
तैय@@ 12042
दृढ़@@ 12042
शेय़ार 12042
३२ 12041
कोरु@@ 12035
कटौती 12034
पोष@@ 12032
बाड़@@ 12032
बाज 12031
सिद्धांत 12029
दिੰ@@ 12028
लाभा@@ 12028
असली 12026
पिल्ललु 12026
बेहतरीन 12026
प्रभुर 12019
व्यव@@ 12019
दंप@@ 12018
२०११ 12017
आयो@@ 12016
राजकुमार 12014
गौर 12013
नൽकियि@@ 12011
राज्यद 12011
हारिय़े 12006
घोष 12003
सरि 12003
82 11998
प्पिक्काൻ 11995
कालेर 11992
भारतना 11991
वाहि@@ 11991
किलो@@ 11987
कीऴ@@ 11986
गॊंडि@@ 11985
नाडु 11985
य़ी 11984
लक्ष्यं 11984
आउट@@ 11983
ऎन्निवराण् 11982
कटऩ् 11982
कटा@@ 11982
आज्ञा@@ 11981
ल्ड@@ 11981
भौतिक 11978
नीरि@@ 11976
उੱथे 11975
ऒऩ्ऱु@@ 11974
पृथक 11973
हता@@ 11973
साझेदारी 11972
कमे 11970
कायम् 11968
परिवर्त@@ 11968
किं 11967
पॆऱ 11965
बम 11964
सद्य 11964
सभयिൽ 11964
साधन@@ 11964
ंलोने 11963
बोरड 11962
मरिच्च@@ 11962
राकुल् 11958
मकि@@ 11956
स्तुन्ना@@ 11955
आश्वासन 11954
जाहा@@ 11954
बोन 11954
भौ@@ 11954
हारि@@ 11953
दण्ड 11952
पुलवामा 11952
प्रोजेक्ट 11952
वास्ते 11951
सः 11946
त्तानॆ 11944
मोदीर 11942
्री 11942
पृथ्वी@@ 11941
ऎऩ्ऱाल् 11939
ढो@@ 11937
तॆरञ्ञॆटुप्प् 11936
दूरे 11936
मुंद@@ 11936
ङ्ङळिलॆ 11934
तीसरा 11934
अंशग्रहण 11933
कुऴ@@ 11933
अळवु 11929
स्पीड् 11927
मान् 11926
ऱियु@@ 11924
डीपी@@ 11922
प्शन 11921
प्रचंड 11920
98 11919
व्यवस्थ 11918
घट्ट@@ 11915
पुरि@@ 11915
कक्षा 11913
मुर्@@ 11913
क्कॊण्टु 11912
मेगा@@ 11912
साइट 11911
डेविड 11910
मानो 11909
चरित्रे 11908
ब्रु@@ 11908
विफल@@ 11906
कमिस़न 11905
वंश@@ 11904
पुऱत्ता@@ 11903
च्चिरु@@ 11902
णीआं 11900
माऱ्ऱम् 11900
ट्टी@@ 11899
तीरुमानि@@ 11897
नटपटिकൾ 11895
हथियार 11894
उड़ान 11892
जप्पा@@ 11891
राधा@@ 11891
बाहु@@ 11890
चौधुरी 11888
शिवसेने@@ 11886
वय्@@ 11885
तियाऩ 11884
ङ्किൽ 11883
किलोमी@@ 11878
निरीक्षक 11878
अत्य@@ 11877
षऩ् 11876
5,000 11875
सू 11875
ॆगळ 11875
आपणने 11874
साम्@@ 11874
कारोबारी 11873
त्तोळं 11871
अक्टो@@ 11870
इस्रा@@ 11870
विपक्षी 11870
जसटिस 11868
पोर् 11867
मिन 11867
शताब्दी 11867
टिੰग 11865
76 11862
रुत् 11862
विषे 11862
88 11856
लियो@@ 11856
छतां 11853
11@@ 11851
ड़ाय़ 11850
मऩ्ऩि@@ 11850
स्मारक 11850
तॆलुङ्कु 11845
73 11844
पंचायत 11843
यिल् 11843
वनुं 11840
इऩ@@ 11839
ऐपि@@ 11839
कोणतीही 11837
एकेबारे 11836
आमेरिका 11829
चॆय्ततु 11829
ent 11826
देवु@@ 11826
विऩ@@ 11826
टिम 11825
रनी 11824
लागले 11823
गिरफ 11822
उपर@@ 11821
इयक्कु@@ 11819
कळॆद 11819
कोशि@@ 11819
तेच 11816
वित्तियाच@@ 11816
संगठ@@ 11816
न्वित 11814
समस्यॆ 11810
पारब 11807
भाजपना 11807
आत्महत्य 11806
बाहरी 11806
अतिपर् 11804
उते 11804
दुर 11804
दीनि@@ 11803
प्पॆटुन्नु 11803
ब्यर्थ 11800
अधिकृतർ 11799
साक्ष्य 11799
नीर्@@ 11798
बस्तु 11798
मार्कॆ@@ 11798
कालु@@ 11796
इच्छा@@ 11795
केल्या 11795
दैवं 11795
नटन्त 11792
मिर 11790
{ 11788
विदिआरथी 11785
83 11784
भाङ@@ 11784
रास्ते 11783
10,@@ 11781
कण्काणि@@ 11781
चेसुको@@ 11780
जाऊ 11780
पळ्ळ@@ 11780
खतिय़े 11779
िय़ेछेन 11779
माणित् 11778
करण्यास 11777
वाक्य@@ 11777
वीडीओ 11777
नटपटि@@ 11776
२०१८ 11776
ऒतु@@ 11775
वन्न 11775
लक्@@ 11773
स्वीकार@@ 11773
पाला@@ 11772
नारे 11769
विआह 11769
देशातील 11768
सबੰधत 11768
इंजन 11766
उठेछे 11766
फ्री 11766
आरु 11765
ङ्ङा@@ 11765
चॆय्तार् 11765
ऩ्ऱुम् 11764
लार@@ 11762
उपभोग 11761
इऩ्ऩ@@ 11759
उॎपादन 11759
पयऩ्प@@ 11758
कृष@@ 11757
कॊण्टाण् 11757
ऒंद@@ 11756
हटा 11756
चेसुकुंदि 11755
ळो 11754
नंबि@@ 11752
पहुँ@@ 11751
किह@@ 11750
मैंबरां 11750
हबेन 11750
धोनि 11749
खेड 11746
किम 11745
सों@@ 11745
गिल 11744
पिक@@ 11744
मियों 11744
स्तुन्नाडु 11743
जिम्मेदार 11741
स्वन्तं 11741
़्या 11741
सरबराह 11739
ऎत्र@@ 11737
तर्क 11737
परुक्के@@ 11737
त्वरलो 11736
नम्बर 11736
प्रवे@@ 11736
जमकर 11735
चिऱु 11734
सटी@@ 11734
प्रशास@@ 11733
उम्म@@ 11732
खासदार 11732
पाट 11732
पेंशन 11730
प्रतिबाद 11727
मोश@@ 11727
एलि@@ 11724
कनत्त 11724
त्तिल@@ 11724
प्रताप 11724
ड्रो@@ 11723
नटत्तिय@@ 11720
जाधव 11719
तण्णीर् 11718
नीआ 11715
तुमसे 11714
निश्च@@ 11713
पेराण् 11713
मोबाईल 11713
तोड@@ 11712
मुड़ 11711
परिषेबा 11708
आवड@@ 11707
सीतारमण 11706
तिवारी 11704
पुऱत्त् 11701
ब्यांक 11700
वङ्क@@ 11700
कोवडानिकि 11698
ङ्कार 11698
टाळ@@ 11695
ग्रह 11694
देइ 11694
अऱिवियल् 11693
अत्या@@ 11692
जायेगा 11691
दुजन 11691
सीसी@@ 11691
ऎतिराऩ 11688
मकൻ 11687
जनं 11685
तिल्लै 11684
िली@@ 11684
तुले@@ 11683
सुविधाओं 11682
अहु@@ 11680
जन्मदिन 11679
प्पटुत्त 11678
वऩ्@@ 11678
न्माർ 11677
श्रद्ध@@ 11677
बिडुगडॆ 11675
सून 11675
तॊटर्पु@@ 11674
वैसे 11670
Sh@@ 11669
अकाउंट 11668
रलिल्ल 11668
न्यायालय@@ 11667
कंगना 11666
परिस्थिति@@ 11666
सुलु 11664
माडलागिदॆ 11663
वान@@ 11663
अदुपुलोकि 11662
साध्यविल्ल 11661
कारीरा 11660
बिस्@@ 11660
वाडु 11660
इताण् 11656
कथाय़ 11655
राजेश 11655
मिनट 11652
ऎदुरि@@ 11651
वुदागि 11650
अभिषिक्त 11647
नाते 11647
सभ्युलु 11647
पंचाय@@ 11646
कूऱिय@@ 11645
सिवा 11645
तिरुवनन्तपुरं 11644
सड़कों 11644
2006 11643
कार्यक्रमंलो 11639
नाट्टिल् 11638
म्च@@ 11638
नक्की 11636
यारू 11636
जनों 11635
उळ्ळार् 11633
चर्च 11633
वॆल्लडिंचारु 11633
सिऎं 11632
अरे@@ 11630
रिटी 11630
वाय्@@ 11630
पुੱतर 11628
विस़@@ 11627
कावल् 11626
अभिवृद्धि@@ 11625
बाणी 11624
मऱ्ऱुळ्ळ@@ 11624
वाहना@@ 11623
नष्टं 11621
चॆप्पु@@ 11617
प्पू@@ 11615
97 11614
ंदर@@ 11614
कुण@@ 11613
क्षी 11613
वॆल्लडि@@ 11613
कर्मीदेर 11610
पोलिस् 11609
इनाम 11607
कॊह्लि 11606
अੰदर 11604
ऎवर@@ 11604
10,000 11602
वारां 11601
स्ने@@ 11601
आळुकൾ 11600
ुगा 11599
घाटी 11598
प्रसि@@ 11598
ैया 11598
आपदा 11596
इल्लि@@ 11596
ट्टतु 11596
याकॆ 11593
समीपि@@ 11593
महेंद्र 11592
रिस़@@ 11592
आसमान 11591
•@@ 11589
भुक्त 11587
शिक्षि@@ 11587
प्रवेशिप्पिच्चु 11586
ब्यबहार@@ 11585
अरॆस्टु 11582
एपी 11582
आकियवै 11580
मालूम 11580
ग्रन्थ@@ 11576
बिद 11572
70@@ 11569
तुटङ्ङ@@ 11569
डीसी 11567
जोड़ा 11566
कहती 11564
आखिर 11563
पंजाब् 11563
फेल@@ 11563
अभिनय 11561
बढ़त 11561
त्तॆयुं 11560
ऎष्टु 11559
कुटुंबं 11559
सोनम 11555
श्वर@@ 11554
मय 11552
शक्@@ 11551
वियै 11550
मुसा@@ 11549
चैनल 11548
नेल 11546
सੰसद 11546
चॆय्ति 11545
क्कट@@ 11544
इनियुं 11543
मिश्र@@ 11543
विद्यालय 11542
पोते 11540
दाबाद 11537
पलि 11534
मांगी 11533
हून 11531
निय़मित 11530
जेव्हा 11528
किट 11527
बेठक 11527
५ः@@ 11525
चक्ति 11524
रिश्ते 11521
स़हि@@ 11521
96 11519
आमच्या 11518
सोस़ल 11518
मऴ 11516
87 11515
टकु 11515
कङ्कळ् 11514
वृद्ध@@ 11512
कारड 11511
शृ@@ 11511
दाऊद 11510
हेबा 11510
me 11509
तिरै@@ 11509
टीमों 11508
तदन्तेर 11508
अंग 11507
निकल@@ 11506
लेगा 11502
अल्लाहु@@ 11501
ढंग 11500
r 11499
चतवीतम् 11497
टैक्स 11497
काट 11496
सबसमय़ 11495
विवचायिकळ् 11494
उळ्ळि@@ 11493
तॆयन्नु 11493
परिहार 11493
पॊलि@@ 11493
संस्थानत्त् 11491
नाट्@@ 11490
मासं 11490
el 11488
जिल्हा 11488
चिदंबरम 11486
बेँचे 11485
६० 11485
खेलों 11484
मानता 11484
रोड@@ 11483
उधर 11482
काउन्@@ 11482
प्रेरि@@ 11482
निश्चित@@ 11481
ड़ीआं 11480
झटका 11479
तोला 11477
मंत्री@@ 11476
तवि@@ 11475
ड़िय़े 11474
फत 11474
अयिन 11473
ट्रेलर 11473
ग्रु@@ 11472
प्पं 11472
पन्@@ 11471
तमिळ 11470
मुक्कियमाऩ 11470
इउ 11469
जोड़@@ 11469
वाइरस 11469
कशा@@ 11468
चाँ@@ 11466
सिफारिश 11466
जऩातिपति 11465
वऴिय@@ 11463
शिय@@ 11463
वळा@@ 11462
एऱ्पटुत्त@@ 11458
क्किൽ 11458
तत्@@ 11458
निऱैवे@@ 11456
निर्बाचनेर 11452
फस@@ 11452
सूत्रे 11450
स्टार्@@ 11450
७० 11450
षनु@@ 11449
नियमं 11448
मुं 11448
सबाइके 11448
असलु 11447
पल्@@ 11447
लिया@@ 11445
विस्तार@@ 11438
मर् 11437
विद्य@@ 11436
11.@@ 11435
रास़टरी 11435
कळिलॆ 11434
www 11429
परामർ@@ 11429
सांबादिक 11428
ऎण्णि@@ 11425
कऴिञ्ञु 11420
मेडिकेल 11420
हिल 11420
ऒक्क 11418
परिकल्प@@ 11418
र्ति@@ 11418
३३ 11417
निन्नु@@ 11416
नेहरू 11416
पिय@@ 11416
जिते@@ 11414
अवस्थ@@ 11413
पकुति 11412
मामलिआं 11412
जेवा 11411
एकत्रित 11408
तीर्कळ् 11407
भूरि@@ 11405
तिऱऩ् 11404
िलि 11404
चम्पव 11403
con@@ 11402
मनु@@ 11401
लाद 11401
अतिनॆ 11399
तारे 11397
सुर 11396
अती@@ 11395
तावतुः 11394
इमारत 11393
क्षन् 11393
अधीन@@ 11392
वागुत्तदॆ 11392
बेटा 11389
दवा 11387
युक्तराष्ट्र 11386
प्रस्तु@@ 11385
मकसद 11384
चाहुੰदे 11382
ऑफिस 11381
2005 11379
प्रक्रिय@@ 11379
अमैप्पु 11378
इरण्टावतु 11377
विद्या 11376
बिन@@ 11375
तप्पु@@ 11373
टर्लु 11372
मरा 11372
मुख्यालय 11372
ऎच् 11371
चारटि 11371
नव्हती 11371
ठिका@@ 11370
तीसुको@@ 11367
हैदराबाद्ः 11366
माझा 11365
उयर् 11364
स्वराज 11364
हां@@ 11364
—@@ 11364
ऱ्काऩ 11363
इरुक्किऩ्ऱऩ 11362
वट 11361
सुभाष 11360
प्रश्नं 11358
व्यवहरि@@ 11358
उमे@@ 11357
त्रिपुरा 11357
तत@@ 11356
वाळ्ल@@ 11356
हुकम 11356
केळ्वि 11355
राऩ 11355
धो 11353
प्रव@@ 11352
केसुलो 11351
मुय@@ 11351
सूचकांक 11351
स्थळ 11350
ङ्के@@ 11348
चेर्त्तु 11347
तॊऴि@@ 11347
सिदनु 11347
स्वरू@@ 11347
चौथे 11346
क्षेत्ररे 11343
भळि 11342
वॆल्लु@@ 11341
गेंदबाजी 11340
बय़स 11340
फ्लो@@ 11339
सुवंतॆ 11339
चोख 11337
प्रस्तुतं 11337
मारि 11337
वाइ@@ 11337
सफेद 11336
ल्ह 11335
२०२० 11335
चूऴ@@ 11332
युमायि 11330
क्कप्पॆ@@ 11329
मवु@@ 11329
चुनाव@@ 11328
बचा 11328
हाथों 11328
92 11327
बालिवुड् 11327
त्मक@@ 11326
ऎप्पटि@@ 11325
किरण 11325
आश्चर्य 11323
ओबामा 11322
चॆयल्पा@@ 11322
लिद्दारॆ 11322
कुर 11320
नण्प@@ 11320
तड@@ 11319
परिचालन 11318
वलन 11316
करावा 11315
किआ 11312
इन्त्ययिलॆ 11311
चेत@@ 11308
विचारों 11308
ेत 11308
रहि 11307
राफेल 11307
तक्कुव 11306
त्त्@@ 11305
पडॆयु@@ 11304
िय़न 11303
वाटि 11302
श्रील@@ 11300
कार्य्य़@@ 11299
उण्मै 11297
गर्व 11297
विपरीत 11297
आरि@@ 11296
रक्षक 11296
शीलता 11296
बृह@@ 11295
सूबा 11295
ओलंपिक 11293
जिक 11292
ऩुटैय 11292
मेजर 11290
न्नुवॆ@@ 11287
og@@ 11286
क्षणि@@ 11284
किउ@@ 11283
सिले@@ 11283
हु 11282
अब्याहत 11280
जळ@@ 11279
शस्त्र@@ 11279
ट्प@@ 11278
लागु 11278
आंकड़ों 11277
एट@@ 11277
विद्@@ 11276
निमित्त 11275
पोहो@@ 11274
हट@@ 11273
इंसान 11272
ऎऩ्ऩुटैय 11272
तिरैप्पट@@ 11272
तुं@@ 11272
ंचं 11270
कण्णु@@ 11270
विनो@@ 11270
निरीक्षण 11269
तट्टि@@ 11268
प्रदर्शन@@ 11267
लनी 11265
आपस 11264
गामी 11264
वॆच्चु 11264
बिधानसभा 11263
मंदिकि 11262
ऱिन् 11262
अन्यदिके 11261
महिलाएं 11261
राब@@ 11260
रूपॊंदि@@ 11260
कॊण्टार् 11259
नव्हता 11257
काही@@ 11256
किल् 11255
नाट्टु 11255
निध@@ 11255
अनुप@@ 11254
न्तुळ्ळऩर् 11254
घटक 11253
नियाय@@ 11253
इयाൾ 11252
बाळको 11252
आस्था 11251
ियिल्ल 11249
आकियो@@ 11248
उੱतर 11248
खेलने 11248
रम 11248
चन्तोष@@ 11245
यत्@@ 11245
प्रशस्ति 11244
आपसी 11243
टुकिऱतु 11243
एकूण 11241
चो 11240
गੰ@@ 11238
धूम@@ 11237
वेस्ट 11235
करिब 11234
कॊनसागु@@ 11233
एव@@ 11232
यॆहोवा@@ 11232
खेलार 11230
जिते 11230
तौ@@ 11229
समർ@@ 11227
ंट्स 11225
लागि@@ 11225
कितना 11224
त्तर@@ 11220
तिमाही 11219
व्ही 11219
वैन 11216
तॊऴिल@@ 11215
धुलु 11215
ट्री@@ 11214
नसी@@ 11214
ङ्क् 11213
परिबर्ते 11213
क्रमा@@ 11212
पैकि 11212
प्रभार 11211
वराक 11211
दिवशी 11210
ट्टुळ्ळतु 11209
वाणी 11209
सिसि 11209
मेऱ्कु 11208
ंका 11207
दग्@@ 11207
नटवटिक्कै@@ 11207
समाजवादी 11207
मर्यादा 11205
हारे 11205
असेही 11201
इतर@@ 11201
राज्यत्त् 11199
नीतिमऩ्ऱत्तिल् 11197
हाजिर 11195
स्पीड 11194
बंधन 11191
बिबाह 11190
गुरुतर@@ 11189
मुद्रा@@ 11189
खतरे 11187
चॆय्यप्पट्टुळ्ळतु 11187
संचालित 11187
सुन 11187
कोळ@@ 11186
तयारी 11185
सथानक 11185
नटൻ 11183
प्रदेशों 11182
बच्च@@ 11182
ट्लो 11179
मुली@@ 11179
नियर 11178
प्रतिक्रिय़ा 11176
सिपि 11175
कृति@@ 11174
दिले@@ 11174
हत्याका@@ 11174
मृतक 11173
ब्यबस्थार 11172
अस्ति@@ 11171
बन्धि@@ 11171
ंगाने 11168
कुੱल 11165
क्कुन्नताण् 11165
५ः 11163
अछि 11162
श्त 11161
गञ्ज 11159
पॊरुत्त@@ 11159
भारताने 11159
एकसङ्गे 11158
क्किर@@ 11157
युद्धं 11157
अतिनु 11156
इप्पो@@ 11155
पदार्थ@@ 11154
अन्वेषण 11153
याके 11152
असताना 11151
टिप्प@@ 11148
त्रा 11148
Z@@ 11147
कवर 11147
ताऴ्@@ 11147
म्प 11147
दिबस 11146
जुर 11144
एमसी 11143
चੰगी 11143
पटना 11143
जलदी 11142
लप@@ 11141
गुल 11139
फायर 11138
पिൻ@@ 11137
वाड 11137
बाज़ी 11136
बिक्षोभ@@ 11136
एदिके 11134
ट्टर् 11132
सामर्थ्य 11130
आवा@@ 11129
करताना 11128
धरलु 11128
क्रिस 11127
विद्यार्थ@@ 11127
साहचर्य@@ 11125
पादन 11124
कੰपनी 11123
करावी 11122
धैर्य@@ 11122
कोट्ल@@ 11120
ऩ्पोतु 11119
बणाइआ 11118
oc@@ 11116
11,@@ 11114
आत्मह@@ 11114
केन्द्री@@ 11114
पड़ा@@ 11113
हिस्सेदारी 11111
बैबिൾ 11110
पाते 11109
प्रक्रिय़ा 11108
लिखी 11108
ंति@@ 11107
किऴक्कु 11107
चुकातार 11107
मुतल्@@ 11107
निर्मा@@ 11105
हं 11104
क्किऩ्ऱ@@ 11103
पोऩ्ऱ@@ 11101
हाइ 11101
कुळि@@ 11098
सिबिआइ 11094
89 11093
आक्रमि@@ 11092
जरा 11092
सिवाय 11091
ऩिय 11090
इङ्ङ@@ 11089
वेण@@ 11089
सिटी@@ 11087
ऎतिर्प्पु 11086
जोखिम 11085
न्यायालया@@ 11085
मूलं 11085
चॆय्तिट्टुण्ट् 11083
शंकर् 11083
बाणिज्य 11081
लईने 11081
दने 11080
वऴक्क@@ 11080
कपो@@ 11079
मुऩ्पु 11079
तऩियार् 11078
वास्त@@ 11074
पयऩ@@ 11073
सकल@@ 11073
बेकि@@ 11070
करियर 11069
इउरो@@ 11068
गੱलां 11067
संस्थार 11066
स्ୱा@@ 11066
पुकैप्पट@@ 11063
आशीर्@@ 11061
वऱ्ऱै 11061
बाड़िर 11060
रोगं 11060
ऎञ्चि@@ 11058
चुनावणॆ 11058
ऎडि@@ 11057
डाइरैकटर 11056
विचों 11056
गॊंडिदॆ 11055
लाय 11055
सता@@ 11055
तंड 11054
वेट 11052
माऱ@@ 11051
किरि@@ 11049
नाच 11048
मुख्या@@ 11048
होइथिबा 11047
रेप 11045
प्रोग्राम 11044
जेने 11042
डः 11042
प्रतिरोध@@ 11041
वाग्@@ 11041
ऒन्नि@@ 11040
्रे 11040
मानक 11039
भद्रता 11037
सेल@@ 11037
आन्दोलन 11035
काना 11034
मुस्लिं 11034
वेरे 11034
आळ@@ 11032
कृष्ट 11032
ग्राहकों 11032
फट@@ 11031
निय़म 11030
बास्त@@ 11030
स्ट्रो@@ 11030
क्केण्ट 11029
बिपक्षे 11029
य़देर 11029
ऎङ्कळुक्कु 11028
युक्ति@@ 11028
श्रेणी@@ 11028
रोगि@@ 11027
त्तिऱ्कुम् 11026
जाग@@ 11025
अधिकारों 11021
णारे 11021
फीस 11021
वलियुऱु@@ 11021
कहिथिले 11020
पना 11018
नटत्ति@@ 11017
लिखे@@ 11017
इस्पात 11016
चर्य@@ 11016
किंमत 11014
गवाह 11014
मायुळ्ळ 11011
यें 11011
ख़बर 11010
पाർल@@ 11009
गॆलि@@ 11007
चॆय्यप्पट्ट 11007
सम्पर्@@ 11007
प्रशिक्ष@@ 11006
बेला 11006
ऎंबुदन्नु 11005
पৰ@@ 11005
व्य 11004
नटैपॆऱ्ऱ 11002
फॉर्@@ 11002
वर्कळा@@ 11002
आंदोल@@ 11001
तुर्@@ 11000
नान 10998
निराश 10998
बाह 10998
वुदरिंद 10998
आंध्रप्रदेश् 10997
निय़न्त्रणे 10997
क्रमशः 10996
प्रमाणित 10995
ग्रहि 10994
पारेननि 10994
्यां@@ 10994
अंबा@@ 10993
फ्लै@@ 10991
उद्देश्ये 10989
प्रोफेसर 10988
बुद्ध@@ 10988
ख्यात 10987
आऩालुम् 10985
त्रॆ 10985
वेऱु@@ 10985
लज्@@ 10984
देशर 10983
युण्ट् 10983
टुकु 10982
इयाळॆ 10980
कार्य्य़ 10980
टका@@ 10979
बर् 10978
साग@@ 10977
आदर@@ 10976
तथ@@ 10976
प्रक्र@@ 10975
इवि 10974
प्रबल 10974
अरचाङ्कम् 10972
अऱु@@ 10970
आह्वान 10968
क्रिया 10967
ङ्कळैक् 10967
संरचना 10967
आजाद 10966
कॊटुत्तु 10966
आपरे@@ 10965
निंदितु@@ 10965
त्तियत् 10964
टुक@@ 10962
तेवैयाऩ 10962
तऩ्ऩ@@ 10960
ऱद्दा@@ 10959
अन्तर्@@ 10957
बिस्तारित 10957
डुव 10956
दुष्ट@@ 10956
बहाल 10956
रुचि 10956
पड़ि@@ 10955
वॆच्च@@ 10955
सेटाइ 10955
२०१५ 10954
तिट्टत्तिऩ् 10952
चॆप्पा@@ 10951
यल् 10951
gov 10950
इन्निलैयिल् 10950
युवति 10948
वरिऩ् 10948
जिनका 10947
मोटो 10946
नൽकियत् 10945
विदेस़ 10945
सुत्तिद्दारॆ 10945
ऎंत@@ 10942
आओय़ामी 10941
मटै@@ 10940
मरने 10940
देवरु 10939
वर्ति@@ 10939
तुलनु 10938
हीं 10938
मुजब 10935
ठाण्यात 10933
थोड़ा 10931
संभ@@ 10931
ञङ्ङൾक्क् 10930
130 10929
अऴु@@ 10929
इव्वा@@ 10925
भारतर 10924
लए 10923
आढळ@@ 10921
विकॆट् 10918
आय्कॆ@@ 10916
केरळत्तिൽ 10916
प्राय़इ 10914
ल्यू@@ 10914
आरएसएस 10913
पॆट्रो@@ 10913
साउ@@ 10913
पुनराय़ 10912
वरसा@@ 10911
शिकाय@@ 10911
NW 10910
एऱ्पटुम् 10910
ज़िल्हे 10910
इनकी 10909
स्थायिलो 10909
लीधी 10908
ंदलू 10907
कोटिय@@ 10907
द्दरू 10907
धारणा@@ 10907
विद्यार्थ्या@@ 10907
सफळता 10905
युलु 10903
घाल@@ 10902
ःप् 10898
चुर@@ 10898
बर्ष 10896
घटनलो 10895
प्रसारित 10895
ण्डेर 10893
23@@ 10892
प्रभुत्व@@ 10891
कवलै@@ 10890
मन्नारु 10890
अभियोगे 10889
प्रतिय@@ 10888
मक्कळ 10887
येशु 10884
एसी 10882
ट्रान्@@ 10882
एंट@@ 10880
तायुं 10880
मुੰबई 10880
पाटि 10879
बरेर 10879
दीन्नि 10877
पङ्कु 10877
निश्चय़ 10876
प्रांत 10876
संस्थापक 10876
गिरी@@ 10874
ड्ड 10873
इंग्ल@@ 10871
माथाय़ 10870
शर्त 10869
विस्तरि@@ 10868
हिँ 10868
जानुय़ारि 10867
तमिल 10867
फिरिय़े 10866
ऩे@@ 10865
पङ्कॆटुत्तु 10865
ववा 10865
सच्चाई 10864
तंत्रज्ञान 10862
फोर्स 10862
अरुणाचल 10861
हरेक 10861
लेता 10860
समूहों 10860
अरॆस्ट् 10858
घरी 10858
सुत्तेनॆ 10857
वकै 10856
ऎन्ना@@ 10854
परिपूर्ण 10854
ुलनु 10853
एला@@ 10851
ण्णि@@ 10851
पहञ्चि 10851
मकऩ् 10851
350 10849
प्रश्नेर 10847
परीक्ष 10846
वेगा 10846
द्धि 10845
नंतर@@ 10845
प्पॆटुन्न 10845
संस्कृ@@ 10844
तिरुमणम् 10842
होतं 10842
जनगणेर 10840
जर्स 10840
माडुत्तदॆ 10840
स़ुरूआत 10840
पिऱ 10839
बिहारी 10839
पल्ल@@ 10834
महाराष्ट्रा@@ 10834
हृ@@ 10834
डायरेक्टर 10832
पৰि@@ 10831
बिक्रि 10831
विचारणैकळै 10831
ैकळ् 10830
लाइट 10829
सीएस@@ 10829
प्पटुत्तुम् 10827
जाणगे 10824
कार्मि@@ 10823
दह@@ 10820
श्रद्ध 10820
कार्यान्वयन 10819
परिहरि@@ 10817
चॆय्यप्पट्ट@@ 10815
तिनाൽ 10813
न्डेर 10812
भाजपचे 10812
आर्मी 10811
विश्वविद्या@@ 10810
अल्लदॆ 10809
नेवाला 10809
युव 10809
तिळ@@ 10808
विऱ्पऩै 10808
मोटा@@ 10807
वार्त्तै@@ 10807
it 10806
चर्चा@@ 10806
जवळ@@ 10806
ऎनिक्कु 10805
स्टेडियम 10805
अमैप्पु@@ 10804
प्पॊ@@ 10804
पाला 10803
बैक 10803
अंग्रे@@ 10801
रैलु 10799
सेल्फी 10799
सना@@ 10798
जोड़ी 10797
वरण 10797
आभ्यन्तर 10795
दिੱ@@ 10795
प्रमादंलो 10795
कूडदु 10794
आमंत्रित 10793
चालै 10793
फ़ो@@ 10793
मुका@@ 10793
स्थळक्कॆ 10793
बाला 10792
पुरु@@ 10791
वता 10791
बेर@@ 10790
यिऩर् 10790
ॆन्नु 10789
…@@ 10789
कৰि@@ 10788
दिवसां@@ 10788
अर्थं 10786
खर्चु 10786
दस्तावेज 10785
ऎङ्किलुं 10784
पातुकाप्पु@@ 10784
तेनुं 10783
टेन@@ 10781
२०१२ 10781
टाൻ 10780
पोट्ट@@ 10779
चेस्तुन्न 10778
माकु 10778
मूल्यांकन 10776
दुष्ट 10775
स्पर्ध@@ 10775
एफआईआर 10774
ियुळ्ळऩर् 10774
ऎच्च@@ 10773
करवो 10773
डीए 10772
त्यारबाद 10770
अग्रवाल 10768
बेसरकारि 10766
समयत्त् 10766
काल्प@@ 10765
किऱाऩ् 10765
कौमी 10763
टरੰप 10763
त्तिर 10763
जेरे 10762
ऎंदिद्दारॆ 10761
याज@@ 10761
तीच्या 10760
मिलिआ 10759
क्कർ 10755
स्कुले 10755
पीएस 10754
िय़ाल 10754
बाक्@@ 10753
होण@@ 10753
अतिक@@ 10752
मऩैवि 10752
इत्त@@ 10751
तियुं 10750
पेरा@@ 10750
मंद 10750
ार्थी 10748
जातो 10747
पूंजी 10747
अलि 10741
आपवा 10738
पक्षों 10738
one 10737
जाल 10737
न्नत 10737
चीज 10736
ੰट 10735
डॉक्टरों 10734
असंख्य 10733
पंजा@@ 10731
अनंत@@ 10730
तुला 10730
आलेल्या 10727
सुपार 10727
शता@@ 10726
जाणा 10725
जाम@@ 10725
कन्न@@ 10723
रावत 10723
सड़@@ 10722
जिल्लालो 10720
आस्प@@ 10718
एडि@@ 10718
नेपा@@ 10718
नडि@@ 10717
वच्च@@ 10717
ाൽ 10717
अङ्क@@ 10716
देखकर 10716
दिलीप 10715
इवर्@@ 10714
पत्नी@@ 10713
गेली 10712
त्तैच् 10711
आओताय़ 10710
हय़@@ 10708
अंड@@ 10707
वर्ध@@ 10707
१२@@ 10707
अधिकारी@@ 10706
कळ्ळ@@ 10706
शाळा 10706
समझा@@ 10706
दिखा 10705
हुक्म 10702
मळ्ली 10701
मिळाली 10701
इनि@@ 10699
गाड़ी 10699
वणि@@ 10699
चंद 10698
कळॆयुं 10697
जवाब@@ 10696
क्ट्र@@ 10694
रुप 10693
सिखा@@ 10693
वळि 10692
जब@@ 10691
मणिपुर 10691
ताव@@ 10690
परस्प@@ 10690
प्रभाबित 10689
वेगं 10689
येटा 10687
सुबि@@ 10687
बडु@@ 10686
सद्@@ 10685
सेलि@@ 10684
ध्व@@ 10682
नक 10680
मिली@@ 10680
ric@@ 10679
ळै@@ 10679
सालाना 10679
पौँछा@@ 10678
एशियाई 10677
भूल 10677
मिक्क@@ 10674
वरुण 10674
लेज 10673
वर्त्त@@ 10673
पार्प्प@@ 10671
सेतु@@ 10670
CO@@ 10669
ंटन 10668
करण्याचे 10668
छु 10668
पृष्ठ@@ 10668
वादा 10668
चतु@@ 10667
णीय़ 10667
माडिकॊळ्ळ@@ 10667
H 10664
पड़ेन 10664
ण्टॆन्नुं 10663
दिरि@@ 10663
गान@@ 10662
चलबे 10660
फ्त@@ 10658
महत्त्वपूर्ण 10656
सेमाने 10656
पूर्ण्ण 10654
व्हायरल 10654
२०१३ 10654
तुटरु@@ 10653
गता@@ 10651
संख्यक 10651
रेखे@@ 10650
वॆळियिट@@ 10650
ज़िले 10649
करायिब 10648
ंचनुन्नारु 10645
परिचु@@ 10645
इटत्तिल् 10644
नटिकै 10644
पैपि@@ 10644
अंबानी 10643
क्कൻ 10643
तेज़ 10643
भूकंप 10643
ऎरडू 10638
जॆट् 10638
पिछली 10636
किल्ल 10635
छिले 10633
टुत्तु 10633
प्रकाश् 10632
जॉन 10631
र्कळुम् 10630
आएगा 10628
करवाई 10628
स्वे@@ 10628
तम्मिलुळ्ळ 10627
लागला 10626
सकेंगे 10626
भक्त 10624
तुमने 10623
उत्तरं 10622
एक्सचे@@ 10622
2004 10619
फेले@@ 10619
बेल 10619
पड़ेगा 10616
मसजिद 10616
ंग्ल@@ 10615
ऑफि@@ 10615
लिखेछेन 10613
िल्ला 10613
कोह्ली 10608
नੰबर 10608
पटत्तै 10604
भूम@@ 10604
ङ्ङ् 10602
संश@@ 10602
साथे@@ 10602
कार्यकला@@ 10601
चार्न्त 10601
प्रय़ो@@ 10600
रिस 10600
ाल् 10600
अताण् 10599
अधीक्षक 10597
करवी 10596
कानूनु 10596
वरे 10596
उत्तरवादि@@ 10595
ॆया@@ 10595
चुनावी 10594
बरकरार 10594
तारिख 10593
आतंकवादियों 10591
वखत 10590
ऎवरि@@ 10589
तुमको 10589
94 10587
टैसट 10587
अक्त@@ 10586
महेश 10586
मानिलत्तिल् 10586
पडुतुंदि 10585
नात्मक 10584
दिग@@ 10583
ऎव्@@ 10582
आकिय@@ 10580
पोतिलुम् 10580
मॆगा@@ 10580
अदर@@ 10579
एनसीपी 10579
विमर्@@ 10578
मैयाक 10577
म्ताऩ् 10577
घात 10576
ड्रे@@ 10576
तुलनाय़ 10576
प्पिटि@@ 10576
मुयऱ्चि 10576
अधिकाऱ्या@@ 10575
माट 10572
तीला 10571
कतल 10570
प्रग@@ 10570
दिसत 10569
हज@@ 10569
फ्रि@@ 10567
आदान 10566
अवचियम् 10565
बाय@@ 10558
२०१६ 10558
तभी 10554
गामना 10553
इन्न् 10552
प्राणी 10552
च्छेन 10551
त्यावेळी 10551
वचि@@ 10551
मुतिർन्न 10550
रीति@@ 10549
सेट@@ 10549
अगा@@ 10548
इन्टार@@ 10547
अंता 10545
खेर 10545
जं@@ 10545
दृष्टान्त@@ 10545
मुआव@@ 10545
जीब@@ 10542
डिं 10541
तेओने 10541
ऱी@@ 10541
टुत्तु@@ 10540
रना 10540
ियुमायि 10540
मुलगा 10539
ॆगळल्लि 10539
चिया@@ 10538
काँग्रेसचे 10537
चंद@@ 10537
निय़ार 10537
सिल्@@ 10537
ऒप्पुतल् 10534
दरजा 10534
वर्कळाक 10533
लेवा 10532
समालोचना 10532
इंडिय@@ 10531
केसॆ@@ 10531
यॆहोवनु 10531
ह्रास 10531
जाग्र@@ 10530
वायितु 10530
लक्ष्मी 10529
मनकु 10527
एसोसिएशन 10524
एक्ट 10522
सकलेर 10522
समृद्धि 10521
लिन् 10519
सॆस् 10519
ौ 10519
झूठ 10517
पार्टि 10517
निजस्ब 10516
हेला 10515
रिसर्च 10513
गोलीबारी 10512
चिय 10511
पूर्त@@ 10511
मिलण 10511
वेण्ट 10507
य़ात 10505
इच्छुक 10504
रीआ 10503
उण्टायिरुन्नु 10502
ऒंदे 10501
ब्यबहारेर 10501
क्रिकॆ@@ 10500
अपि@@ 10499
सन्दർशि@@ 10499
रैल्वे 10498
पन्त@@ 10497
प्रतिभा 10497
पटी@@ 10494
बेकॆंदु 10494
प्रारंभिक 10492
राज्यं 10492
ंदिन 10491
नदीर 10491
पश्चात 10490
तदितरुलु 10489
तामसि@@ 10489
तीसरी 10489
वैयुम् 10489
दिवसीय 10488
अलांटि 10487
उज्@@ 10487
एना 10485
नेह@@ 10485
वकि@@ 10485
दीनिनि 10484
पुरस्कार@@ 10484
षी 10484
सिसि@@ 10484
ड़ेर 10483
पॆऱ्ऱतु 10483
माय़ेर 10483
त्तुळ्ळ@@ 10480
पूर्बरु 10480
महेष् 10480
ऱ्ऱुं 10479
विरुप्प@@ 10479
यावु@@ 10478
कानू@@ 10477
कूटुतल् 10477
दीधी 10476
वरण@@ 10476
अमुक 10475
तऩ्ऩुटैय 10475
प्राप्ति 10475
र्त्तु@@ 10475
मुऱैयाक 10473
हात@@ 10472
तंद@@ 10471
नरा 10470
य़ो@@ 10470
न्सि@@ 10469
मिळेल 10469
क़ौम 10468
निर्देशित 10468
समस्य 10468
ed@@ 10467
किर 10466
एलाका@@ 10465
वर्षा 10464
जोडि@@ 10463
जाहिर 10461
नेस 10461
ऒक्@@ 10460
लष्@@ 10460
शॉ@@ 10459
कोऴिक्कोट् 10458
आवश्यं 10457
गोल्ड 10457
त्तित्तु 10457
प्रसार@@ 10456
यूरोपीय 10456
रद्दु 10456
ंगल 10455
रूपिया 10455
चरम 10453
साथी@@ 10450
गृहीत 10449
माझी 10449
ङ्ङൾक्कु 10447
दप्तर 10446
पैमाने 10445
तंड्रि 10444
पहेलां 10444
वारिलो 10443
मानब 10442
अङ्कि@@ 10441
वखते 10441
इलङ्कै 10440
चिरि@@ 10439
त्तं 10439
परीक्षार 10439
हानि@@ 10439
नंब@@ 10438
राखी 10438
बाजों 10437
कोरोना@@ 10436
अत्युत्तम 10435
सक्@@ 10435
अबस्था@@ 10432
नौकर@@ 10432
कशी 10431
गिन@@ 10431
गेंद@@ 10431
नेमे 10431
याल् 10431
परमेश्वरा@@ 10430
रमे@@ 10430
प्पुऱ@@ 10428
रोगी 10427
लालू 10427
सुण@@ 10427
्स 10427
कंई 10426
द्रि@@ 10425
कापुर 10424
नीतिमऩ्ऱ@@ 10423
तारिखे 10422
जन्यइ 10421
निजा@@ 10421
माऱ्ऱं 10421
वङ्कि@@ 10421
एनआर@@ 10420
दरअसल 10420
बाप्तिस्@@ 10419
य़ाल 10419
विൻ 10419
वध 10418
किੰ@@ 10417
शह@@ 10417
समावे@@ 10417
किलोग्राम 10416
आपत्ति 10414
मजा 10413
र्त्ति 10411
अंच@@ 10410
शिक्षण@@ 10410
सबੰध 10410
स्थलं 10410
ियुङ्कळ् 10410
प्र 10409
हैदराबाद@@ 10409
ळित 10408
रास्ताय़ 10407
उत्तरे 10405
मुसलमानों 10405
उंदे 10404
न्यायाधी@@ 10404
सुझा@@ 10403
पंपि@@ 10402
सुत्त@@ 10402
वाक@@ 10399
दिक@@ 10398
अतावतु 10397
मरणि@@ 10397
इंदुकु 10396
दनी 10396
वारा@@ 10396
विरै@@ 10396
आतार@@ 10395
गोवि@@ 10395
माट्लाडुतू 10395
सेखान 10394
ർत्थि@@ 10394
जज 10393
तॊकै 10393
क्कुमॆन्नुं 10392
ट्विट्टर् 10390
तस@@ 10389
कुऴप्प@@ 10387
प्रकल्पेर 10387
ग्ला@@ 10383
तुक 10382
हं@@ 10382
पत्नि 10381
पोता@@ 10381
प्रतिभा@@ 10380
इतने 10377
य़रे 10377
उलकम् 10376
पॅ@@ 10376
बीसीसी@@ 10375
भागात 10375
टी20 10374
अभ्यर्थि 10372
बीजेपी@@ 10371
इस्राएल 10370
गुस्@@ 10369
याइथिला 10369
तरं 10366
धां 10366
तिनिइ 10365
ऩैयुम् 10363
मेट 10363
ललिता 10362
लाच 10362
सरी 10361
अधिकारि 10358
कालेदु 10356
टरे@@ 10356
लिगॆ 10355
ऎण् 10354
देवाच्या 10352
मुक 10352
ब्लू 10351
विश्रा@@ 10349
सागु@@ 10347
ৰि@@ 10347
शेट्टी 10346
आट 10345
ग्रहणेर 10345
लोर 10345
सभ्य 10345
एजेंसियों 10344
सूर@@ 10344
ऎरडने 10343
लिटी 10343
लोकां@@ 10343
न्नुमिल्ल 10342
न्याशनाल 10340
अटुत्तु 10338
सॆൻ@@ 10337
जानें 10336
आർक्कुं 10335
वन्तिरु@@ 10335
बाजारे 10334
हॆच्@@ 10331
टुइट 10330
िलु 10330
अस्त्र 10329
उट्प@@ 10329
तालिकाय़ 10329
विमाऩ 10329
सॆ 10329
अनुकू@@ 10327
बदलने 10327
राश@@ 10327
हासान 10327
लोको@@ 10326
मूत्त 10325
सकले 10325
कळो 10324
नाल्कु 10324
कुमारस्वामि 10323
भाजपने 10323
हरि 10323
कब@@ 10322
जं 10321
णै 10321
अरचा@@ 10320
टाकार 10320
परम्प@@ 10320
किळ@@ 10318
रुत्तदॆ 10317
वरद@@ 10316
ज़ार 10315
दिलेल्या 10315
सिरफ 10314
मेय़ा@@ 10313
वाचा 10312
एह@@ 10311
अंतर्@@ 10309
उल्ट@@ 10309
डम 10309
तळ्ळ@@ 10308
सीम 10308
कांग्रॆस्@@ 10307
तिआ 10307
रणनीति 10306
ऐक्किय 10305
न्यायालयात 10304
पङ्@@ 10304
पदवि 10304
थोडा 10303
सुलभ 10303
हॆच्चा@@ 10303
ion@@ 10302
माँ@@ 10301
शिल्पी 10300
विभागों 10299
मातु@@ 10298
यकीन 10298
आवश्यप्पॆट्टु 10297
कविल्लै 10297
BS@@ 10295
उण्मैयिल् 10295
वुमाय 10295
हनु@@ 10295
64@@ 10294
न्ऱे@@ 10293
एनएस 10291
डिൽ 10291
आरबीआई 10289
एज@@ 10288
ऱ्च@@ 10288
पाकि@@ 10287
ർन्नु 10287
च्छेद 10286
हाय़@@ 10286
नाक 10285
फर्म 10285
ख़ान 10283
ऍ@@ 10281
ओळख@@ 10280
पच्च@@ 10280
मकान 10277
वैपु 10276
एमी 10275
भागंगा 10273
एभळि 10272
आस्पत्र@@ 10271
आसुपत्रिकि 10270
प्रश्ना@@ 10270
महारा@@ 10270
बेशी 10269
उलक@@ 10268
विकास@@ 10266
तदन्ते 10265
बन्द 10263
वरिൽ 10263
अत्यार 10262
द्रोह 10262
वाधा 10262
अपना@@ 10261
चलन@@ 10260
दौड़ां 10260
युळ्ळ@@ 10260
ऐन 10259
चलाने 10258
पोतु@@ 10258
सेमानङ्क 10258
बाई@@ 10257
वधी@@ 10256
इरुप्पिऩुम् 10255
इळि@@ 10255
नकर् 10255
93 10254
पयण@@ 10254
पिछने 10254
ताच 10253
मऩ् 10253
सहाइता 10253
ऩ्ऩा@@ 10252
र्लो 10252
गयुं 10251
रहीं 10250
धता 10249
सिपिऎं 10249
ऎन्तुकॊण्ट् 10248
बेशिरभाग 10248
आमेरिकार 10247
हल्ल@@ 10247
ID 10246
अऱिक्कै 10246
तेरा 10244
ंथी 10243
घटनपै 10243
ऐन्तु 10242
दलित 10242
कुमारी 10241
विरासत 10241
पारछि 10240
आधारंगा 10239
चारु 10239
स़ाइद 10238
एरकम 10237
युक्ति 10237
तुटർ@@ 10233
समर्पण 10233
दृढ@@ 10232
न्नां 10232
लागु@@ 10230
आतरवु 10228
ष्या@@ 10225
पुरातन 10224
विक्कऱ्ऱ् 10222
तियुटॆ 10221
जातिर 10220
सुव@@ 10220
हमेस़ा 10220
परेशानी 10219
क्कॊळ्ळु@@ 10218
शैतान 10218
तबुओ 10216
अल्लाहुवि@@ 10215
दुइटि 10215
मील 10215
इन् 10211
सिरी@@ 10210
तॆलियजे@@ 10209
भर्त्ति 10209
गिल@@ 10208
कुश@@ 10207
लेवु 10207
पर्य्य़न्त 10206
पिरच्@@ 10206
आगस्ट 10204
ओप्प@@ 10204
ब्यबसा 10204
चय@@ 10203
वैर@@ 10203
समयदल्लि 10201
सूची@@ 10201
स्ट्या@@ 10200
करायला 10199
घ्या 10198
निऊ@@ 10198
पन्नु 10198
लੱग 10197
वीर्कळ् 10197
एऱ्कऩवे 10194
गेम 10194
बन्धप्पॆट्ट 10194
याव@@ 10194
नच 10193
संशय@@ 10193
लीधो 10191
हीरोयिन् 10191
मंगळ@@ 10188
्यावर 10188
ंद् 10185
खाता@@ 10185
तरफे 10185
हटाने 10184
तीर्माऩ@@ 10183
नडॆदिदॆ 10183
चोदिच्चु 10182
त्तिलॆ@@ 10182
नारायण@@ 10182
बणा 10182
लुधिआणा 10181
शराब 10181
यिशुर 10179
वर्णन 10177
शकतात 10177
गाया@@ 10175
जनरिगॆ 10175
ऑर्@@ 10174
कट्चियिऩ् 10174
गन्@@ 10174
योगि 10174
आशंका 10173
इत्तर@@ 10173
पळ@@ 10173
गुंड@@ 10172
धरे@@ 10172
सेखानेइ 10172
अभियोग@@ 10171
गॊप्प 10171
सुत्तिदॆ 10171
अग्@@ 10170
चॊल्ल 10170
ढे 10170
सावु 10170
कसा 10169
बल्ल@@ 10169
मक्कळि@@ 10169
बाड़ि@@ 10168
लिन्ऱॆ 10168
अनुग्रह@@ 10167
अभिनंदन 10167
जमि 10167
नम्पु@@ 10167
य़र 10167
अप्पट@@ 10165
निलॆ 10164
सेमि@@ 10164
आरम्प@@ 10162
नेम@@ 10162
देरी 10161
वादि 10161
इबा 10160
एनडी@@ 10160
सरा 10160
सोसाइ@@ 10160
दियों 10159
अयो@@ 10157
नेय़ा 10157
बिभागे 10157
दाने 10154
ർत्ति 10154
चाळ@@ 10152
पॆद्द@@ 10152
एसएस@@ 10151
जोई 10151
प्रकटिंचारु 10151
आरंभिच्चु 10148
चੱल@@ 10146
दरवा@@ 10146
धमा@@ 10146
हੱल 10146
क्कत् 10144
त्यांच्यावर 10144
प्रोसेसर 10144
शिक्षार 10144
कामां 10140
बन्या 10140
अगत्य 10139
तरफथी 10139
नते 10139
शिष्ट 10139
साठी@@ 10139
IS@@ 10138
शेख@@ 10138
अरवि@@ 10137
तळ्ळि 10136
तॆरिय@@ 10136
बट@@ 10136
गॊंड 10135
तिल@@ 10135
विषयों 10135
करणाऱ्या 10133
धम@@ 10132
ताक@@ 10131
पेचि@@ 10131
अद्देहत्तॆ 10130
ूप 10130
पोट्टि 10129
तुटർन्नाण् 10128
परबर्तीते 10128
भावनाओं 10127
आपणीआं 10126
टेबल 10125
सॎ@@ 10124
डिफे@@ 10122
करावे 10121
नेवाली 10121
सिद्द 10121
ऎंबु@@ 10120
चित्रदल्लि 10119
दागिदॆ 10119
भितरे 10116
रुवुदु 10113
उपस्थितरिद्दरु 10111
कंड@@ 10111
दल्लिरुव 10110
म्ब 10110
य़ान 10110
समाचार@@ 10110
ऎत@@ 10107
पायलट 10106
कितनी 10105
आऱु@@ 10104
णिൽ 10104
दाय@@ 10104
ऩ्ऱाल् 10104
प्रोटो@@ 10100
गिय@@ 10099
ओळख 10098
लिंग@@ 10098
समावेशंलो 10098
ण्डे 10097
तॊलगि@@ 10096
परामरि@@ 10096
भरो@@ 10096
मॊत्तम् 10096
वेळा@@ 10095
फुटेज 10094
ड़्ह 10094
अगदी 10093
आईए 10093
पेय़ेछेन 10090
विੱत 10090
दिच्छे 10089
ऑपरेशन 10088
चत्तिय@@ 10088
पब्लिक 10088
डाक्टर् 10087
अट्ट@@ 10084
विभागं 10084
ङ्ङळॆ@@ 10083
इटली 10082
कंपॆनी 10082
हागागि 10082
आसक्ति@@ 10081
इवॆ 10080
आ्य@@ 10078
णॆङ्किൽ 10078
देशभर 10078
षिक 10076
केंद्रं 10074
सोनी 10073
राकेश 10072
भागे 10071
संगत 10069
ऎदु@@ 10068
वाർत्त@@ 10067
ियत 10066
आण्@@ 10065
समुद्री 10065
अजित् 10063
करन्तु 10063
वायुसेना 10063
W 10061
किलोमिटार 10061
qu@@ 10060
पाता 10060
लागित्तु 10060
स्पर्धा 10059
लः 10058
नप@@ 10057
ंलोकि 10054
मन्त@@ 10054
अकसर 10053
दुनीआ 10053
कायद्या@@ 10052
खत 10052
पोर्टल 10052
चीनेर 10051
होग@@ 10051
वैयिल् 10050
न्यास 10049
ट्टाऩ् 10048
विय 10048
वർद्धि@@ 10046
बितर्@@ 10044
आवुं 10043
भूमिय@@ 10043
ऎन्तु@@ 10042
चारा 10042
राजन 10042
निभा 10041
पालु 10041
ुन 10039
करम@@ 10038
तियिൽ 10038
मूळ@@ 10038
र्जा@@ 10037
ंगु@@ 10036
मैकळ् 10035
माऱि@@ 10034
स्बरूप 10033
ङ्ङळि@@ 10031
मध्ये@@ 10031
नरे 10030
मन्त्रकेर 10030
म्हणाला 10030
गौड 10029
सालों 10029
हिडि@@ 10028
पाർट्टि@@ 10027
स्का@@ 10027
ओर्@@ 10026
यिट्टिल्ल 10026
हक्कु@@ 10026
ेक 10026
प्रॆ@@ 10025
युबक 10025
अनुया@@ 10024
दादा 10024
तट 10023
बीसी 10021
वर्षी 10021
गानु 10020
रागि 10020
नटुडु 10019
याओ 10018
आवृ@@ 10017
२०१० 10016
अपहरण 10015
नटन्ततु 10014
50,000 10013
शकीए 10013
इसने 10011
अतिकमाक 10009
गान्ध@@ 10009
निचे 10009
मुतली@@ 10009
निय़@@ 10008
ज्ञात 10006
प्लस 10006
युद्धे 10006
नृ@@ 10005
अपार 10004
प्पिच्चत् 10004
माकवुम् 10004
शु 10004
सർक्कारिन्ऱॆ 10004
वॆऱ्ऱ@@ 10003
वरू 10002
दर्शकों 10000
पिरतम@@ 10000
बोझा@@ 9999
ताय् 9998
वेट्पा@@ 9996
पलिया@@ 9995
अब्दुल्ला 9994
इडी 9994
ङ्कळाक 9994
एचडी 9993
मऩ्ऱ@@ 9993
मोठे 9993
अनुग्रह 9992
निऱुवऩत्तिऩ् 9992
पीड़िता 9992
बचत 9992
संक्षिप्त 9989
सेवावां 9988
अंशा@@ 9987
कुऴन्तै 9986
निउ@@ 9986
आयु 9984
उङ्कळै 9984
न्दा 9984
सीए 9984
थु@@ 9983
वाल्@@ 9983
नान्नि 9982
सला 9982
ph@@ 9981
पण्य 9981
तेर्त@@ 9980
ऎण्णॆय् 9978
टिओ 9978
ण्य@@ 9978
कलर 9977
जिनकी 9975
जिੰदर 9975
त्तिद्द@@ 9975
थानार 9975
इंजीनियरिंग 9974
निस्@@ 9974
सथित 9974
फोर्ड 9973
सैना 9973
हरिया@@ 9973
कूट्टत्तिल् 9972
ळाण् 9972
कनु@@ 9971
पारंपरिक 9971
रीर 9971
आटो 9970
जत 9970
तमिळ@@ 9970
सुना 9970
ൾड् 9970
करवाया 9969
चुनौतियों 9969
ताम् 9967
प्रधानमंत्रीए 9967
व्युं 9967
स्बाधीन 9967
साक्षी@@ 9966
आन्त@@ 9965
न्टा@@ 9965
आचिरिय@@ 9963
व्यय 9963
सबेका@@ 9962
सहो@@ 9962
हिन्@@ 9962
ऎण्@@ 9961
णॆय 9960
दगी 9960
पोरे@@ 9960
तत्व 9959
कुक 9957
चिऱिय 9956
मिकुन्त 9956
राजस्थान@@ 9955
उद्यम 9954
यिहो@@ 9954
वन्@@ 9953
ग्रामा@@ 9952
बलो 9951
भड़@@ 9951
05 9947
रुजु 9947
संदीप 9946
उभय़ 9945
पश्चि@@ 9945
वाय्प्प@@ 9945
नय़@@ 9943
निशान 9943
वाർत्त 9942
सर्विस 9942
सिद@@ 9942
सेवन 9941
ण्टा 9940
बाजार@@ 9940
मंत्रालया@@ 9940
म्मा 9940
वागिल्ल 9940
जनि@@ 9938
तेओ@@ 9938
तेटि 9937
लीटर् 9937
पाबेन 9935
पराजित 9934
एकमे@@ 9933
क्किंत 9932
उयर@@ 9931
मनेर 9931
आपराधिक 9930
क्कप्पॆट्ट 9930
नाइट 9928
रद 9928
लभ्यमा@@ 9926
अपमान 9925
चालित 9923
फेब्रुय़ारि 9923
कैंप 9920
तोलार 9920
नात् 9920
बेह@@ 9920
पंड@@ 9919
कमी@@ 9918
लोकोना 9918
मिर्@@ 9916
संभावित 9915
कोले@@ 9914
गीता 9911
जिल्ह्या@@ 9908
शीघ्रइ 9908
हिरा@@ 9908
इकੱ@@ 9904
परपर@@ 9903
फिट 9903
गौरतलब 9902
श्वास 9902
ख़ुद 9901
निषिद्ध 9901
नुहेँ 9901
जनङ्ङൾ 9900
रेइ 9900
मनीष 9899
कलां 9897
बलात्@@ 9897
बिस्फो@@ 9897
प्रकल्प@@ 9896
सੰबੰ@@ 9895
नास 9891
रोज@@ 9891
कलै 9889
उऩ् 9888
नाइटेड 9888
होंडा 9888
अवळुटॆ 9887
वाग्दानं 9887
वीटि@@ 9887
श्रीलं@@ 9887
ळम् 9886
खतरनाक 9885
दशा 9885
वरुन 9885
धैर्य 9883
अनुवाद 9882
कट्टा@@ 9881
चॆल्ल 9880
णिक 9880
मण्ट@@ 9879
दॆः 9877
सक्रिय़ 9877
एकदा 9876
संरक्षित 9875
बिलि@@ 9874
वाऴ्त्तु@@ 9874
च्चा 9873
ड़ो 9873
पौरत्व 9873
क्कणक्काऩ 9870
गुलु 9869
सੰबोधन 9869
परीक्षि@@ 9868
बेडि@@ 9868
भक्षण@@ 9868
मिस 9868
वैस् 9868
कूट्टा@@ 9867
कुडु 9865
बचाने 9864
मिलिय़न 9863
ऒलि@@ 9862
नैस़नल 9862
वाया 9862
देब@@ 9861
कोंग्रेसना 9860
पिऴ@@ 9859
हाले 9859
परिमा@@ 9858
लाखों 9858
जनम 9854
मंत 9854
याकुम् 9854
ियागिदॆ 9854
वायि 9853
क्य़ा@@ 9851
ऎव्वळवु 9850
नव्या 9850
मिता 9848
मारो 9846
क्कैयै 9844
चीऩा@@ 9844
माऩ् 9844
चॆय्वतु 9843
वीटु 9843
आओ 9842
काठ@@ 9842
म्बे 9842
मीत 9841
रंजन 9841
ऩ्ऩि@@ 9839
मनाइआ 9839
लड@@ 9839
दिੱतीआं 9838
अहिम 9836
नाटुकळिल् 9835
संबन्धि@@ 9835
घोषि@@ 9834
भार्@@ 9834
सफळ 9834
तिआं 9833
दर्जा 9833
प्पताक 9831
ताक्कल् 9830
नोड@@ 9830
देखना 9829
बढ़े@@ 9829
संबं@@ 9828
बिजनेस 9827
मानङ्कर 9826
ह्र@@ 9825
कळो@@ 9824
वॆच्च् 9824
दिय़ेछि 9823
बॆळॆ@@ 9823
समस्त@@ 9823
प्रशांत 9822
il 9821
खानेर 9819
सम्प्रदाय़ेर 9819
पूछे 9818
मुग्@@ 9818
ंशी 9816
आऴ@@ 9816
हिट 9815
नगरा@@ 9814
वृत्ति 9813
माडिदरु 9812
घंटों 9811
बाबू 9811
आऩ@@ 9810
ऐसि@@ 9810
तॊऴिल्नुट्प@@ 9810
त्तिऱ्काऩ 9810
संत 9810
ब्यय़ 9809
याने 9808
दिवसे 9807
कोर्टेर 9806
द्वार 9806
साद 9806
इवर@@ 9805
लड़ने 9805
एवा 9804
नटन्नत् 9803
बहस 9803
ऐन@@ 9802
साड़ा 9801
दुरु@@ 9800
चढ़@@ 9799
lin@@ 9798
लती 9797
ञान@@ 9796
त्तोटु 9796
पॆൺ@@ 9796
सहकार 9796
इवरुटॆ 9795
कोयला 9795
थान 9793
निवडणुकीत 9793
पੰजाबी 9793
बेरिय़े 9792
शिक@@ 9791
बण्ण@@ 9790
ऎल्लि@@ 9785
प्रस़ासन 9784
सरी@@ 9784
उॎस 9783
चुनावणॆयल्लि 9782
आकर्षण 9781
अस्पतालों 9780
सन्तान@@ 9779
ंबु@@ 9778
आचार@@ 9777
तारी@@ 9777
कॆट्ट@@ 9776
तुंदनि 9775
नाराज 9775
भूति 9774
इंग्लीष् 9773
इरुन्तालुम् 9773
ओवर@@ 9773
प्ति 9773
क्षक 9771
हवामान 9771
क्किऱ 9770
सरिय़े 9769
टुत्ति@@ 9768
द्वितीय 9768
धरम 9768
आयकर 9767
स्थिरता 9767
बाजू@@ 9766
समे 9766
क्कुकൾ 9765
तॆरिवित्तऩर् 9765
योगं 9765
सदु@@ 9764
कार्तिक 9763
कार्यरत 9762
भ्रमण 9762
महिळॆय@@ 9762
रिलायंस 9762
इप्पट@@ 9761
नच्या 9761
ऒराൾ 9760
चॊल्लु@@ 9759
मानत 9759
वडं 9759
कविता 9757
तबदी@@ 9756
केटायि@@ 9755
अनुराग 9754
ऒब्ब@@ 9754
नवां 9754
उऱप्पा@@ 9753
कळ 9753
गांवों 9753
ल्ट् 9753
शर 9753
शॆट्टि 9752
तिळिदु@@ 9751
निटॆ 9751
आविष्@@ 9750
सिने@@ 9750
आण्ट@@ 9749
एआई 9749
टुळ्ळ 9748
पेർ@@ 9746
धावा 9745
प्रभ@@ 9745
मानवा@@ 9743
वेण्टिय@@ 9743
जताया 9742
तोटु 9742
Q@@ 9740
छी@@ 9739
अधिसूचना 9737
उत्तेजना 9737
निजेइ 9736
कॊंदरु 9735
शुरुआती 9735
केमि@@ 9733
निभाई 9733
माय् 9733
विमाना@@ 9733
टत्तिल् 9732
गलती 9731
कर्मीरा 9730
णों 9730
ुडु 9730
करणा@@ 9729
सुरेष् 9729
ൻड@@ 9729
औषध 9726
डीने 9725
भल 9724
कमान 9721
माक@@ 9721
बंगाळ@@ 9720
संग्रह@@ 9720
प्पोम् 9719
चिठि 9718
बडिन 9718
६ः@@ 9718
राल् 9717
लौट 9717
आशय@@ 9716
पङ्के@@ 9716
चाप्पि@@ 9715
च्चिंदि 9715
तुलते 9713
कहिणा 9711
ऎप्पोतुम् 9710
नकारी 9710
वचति 9710
वीने 9710
चलाचल 9709
पकड़ 9709
इविट@@ 9708
ऎस्पि 9708
पोलीसार् 9706
कटुत्त 9705
परिस्थितिर 9705
इरुव 9704
ऊट 9704
मिने@@ 9704
अतऱ्काऩ 9700
सरत 9698
कृतज्ञ@@ 9697
सिकॊंडु 9697
तेर्न्तॆटु@@ 9696
भारतनी 9696
मन्द 9696
नन्नन्नु 9695
ड्स् 9694
दिय़े@@ 9693
पाल्प@@ 9693
विद्यार्थिगळु 9693
ाक 9693
अग्नि 9690
नदि@@ 9689
आऱ् 9688
कोट्ट@@ 9687
त्तैत् 9686
ब्यूरो 9686
सुहृत्तु@@ 9685
ऎंपि 9683
निक् 9682
उत्साह 9679
कैफ 9679
खेतमजूरी 9679
बासी@@ 9678
इंटरनेशनल 9677
ब्रिटि@@ 9677
स्तरे 9677
est 9676
एनी 9676
कूटिय@@ 9676
िलूटॆयाण् 9676
आशीर्वाद 9674
प्रतिक्र@@ 9671
आचार 9670
घिरे 9670
पत्रा@@ 9670
कम्प्यू@@ 9669
कार्यकाल 9669
मुंदुवरि@@ 9669
रण्टा@@ 9669
भੱ@@ 9667
पौर 9666
ब्रह्@@ 9666
मनवि 9666
तॆलुसु@@ 9664
व्हे@@ 9663
अस्ट्रेलिय़ा 9662
आह्@@ 9661
द्यंत 9660
लाइआ 9660
इन्टारनेट 9659
कर्मचार@@ 9659
मसी@@ 9658
वरों 9658
ोना 9658
प्रक्रिय 9656
चुकातार@@ 9655
गोला@@ 9653
बाड़ा@@ 9652
वती 9650
वेस्टइंडीज 9649
यातायात 9648
पल् 9647
माई@@ 9647
ऐੱन@@ 9646
नाई@@ 9646
नॆयाण् 9646
वरे@@ 9644
गळाद 9643
उपजेलार 9642
नकर्@@ 9641
फलाफल 9640
इੰटर@@ 9638
व्यत्यस्त@@ 9638
पक्षेर 9637
गवर्@@ 9636
नों@@ 9635
भूत@@ 9633
अर्त्त@@ 9632
बाधित 9632
ऊർ@@ 9631
वालीआं 9631
वीरर्कळ् 9631
संगठित 9631
खोल 9630
तना@@ 9630
बढ़ाया 9630
वधि@@ 9629
अप्पा@@ 9628
खोँज 9628
म्प् 9628
लयं 9628
विੱ@@ 9628
आप्युं 9627
ङ्कळाल् 9627
ब्यस्त 9627
राष्ट्रपती 9625
नतीजा 9624
पों 9624
मोड 9624
ज़ल 9623
तपा@@ 9623
उद्या@@ 9620
राजस्था@@ 9620
नन्दि 9619
चिंत@@ 9618
मॆच्च@@ 9618
pl@@ 9617
साण् 9617
चटङ्ङिൽ 9616
शीख@@ 9616
12,@@ 9614
बॉस 9614
म्याच@@ 9614
लक्षात 9614
आदालतेर 9613
ੰस 9613
ऩालुम् 9611
बाब 9611
ूर्@@ 9611
इम्@@ 9609
मिऩ्च@@ 9608
पऱय@@ 9606
अखिलेश 9605
महत्वा@@ 9605
ोर् 9605
ऑक्@@ 9603
यूनिट 9603
Al@@ 9602
कऩ्ऩ@@ 9600
टीमां 9600
पङ्कॆ@@ 9600
मय़नातदन्तेर 9599
भाषार 9598
हसि@@ 9598
ट्टत्तिल् 9596
नाटुकळ् 9595
बेडकर 9593
विभा@@ 9591
अधिकं 9587
ज्येष्ठ 9587
आईसी 9586
कर्मी@@ 9586
धाने 9586
एमएस 9585
भरात 9585
ह्यु@@ 9585
इसको 9584
ऱ्ऱुकൾ 9584
धियों 9583
चॆय्यप्पट्टतु 9582
य़ो@@ 9582
90@@ 9581
तॊटर्पु 9580
अफ्@@ 9578
नीडि 9578
मिशन@@ 9578
केळ@@ 9577
चेपट्टारु 9577
सुकൾ 9576
तुः 9575
धिकारि 9575
टेकनो@@ 9574
राघ@@ 9574
मिकप्पॆरिय 9573
अंदुबाटुलो 9571
ग्रहण@@ 9571
सफल@@ 9571
कळा 9570
जंग@@ 9570
कली 9569
कुशल 9569
दुटो 9569
रायि 9569
सनमान 9569
समझा 9568
माहिती@@ 9566
कते 9565
नेषनल् 9565
दक्षिणी 9564
ाऱ्या 9564
काൻ 9562
संदर्@@ 9562
तॊकुति@@ 9560
माला@@ 9560
योजनॆ 9560
अद्भु@@ 9558
जुओ 9558
अमर्@@ 9557
डॊ@@ 9557
एके@@ 9556
दूजा 9556
तकवल्कळ् 9554
थित 9554
देशटिर 9554
बढ़ते 9554
रिक्क@@ 9553
अवळ@@ 9552
तिट्ट 9552
अजी@@ 9550
एकाडे@@ 9550
डीआर@@ 9547
विंग 9547
वैऱस् 9547
वൽ 9547
वर्कळुम् 9544
अੰम्रितसर 9543
निर्देशों 9543
ऎल्लरू 9540
माँ 9540
हीआं 9540
कदा 9539
ट्टिय 9538
लेवामां 9538
खनन 9536
कुऱिप्पिट्ट 9535
कीजिए 9534
तीचे 9533
ർत्तु@@ 9533
79 9532
सलागित्तु 9532
करिनि 9531
परिबहन 9531
भारतीयों 9531
करणेर 9530
सांकेतिक 9530
ऎळुप्प@@ 9526
बलिउड 9526
येशु@@ 9525
हॆसरु 9525
अनुभब 9523
मैसू@@ 9520
ऒप्पन्त@@ 9519
क्कुन्नतिൽ 9519
वाहक 9519
बिख्यात 9516
जुड़ा 9515
रेशन 9515
काहीच 9512
आतापर्यंत 9510
यानंतर 9510
पुरोपुरि 9508
मुऱैय@@ 9508
ळ्ळिൽ 9508
ऩेऩ् 9507
भित्ति@@ 9507
ऎंपी 9506
धृ@@ 9506
कॊण्टुळ्ळतु 9504
सेंट 9504
सेवन@@ 9504
हक़ 9504
ओस्ट्रेलिय@@ 9503
लात 9503
ताक्कुतल् 9501
परिध@@ 9501
v 9500
काहीही 9499
तटै 9499
लान 9499
संक्रा@@ 9499
यूरोप 9497
आप् 9496
हब 9496
मुठभेड़ 9495
विण्यात 9495
२०१७ 9495
ंटुंदि 9494
डौन् 9494
आरथिक 9493
गतकाल 9493
तॆरियुम् 9493
पता@@ 9490
स्रो@@ 9490
ीय़ 9490
त्म@@ 9488
च्छि@@ 9486
निवड@@ 9485
पने 9485
प्रार@@ 9485
सम्मान@@ 9485
कमिटी 9484
चॆयल्पटुत्त@@ 9484
व्यू 9484
हालाँकि 9484
ंतर@@ 9483
खाൻ 9482
विषयत्तिൽ 9481
वैयक्तिक 9481
्स् 9481
विपत्तिल् 9479
तिरुम्प@@ 9478
मिडिय़ा 9478
संरक्षि@@ 9476
सकी@@ 9475
हंचि@@ 9475
्चि@@ 9475
रूपयाण् 9474
अभ्या@@ 9473
चेसुकुन्न 9473
बੱस 9472
चाकरि 9471
पस 9471
क्कप्पट 9470
लास 9470
स़क 9470
ज़ु@@ 9469
ऑपरे@@ 9468
होइछन्ति 9466
पुढ@@ 9465
शिया 9465
किऱा@@ 9464
जैकट 9464
मोर@@ 9464
बिश्ୱ@@ 9463
क्षेत्रात 9462
ट्टർ 9462
कय़ेक@@ 9461
चांगले 9461
सम्मेलने 9461
जट्टु 9460
आब्@@ 9459
छाया@@ 9457
तियि@@ 9457
सूचन 9457
आलय@@ 9456
मारुटॆ 9456
अऩुप्पि 9454
मुगा 9454
कितने 9453
मुहूर्ते 9453
य़ी 9449
कृपया 9448
जेवी 9448
उळ्ळट@@ 9447
तेथे 9447
स्थळे 9446
इयक्कुनर् 9444
धेर 9444
हौदु 9442
इरुक्किऱार् 9441
माध@@ 9441
पटे@@ 9437
तीसुकुन्नारु 9436
हेर@@ 9436
इऱैव@@ 9435
चट्टा@@ 9435
याच्या 9433
नॆलकॊ@@ 9432
भारि 9432
उदघाटन 9430
णिय@@ 9430
मुहा@@ 9430
कामयाब 9428
थांब@@ 9428
निवड 9428
ज्य 9427
टाक्टर् 9427
सख़त 9427
वऴक्कु@@ 9426
इवरु 9425
मुन्नो@@ 9425
द्धा 9424
दिव्या@@ 9422
प्रतिबद्धता 9422
विरा@@ 9422
पोरट 9420
लाते 9419
देहा@@ 9416
पुरिन्तु@@ 9415
एहा@@ 9414
नामा@@ 9414
रीना 9414
मुखा@@ 9413
ऒन्नां 9412
ऒरुमि@@ 9412
मलया@@ 9412
सिंधु 9412
इलट्चम् 9411
फीचर 9411
घट 9410
टेनिस 9409
नीडिदॆ 9409
माർक्क् 9409
एससी 9408
देखार 9408
मता 9408
भाषाओं 9406
भालोबा@@ 9405
ंडगा 9404
जिया@@ 9403
सल्मान् 9403
गुज़@@ 9401
तस्@@ 9401
स़त 9401
अऩुमति 9400
इङ्के 9400
जव@@ 9400
फ्ऱ्ऱ@@ 9399
व्यवस्था@@ 9399
सदस्यदेर 9398
बलेछे 9397
अडु@@ 9396
टङ्का 9396
अऩुप्प@@ 9395
मजु@@ 9395
लोक्सभ 9395
कोंग्रे@@ 9393
फूड 9393
ओनो 9392
सुवुदिल्ल 9392
स्वीकृति 9391
ऎन्टीआर् 9390
वळ 9388
जखम 9387
प्रवि@@ 9387
काणाൻ 9386
पाउ@@ 9386
मॆय@@ 9386
प्रत्याशी 9385
माराय 9384
निफ्टी 9383
बिधि@@ 9382
क्षुद्र 9381
क्रमि@@ 9380
अधिकारिक 9378
नकारात्मक 9378
ऴ्त्त@@ 9378
हस@@ 9377
८० 9376
दर्द 9375
उठते 9374
रिकार्@@ 9374
पड़ुन 9373
सिੱधू 9373
वीटियो 9372
अभिनन्दन 9371
वन्न@@ 9371
ग्रू@@ 9370
सम्मिलित 9368
□ 9365
क्कैय@@ 9364
अग्रणी 9360
अम्च@@ 9360
इतुताऩ् 9360
अक्कौ@@ 9359
जता 9359
अछन्ति 9357
नीटि 9356
दया 9355
प्रतिबेदन 9355
पिलु@@ 9354
तंडद 9353
सामिल 9353
आत्म 9352
चित्रत्तिलॆ 9352
बध 9352
श्रो@@ 9352
जनरल् 9351
निती@@ 9350
डब्ल्यू 9349
मेलतिक 9349
शुरु@@ 9349
निष्पत्ति 9348
न्नायिरुन्नु 9348
म्रितक 9348
फॉर 9347
नॆया@@ 9346
प्रतिबद्ध 9346
व्र@@ 9346
घटक@@ 9344
नीडिदरु 9344
पैनल 9341
कम्@@ 9339
पुलिशके 9339
भगत 9338
पोलीसु 9335
इय़ेर 9334
दरि 9334
बादे 9332
लागेल 9332
खास@@ 9331
ऩो 9331
राज्यदल्लि 9331
अऱस्ऱ्ऱ@@ 9329
दुनीआं 9328
इन्तच् 9327
डियो@@ 9327
नपिये 9326
मुरु@@ 9326
व्हिडिओ 9326
उतवु@@ 9325
क्कप्पट्टुळ्ळऩ 9325
धरणेर 9324
आल्या 9322
इयों 9322
कॆय@@ 9322
देगी 9322
साफल्य 9322
३४ 9322
गुं@@ 9321
पॊरुळ् 9321
विस्फोट 9320
900 9318
अडच@@ 9317
करिथिला 9317
यातना 9317
गिक 9315
चुम@@ 9315
टरा@@ 9315
साइट@@ 9314
आगूआं 9313
गिंत 9313
टिक्स 9312
त्तिले@@ 9312
पोलिसांना 9312
सिल 9312
मुख्यमंत्रि@@ 9311
तेज़ी 9310
क्वार्ट@@ 9308
पदेर 9307
सहकरि@@ 9307
स्पेस 9307
एथिपाइँ 9306
वरैय@@ 9305
ऩैत् 9304
प्रथ@@ 9304
गळन्नू 9303
त्वरित 9303
जगतेर 9302
पिट@@ 9300
मल्ट@@ 9300
रहित 9300
संक्षे@@ 9299
६ः 9299
कॆट्टि@@ 9298
ंचवच्चु 9297
मू 9297
वळर्च्चि@@ 9297
बैंकिंग 9295
मून्नां 9295
हिंद@@ 9295
अड्डे 9293
माफ 9293
अवश्य 9291
सलर 9289
वलै@@ 9288
वाइस 9287
जानो 9285
नटैपॆ@@ 9285
निय़ोग 9283
मक्कळु@@ 9282
भागी@@ 9280
वैप् 9280
घोषणा@@ 9278
त्यार 9278
दिल्ल 9277
ज़र 9276
जनु@@ 9275
एक्शन 9274
चेस्तारु 9274
नൽकुन्न 9274
र्र@@ 9274
विचारणॆ 9274
दाय़ी 9271
लड़ 9271
दिसून 9270
पकरं 9269
परिसर@@ 9269
पोटी@@ 9269
किआं 9268
तलाक 9268
इम्रा@@ 9266
अबि@@ 9265
तूने 9265
बाहिनी@@ 9265
त्तिरि@@ 9264
नत्तिൽ 9264
Ph@@ 9263
वधार@@ 9263
नोटी@@ 9261
भाब 9261
रॆंड@@ 9261
समर्थ 9261
सम्पत्ति 9261
ऩैक् 9260
प्राइम@@ 9260
पोट्टियि@@ 9258
प्रिय़ 9257
बुझा@@ 9257
छाड़ 9256
तदेर 9256
राज्यना 9256
अंत्य@@ 9254
छੱड 9254
दक्षिण@@ 9254
अऱिमुकम् 9252
यकीनी 9252
लाय@@ 9251
माटे@@ 9250
ऱुण्ट् 9250
128 9248
कट्टॆ 9248
चेयु@@ 9247
सुधी@@ 9247
भवि@@ 9246
रूपयुटॆ 9246
समयमां 9246
22@@ 9245
इउनि@@ 9245
हैछे 9244
पड्डारु 9243
प्रयत्न@@ 9243
क्यो@@ 9241
आट्चि 9240
खण्ड 9240
नामांकन 9240
वांग 9240
स्फोट@@ 9240
id 9236
केंद्रों 9236
एऱ्@@ 9235
ब्ध 9235
ऒरुपाट् 9234
पॆऱुम् 9233
कळुहि@@ 9232
निय़ेछेन 9231
श्य 9231
नटित्तु 9230
आकर 9229
पढ़ाई 9229
पार्क्क 9229
आकर्षित 9228
लाइफ 9228
छिलेनः 9227
ियिट्टिल्ल 9227
क्कॊप्पं 9226
मनोयोग 9225
मुन्निൽ 9225
राज्यातील 9224
णात्मक 9223
पयणम् 9223
फीचर्स 9223
नाची 9222
कम्पनि 9220
महो@@ 9220
पाय 9219
भक्षणं 9218
मूर्ति@@ 9218
ेछे 9218
गोष्ठ@@ 9217
बർ 9216
विवेक 9215
रिलीज़ 9211
ंह 9210
कৰिब 9210
फाई 9210
ऱुत्त@@ 9209
वारदात 9209
सपे@@ 9209
ne@@ 9208
सभे@@ 9208
पंचा@@ 9206
मत्स्य@@ 9206
आरोक्किय@@ 9205
वेळा 9205
इतॆ@@ 9204
डोळ@@ 9204
ऊर@@ 9203
फास्ट 9203
राष्ट्रपति@@ 9203
कांत् 9202
डैरॆक्टर् 9202
कार्बन 9201
दिनं 9200
ेला 9198
नंद@@ 9197
वेस्ट@@ 9197
ियाई 9197
येभाबे 9196
▪ 9196
तैयार@@ 9195
पेर्@@ 9195
ൻऱ् 9195
डान 9194
त्तिऩ@@ 9194
ੰडा 9194
ऐੱम 9193
कोणी 9193
निरूपि@@ 9193
चतुर्@@ 9192
दानिनि 9192
फॉर्म 9192
करेल 9191
उट्पट 9190
ब्यक्तिके 9190
तत्व@@ 9188
स्वच्छ@@ 9187
मुंदुकु 9186
ळ्ळु@@ 9185
शालॆ@@ 9185
खरा 9184
जिक्र 9184
हत्यार 9182
्यांनी 9182
वेऱ@@ 9181
सती@@ 9181
धर्मा@@ 9179
योगत्तिൽ 9179
पयऩ्पटुत्तु@@ 9177
वनिता 9177
उरिय 9176
भारताचा 9176
जीती 9175
जिट 9174
पोवु@@ 9174
वेण्टुमॆ@@ 9174
समूहेर 9173
एनेइ 9172
भाजपा@@ 9172
नड्डा 9171
भाषण@@ 9171
तिरिच्चु@@ 9170
बढ़ाकर 9169
वऱ्ऱिल् 9169
ർच्च 9169
तन्नॆया@@ 9168
हाती 9167
उपलब्@@ 9166
ब्राह्@@ 9166
मानसि@@ 9165
क्केण्टत् 9164
चॆप्पि@@ 9164
स्व 9164
यूजर्स 9163
तुंब 9162
काठामो 9160
मुंबैः 9160
as 9159
चित्रङ्ङൾ 9159
वेणु@@ 9158
वेनु 9158
लेकुंडा 9157
ईमान@@ 9156
दाँड़िय़े 9156
वॆळि 9155
क्ली@@ 9154
िलू@@ 9154
ऎङ्ङ@@ 9153
चोखे 9153
नियू@@ 9152
मारिंदि 9152
लभिक्कुं 9152
भला 9151
तम्म@@ 9150
गिवॆ 9149
मरुत्तुवमऩैक्कु 9149
बहे@@ 9148
ताहार 9147
बैबल् 9147
बैं@@ 9146
चेसि@@ 9144
ऩैप् 9144
पठ@@ 9144
टुन्न 9142
आगि@@ 9141
ट्टुक् 9141
मुन 9141
लंटे 9141
ओँ@@ 9140
आटके 9139
खरेखर 9139
धरना 9137
नीरिन 9137
शुभारंभ 9137
मेऱ्प@@ 9136
लण्ट@@ 9136
कർष@@ 9135
तात्कालिक 9135
बोला 9135
पुऱमॆ 9134
इरान 9133
बाबार 9133
नेटिय 9131
आलम 9130
समझने 9130
ऎटुक्क 9129
ऎऴुत्तु@@ 9129
करलाम 9127
रनों 9127
गणा@@ 9125
टिकि 9125
दिੰदे 9124
प्रतिभट@@ 9124
फ्रॆ@@ 9123
भागवहि@@ 9123
तॆलुसुकु@@ 9122
ੱख 9122
केरा 9121
प्रचेष्टा 9120
हाद 9119
उड़@@ 9118
बरी@@ 9118
कबे 9117
शेतकरी 9115
ीर्कळ् 9115
ज़गार 9114
प्रदीप 9114
अप् 9113
उपस्थि@@ 9113
पुलिश@@ 9113
ृत 9113
पिलि@@ 9111
जङ्गि 9108
कॊर@@ 9107
थाकले 9107
ive 9105
आचरि@@ 9105
इब्ब@@ 9103
निरापद 9103
हੰ@@ 9103
पारे@@ 9101
बैक् 9101
पटेल् 9100
प्पुकൾ 9100
मगु@@ 9100
षेर 9100
An@@ 9099
समन्वय 9099
ेय 9098
धनी 9097
बेछे 9097
रवी 9097
मिंग 9096
वॆय@@ 9095
गारि@@ 9094
डमी 9094
निआं 9094
विवकार@@ 9094
वऴङ्कुम् 9093
कानूੰनी 9092
मेने@@ 9092
ड़ियों 9091
दरे 9091
प्रजल 9088
मकൾ 9088
युऎस् 9088
आरी 9087
डिसे@@ 9087
टिभि 9086
प्रय़ोग 9086
बिश्बका@@ 9086
लागली 9086
ड़ार 9085
प्पोऴ@@ 9083
सिवॆ 9083
काँग्रे@@ 9082
छोड़@@ 9082
आऱ्ऱ@@ 9081
कॊंडरु 9080
दीप@@ 9079
वाय्प्पु@@ 9079
वाराणसी 9079
उलट 9078
डिंग् 9078
तेणु 9078
दुः 9075
कवन्नु 9072
गिय़ेछिलेन 9072
निർमि@@ 9072
वेर्@@ 9072
पोलीसाा् 9071
सैनिक@@ 9071
मुलो 9070
टाई 9069
लाऩ 9069
सैतं 9067
कात्तिरु@@ 9066
गाह 9066
ब्य़ब@@ 9065
मुख्यमैन 9065
विरूद्ध 9065
विस्@@ 9064
स्तू@@ 9062
पाया@@ 9060
प्रजलकु 9060
प्राइवेट 9060
ੰ 9060
ज़िंदगी 9059
विशेषज्ञ 9059
चट्ट 9058
ंध@@ 9056
अयिंदि 9056
इंरे@@ 9056
जुर्@@ 9056
निर्णय@@ 9056
पोरेट 9056
प्रबे@@ 9056
सहे@@ 9056
बाम 9055
सदस्@@ 9055
राजदूत 9054
दੱखणी 9053
निकुति 9052
अमलु 9050
लांच 9049
वॆळु@@ 9049
स्टाग्राम 9049
संघर्@@ 9048
तेंदुलकर 9047
चरियाऩ 9046
चुकु@@ 9046
नटवटिक्कैकळ् 9046
मैप्पु 9046
ंदले 9043
वहन 9043
तकु@@ 9042
निन्दा 9042
योटॆ 9041
इलाखॆ 9040
ङ्कै 9040
ठी@@ 9040
देखानो 9039
यिलेक्क् 9038
सौर@@ 9037
कराय@@ 9035
कुन्नत् 9035
आरक्षण 9034
एराळमाऩ 9034
कुटिय@@ 9034
दफ@@ 9033
वॆब्सै@@ 9033
गरी 9032
द्दरॆ 9032
मंडळ@@ 9032
संपन्न 9032
निम्म@@ 9031
शाळा@@ 9031
आलो 9030
मीरा 9029
पार्श्@@ 9028
मुकाब@@ 9027
इळैञ@@ 9026
पुरं 9026
काऴ्च@@ 9024
उँ@@ 9023
वकी@@ 9023
ੰसीपल 9023
पिੰ@@ 9022
ग्रीन 9021
जबरदस्त 9021
निकऴ्च्चियिल् 9020
मृत्यू@@ 9020
धाराळं 9019
तनकु 9018
श्रमं 9018
इच्चिन 9017
ऩिया 9016
येटि 9016
चॆल्लुम् 9014
बोळिवुड् 9014
बेल@@ 9013
प्लि@@ 9012
यान@@ 9012
तमां 9011
सिम 9010
अऱिमुक@@ 9009
नटिस्तुन्नारु 9009
वेडु@@ 9009
एट 9008
कॊलै@@ 9008
तीय़ 9008
गीतसंहिता 9007
म्पर् 9007
्लोनि 9007
इत्तिट्ट@@ 9005
गड 9005
विडि@@ 9005
कंपनियां 9003
बिൽ 9003
त्याच@@ 9002
एयरपोर्ट 9001
ऎवरू 9000
पिला@@ 9000
नोडु@@ 8999
पलुवुरु 8999
वेज 8998
अमेरिकन 8997
एऴु 8997
डार्@@ 8997
इय़े@@ 8996
अऩैवरुक्कुम् 8995
थन 8994
उत्तർ@@ 8993
क्याल 8993
जोड़ 8993
मजबूर 8992
रहस्य 8992
पक्कम् 8991
बिज्ञा@@ 8989
स्वाधीनं 8988
इव 8987
गळॊंदिगॆ 8986
संसद@@ 8986
चाम@@ 8985
ख्रिस्ती 8984
चलो 8984
परिस्थितियों 8984
पिरिवु 8983
प्रचरि@@ 8982
रस्तॆ 8982
वरग 8982
क्लब 8981
चलन 8981
लुकൾ 8981
जिल्@@ 8980
तरीआं 8977
त्तिद्दरु 8976
प्रतिभटनॆ 8975
वाळ्लु 8975
टीमिंडिया 8974
धारित 8974
नाथी 8974
पेट्रो@@ 8974
पोस्ऱ्ऱ@@ 8974
भाइरास 8974
स्थानीय़ 8974
ङ्गे 8973
नगर् 8973
निरीक्षि@@ 8973
साक्षा@@ 8973
टिभ 8972
२००९ 8972
माळ@@ 8970
उमीद 8969
मानों 8969
जयपुर 8968
शास्त्री 8968
इस्राय़े@@ 8967
नाज़िल 8967
वुल 8967
शुने 8967
चाय@@ 8966
चॆन्नै@@ 8966
इटम्पॆ@@ 8965
कंट्रोल 8965
चतुर्थ 8965
किंग्स 8964
विद्याभ्यास 8964
सतान 8964
ण्टाय 8961
नेंदुकु 8961
दुष्कर्म 8960
पहेली 8960
बितर्क 8960
आनी 8959
भजन 8959
भाष 8959
गांगुली 8958
रचना@@ 8958
ंस् 8956
कल्याण@@ 8956
क्यो 8954
छोट@@ 8954
सुविधाएं 8954
मिळत 8953
लंबित 8950
सुखी 8950
इंदु 8949
नीडिद 8949
अवऱ्ऱै 8947
इदॊंदु 8947
रियल् 8947
अतऱ्कु@@ 8944
देइ@@ 8944
बल् 8943
सद्य@@ 8943
खेले@@ 8942
स्थिती 8942
भाग्य 8941
वैत् 8941
2020@@ 8940
मिळाला 8940
लागुवुदु 8939
रेडियो 8938
चुੱकी 8937
आदम 8935
इय़@@ 8935
लायितु 8935
कनाडा 8934
च्पि 8934
प्रश्नङ्ङൾ 8933
ब्ले@@ 8933
मानिलम् 8932
्रि 8931
हुसैन 8930
अवरिൽ 8928
जते 8928
डलार 8928
धीआं 8928
व्हाय@@ 8927
ःपि@@ 8926
किऱिस्त@@ 8925
कवि 8924
निलो 8924
मस् 8924
य़ित 8924
करेइ 8923
बिधान 8923
रचिकर्कळ् 8922
शंकर 8922
हितों 8922
अंदरू 8921
इस्लाम 8921
सप्ताहे 8920
बोझ 8919
मैनदि 8919
च्चुवॆ@@ 8918
नीतियों 8917
मतदार@@ 8917
ऐक@@ 8916
जानिए 8916
ट्यु@@ 8914
प्रदर्शि@@ 8914
रयिल् 8914
चाहि@@ 8912
फ्ट् 8912
हल्ला 8912
वक्ता 8911
उपायों 8910
ऒतुक्कीटु 8910
मिळाले 8909
कन् 8908
कात्तिरि@@ 8908
गढ 8908
जाळ@@ 8908
वरदि 8906
शत्रु 8905
अणियिऩ् 8904
किया@@ 8902
पिन्निൽ 8901
बासीदेर 8901
1/@@ 8900
आएगी 8899
करां 8899
भालबा@@ 8899
मेय@@ 8899
उंडे@@ 8897
पीठ@@ 8896
स्वन्त@@ 8896
कॊन@@ 8895
मनप्रीत 8895
कोवालि 8894
स्टॉक 8893
१३@@ 8893
उरैया@@ 8892
चुने 8892
मद्देनजर 8892
लिर 8892
बान्@@ 8891
क्कप्पटविल्लै 8890
अनिल् 8889
ऑस्ट्रेलिया@@ 8889
क्कळा@@ 8889
क्कूटातु 8889
यिऩ@@ 8889
अंदरॆ 8888
हठाॎ 8888
एकीकृत 8887
ऩ्ऱ 8887
सकूलां 8887
काटा@@ 8886
ताः 8886
ൽनिन्नु 8885
एंड@@ 8884
चॆंदि@@ 8884
राजे 8884
परथी 8883
बिय़ेर 8883
मात्रा@@ 8883
मायिरि@@ 8883
इंडस्ट्री@@ 8882
च्चिय@@ 8882
प्पिक्कुन्नु 8882
याब@@ 8881
अजून 8880
ड्यु@@ 8880
उपग्रह 8878
करवानुं 8878
पॊलिचार् 8876
प्रमुੱख 8876
भोपाल 8876
जाहाज 8874
ताऴ@@ 8874
ऩैय@@ 8874
व्ह 8874
मस्जिद 8873
तीविर 8872
च्चुळ्ळ 8871
तामु 8871
सकाले 8871
अन्तक् 8870
बट्ट@@ 8869
२००८ 8869
उतार@@ 8868
च्चिट्टु@@ 8867
वरसाद 8867
परम्पर@@ 8866
मुळ@@ 8866
अमर 8865
समाजेर 8865
जेतू 8864
पराज@@ 8864
परिबे@@ 8864
कश्मीर@@ 8863
क्रु@@ 8863
सण्ण 8863
मेर@@ 8862
ऴुं 8862
तीर्पु 8861
विले 8861
इल् 8860
राय् 8860
कन्या@@ 8859
जहाज 8859
युरो@@ 8859
अबशेषे 8858
इजा@@ 8858
वतऩ् 8858
निन्नाण् 8857
म्याच् 8857
वटै@@ 8857
आधिकारि@@ 8855
ण्य 8853
समालोच@@ 8853
च्छि 8852
इचैयमै@@ 8851
सामन्यात 8850
स्यार 8850
अबाक 8849
कोणत्या 8849
प्लास्टिक 8847
चल् 8845
निआ@@ 8845
ह् 8845
ऎन्निकलु 8844
आमिओ 8843
एँ@@ 8843
त्तन्नॆ 8843
फिके@@ 8842
मन्ड@@ 8842
जानु@@ 8840
लक्ष्@@ 8839
वॆळ्लि@@ 8839
रੱद 8838
टूर@@ 8837
प्पटुत्ति@@ 8837
इतिहा@@ 8835
उतव@@ 8835
राज्यमां 8835
सुजुकि 8835
त्तुट@@ 8833
आंग@@ 8832
चीजें 8832
बृद्धिर 8831
अशा@@ 8829
वचू@@ 8829
ੱड 8829
चतवीत@@ 8828
प्रवृ@@ 8828
बोझा 8828
नटैमुऱै@@ 8827
पञ्चाय@@ 8827
मशीन 8827
मुम्पै 8827
आधारे 8826
रुटॆ 8825
तणा@@ 8821
संदेह 8821
स्पेशल 8821
2002 8820
अन्ताराष्ट्र 8819
काक 8818
प्री 8818
मार्ट@@ 8818
सच्चे 8818
ट्टाल् 8817
ऎन्नत् 8816
जानाते 8816
योजित 8816
आतनु 8815
नेतृत्बे 8815
पॉलि@@ 8815
संबंधि@@ 8815
संवेदनशील 8814
अंदिंचारु 8813
खिताब 8813
1,000 8812
नॆगळन्नु 8812
संसाधनों 8812
चपै@@ 8811
आदाग्यू 8810
्त् 8810
जशे 8809
तिते 8809
मनदीप 8809
हिद 8809
मऱुपट@@ 8808
ओय़ाल 8805
कलॆ@@ 8805
तॆगॆदुकॊळ्ळ@@ 8804
मनॆ 8803
मेम्पा@@ 8803
सॆल@@ 8802
चांग@@ 8801
चेसुकुन्नारु 8800
पड़ार 8800
सादा 8800
कोणताही 8799
वासते 8798
मिऩ्ऩ@@ 8797
मीडिय@@ 8795
वऴङ्कप्पटुम् 8795
नम्पि@@ 8794
आक 8793
कृषक 8793
पॊलिस् 8793
मൻ 8793
संचालक 8792
बुੱ@@ 8791
नौजवानां 8788
नियमसभा 8786
ीय@@ 8786
गुनो 8785
प्रतिनिधियों 8785
संघटि@@ 8785
ऒरि@@ 8783
चिकित्@@ 8782
मुखं 8782
पंजीकरण 8780
बिनां 8780
वरुक्कुम् 8780
ओळ@@ 8779
कैप्टन 8779
तण 8779
उपहार 8778
कम्मि@@ 8778
दिੰदा 8778
मुद्द@@ 8778
प्रदू@@ 8777
किर्@@ 8776
बादी@@ 8776
अरुण् 8775
इच्चारु 8775
थता 8774
परंपरा 8774
वुदक्कॆ 8774
वेब 8773
आल्@@ 8772
कऱि@@ 8772
तॆगॆ 8772
नाथन 8771
पऱयाൻ 8771
गरीबी 8770
आशङ्का 8769
भय़@@ 8768
मिੱ@@ 8768
लहान 8766
उन्नय़नेर 8765
मुतलमैच्चर् 8765
आराय्च्चि 8764
प्पतिल् 8763
ing@@ 8762
वरवेऱ्प@@ 8762
नऩ्कु 8760
आकलन 8759
तॆलुसु 8759
रीतियल्लि 8759
विजयൻ 8759
नाही@@ 8758
नेतृत्ब 8757
निर्द्@@ 8756
परुगुलु 8756
निकाला 8755
स़ान 8755
निष्ठ@@ 8753
बिड@@ 8753
कुनि 8752
जोलि@@ 8752
टॆस्ऱ्ऱ् 8752
हैक्कोट@@ 8752
म्कूट 8751
शीर्षक 8751
पॊतुमक्कळ् 8750
रथ@@ 8750
बताई 8749
प्रिंट 8747
वणी 8747
राजकी@@ 8746
नॆट् 8745
मीडिययिൽ 8745
2.0 8744
थाकि 8744
मऱ्ऱॊ@@ 8744
उत्कृष्ट 8743
गाड़ि@@ 8743
तमारे 8743
चुण@@ 8742
प्रदर्शनी 8742
प्रभावं 8742
बिसि 8742
वडील 8742
कंप्यूटर 8741
पर्यवे@@ 8740
राउ@@ 8740
सुमारे 8740
26@@ 8739
दीक 8739
लनु@@ 8739
स्टील 8738
तिनजन 8737
बिएनपिर 8737
करवाउण 8736
चिंता@@ 8736
फिकेशन 8736
अल्लि@@ 8735
कूट्टणि 8735
कालत्त् 8734
2001 8733
यिंदि 8733
इरलिल्ल 8732
बिद्याल@@ 8732
मनोनीत 8732
यारि@@ 8732
हादसा 8732
अतिथि@@ 8730
रूपाय@@ 8730
नाऩुम् 8729
गुरुति@@ 8728
कमरे 8727
सचिवालय 8727
आरोग्यं 8726
क्कूटुम् 8726
परवानगी 8726
इमे@@ 8725
एअर 8725
तत्कालीन 8724
दुർ@@ 8723
प्पतै 8723
प्पुकळै 8723
तੱ@@ 8722
दिओ 8721
सन्तो@@ 8721
स्बी@@ 8721
जेपी 8720
भर्त@@ 8720
शीघ्र@@ 8720
ang@@ 8719
पितर 8719
चमीपत्तिल् 8718
पोर्ट@@ 8718
ओफि@@ 8717
गतंलो 8717
जडेजा 8717
पाकिस्ताने 8716
संविधायकൻ 8715
५०० 8715
जनते@@ 8714
तॊलि@@ 8714
कुमारुडु 8713
जेने@@ 8713
ग़ा@@ 8712
देशदल्लि 8712
गन@@ 8711
तिट्टमि@@ 8711
फ़ा 8709
एथ@@ 8708
रेश@@ 8708
दർ@@ 8704
ंचगा 8703
काल् 8703
ङ्गि@@ 8703
निम्@@ 8703
भारतदेशं 8703
प्रेरण 8702
ऊऴ@@ 8701
शिया@@ 8701
बधा@@ 8700
यारु@@ 8700
सिरिज 8699
चेर्न्तु 8698
नील@@ 8698
बैरल 8698
ऎदुर्कॊ@@ 8697
नाटक@@ 8697
म्पिय@@ 8696
सुइ@@ 8696
छात्रछात्र@@ 8695
क्लास 8694
जबाबदारी 8692
ंकी 8688
इक@@ 8688
राव् 8688
रिचर्@@ 8688
ੱग 8688
इवरतु 8687
ers 8686
नेबे 8686
पारिब 8686
किरि 8685
बृहत्तम 8684
ब्रिट@@ 8684
आश्रयि@@ 8683
ब्लि@@ 8682
बांलार 8680
सर्जन 8676
तोपाटु 8675
प्रमो@@ 8675
शनं 8675
चेर्न्त@@ 8674
चेർन्न् 8674
लिखिआ 8674
सृजन 8674
दर्शन@@ 8673
खेतरां 8672
मॊरु 8672
लोड् 8672
सादर 8672
पॆळ्लि 8671
क्षमि@@ 8670
प्रवी@@ 8670
प्राधान्य@@ 8669
जथे@@ 8668
थार 8668
बर्षा 8667
रमां 8667
जोइए 8665
तेनाथी 8665
14,@@ 8664
कळै@@ 8664
निർवहि@@ 8664
पाशेर 8663
th 8662
चेवै@@ 8662
निऱुत्त@@ 8662
गिरी 8661
घी 8660
दिनेश 8660
पनुलु 8660
प्रबੰध 8659
मळ्यो 8659
डिजिटाल 8658
तलै 8658
पोस्ऱ्ऱ् 8658
लियन 8658
ർड् 8658
यादी@@ 8657
येशू@@ 8657
चॊऩ्ऩार् 8655
ऎंपिक 8654
एहापरे 8654
िलुळ्ळ@@ 8654
तोൽ@@ 8651
ंगे@@ 8650
ीर्कळा 8650
णिय 8649
दौड़ 8648
BI 8647
आनते 8647
फलंदा@@ 8647
बलिदान 8647
मिया 8647
सुखबीर 8647
पोस्टर 8646
राण् 8646
ऎतु 8645
टेयुं 8645
निय़ा@@ 8645
परेओ 8645
वुक 8645
सारख्या 8644
अर्जि 8643
कूटुत@@ 8643
प्रतिषेधं 8643
गेलेन 8642
नायिरुन्नु 8639
पॊरुट्कळ् 8639
सभेत 8639
चॆय्यप्पट्टु 8638
पालक 8637
निऱुव@@ 8636
प्रसा@@ 8636
वुमाण् 8636
सेवॆ@@ 8635
वाकऩ@@ 8633
इरुक्किऱार्कळ् 8632
समय़ 8632
ंतरण 8631
टास् 8631
कॊंत 8630
खूबसूरत 8630
दलि@@ 8630
्लै@@ 8630
परस्परं 8629
मेइ 8628
अस्त्र@@ 8627
प्पिच्च@@ 8627
वुंदि 8625
संभाव@@ 8624
कुटियरचुत् 8623
कूट्टिच्चेർत्तु 8623
क्कळॆ 8623
सर्बाधिक 8623
नतम 8622
गल्प@@ 8621
जीवൻ 8621
ऱायि 8621
जगदी@@ 8620
पटुत्त@@ 8620
ब्यतीत 8620
कार्मिक 8619
प्राणी@@ 8619
पोयायि 8618
वचति@@ 8618
संप्रदा@@ 8618
संवत्सरा@@ 8618
सिंगापुर 8618
आकर्ष@@ 8617
स्वातंत्र@@ 8617
अपराधी 8614
खाद्य@@ 8614
हिट् 8614
चुप 8611
चॊन्त 8611
फेस्बुक्क् 8611
अभाब 8610
Ne@@ 8609
अर्थनीति 8609
सङ्गीत 8609
32@@ 8608
आईएम@@ 8608
इੰडी@@ 8608
त्कार 8608
लद्दाख 8608
नेक 8607
बात@@ 8607
विच@@ 8607
स्वातंत्र्य 8607
[...]
