. 37521408
the 27999948
, 23134820
of 14844394
and 12807460
to 12170574
in 10944169
a 8418758
" 8369765
is 7849226
The 6476067
for 4511234
that 4087031
was 4017121
on 3655403
has 3475858
are 3350897
be 3218266
have 2961549
with 2879704
? 2832373
will 2812671
not 2669130
I 2628577
by 2592830
: 2576564
it 2572352
this 2512471
as 2310633
( 2233585
) 2231211
from 2148200
at 2109233
He 2093789
you 2032623
been 2003344
said 1921900
were 1863640
also 1811356
his 1797433
he 1720820
India 1671190
's 1596452
an 1547100
It 1451049
had 1353309
This 1330786
But 1276041
their 1248845
all 1208194
they 1197492
Minister 1168927
them 1121550
or 1085581
police 1077611
we 1072544
people 1070994
who 1027698
We 1019516
one 994616
can 991363
no 967504
A 909105
do 897658
In 891425
' 854140
him 840185
about 833508
which 826911
- 804763
There 800649
They 798009
there 779307
your 775855
time 771943
What 761631
government 747937
! 732224
two 727923
out 726276
BJP 723468
film 722280
our 719469
against 715965
its 697141
other 695244
what 690904
her 684393
up 680426
Indian 675203
case 672231
but 642193
would 638123
first 635026
Singh 632226
after 622463
over 619912
so 608588
Modi 601732
more 600388
should 588284
Congress 579455
into 573491
us 567482
my 566351
being 558297
Rs 547453
And 544528
Police 541296
God 531092
me 523495
Prime 520472
did 517029
state 514455
when 514239
any 512968
made 508335
very 493377
You 491274
new 481747
However 480666
then 478887
country 477295
under 473911
many 469987
such 468206
some 465814
these 455923
like 453813
day 447234
only 439786
those 434344
Delhi 431437
incident 427802
So 424830
work 422919
She 421822
taken 420337
than 417574
life 407086
How 406018
good 403966
if 401801
between 396063
Chief 392873
know 389606
am 388576
/ 388000
't 387308
1 385846
take 381766
world 376878
Jehovah 368896
... 362162
well 360337
No 359644
she 355050
Pakistan 352697
three 352411
during 350825
family 342869
Narendra 341918
come 340716
need 338606
get 337557
arrested 333764
here 331352
Government 330843
water 328353
through 325786
could 322555
accused 320379
hospital 317781
President 316840
make 316719
2 316521
too 316479
That 315444
injured 313930
way 311654
New 308919
how 308346
per 307548
present 305857
place 305520
-@@ 303640
man 301649
children 300198
before 298669
His 298305
State 296227
s 296212
while 292867
Gandhi 291699
number 291463
most 289992
may 288895
say 288302
Shri 286257
just 285707
help 284943
All 284414
% 283941
Its 283774
crore 281672
Why 277939
shall 277880
go 277696
media 273601
party 273287
does 273219
social 272990
even 272910
For 271985
minister 271869
took 271557
both 270517
As 270487
meeting 270347
given 268549
Jesus 267912
going 267145
district 265380
If 265124
registered 261108
Khan 259787
years 258843
others 257715
last 257093
see 256974
chief 256771
same 255916
court 255900
un@@ 255824
where 255621
Pradesh 254280
part 252880
yet 250639
Kumar 249819
down 248874
back 247400
dont 246971
death 246566
matter 245505
women 245392
among 243770
must 241885
Allah 241743
want 240672
home 239913
much 239033
later 238929
spot 238627
died 238139
& 236871
used 235266
National 233980
3 233577
killed 233295
On 232782
S@@ 230226
including 229602
lakh 229417
Union 228473
Court 227982
students 227256
movie 226716
B@@ 226362
love 226053
done 225724
each 224720
PM 223958
started 223857
10 223663
different 223285
When 221967
never 221677
right 221248
days 219626
son 219349
things 219026
body 218330
Mumbai 218274
D@@ 218013
won 217419
US 217208
year 217069
every 215746
action 215599
After 214785
[ 214451
team 214403
] 214276
important 212352
former 212063
president 211780
Bible 211750
because 211071
says 210975
name 209553
set 208929
came 207687
found 207264
5 207034
Ministry 205167
leader 203973
due 203604
K@@ 202651
Rahul 201541
away 201463
use 200562
situation 200321
held 199245
One 198909
Then 198701
still 198211
T@@ 197851
area 197795
another 197643
several 197506
called 197490
health 196853
power 196766
long 196190
soon 195219
4 194951
off 194795
i 193989
great 193356
far 192771
second 192601
got 191895
next 191329
members 191251
today 191094
sent 191087
Tamil 189965
give 189959
cases 189320
wife 189227
decision 188733
four 188552
Sabha 188476
city 188187
These 186197
occasion 185118
video 185074
few 184564
various 183823
A@@ 183174
issue 182706
P@@ 182596
house 181834
own 181733
now 181730
asked 181686
investigation 181535
become 181426
men 180915
leaders 180893
G@@ 180882
Kashmir 179899
fire 179142
seen 179090
Lord 178944
development 178912
further 177688
father 177089
role 176406
persons 176388
information 175441
k@@ 175091
Do 173702
o 173462
World 173064
Sharma 172528
again 172281
why 172113
order 171970
C@@ 171159
known 169409
re@@ 169254
around 169228
At 169132
L@@ 168841
Shah 168531
M@@ 168419
Many 168182
support 167556
countries 167353
already 167203
in@@ 166910
person 166402
able 166280
however 166155
attack 166015
went 165933
H@@ 165511
regard 165358
lot 163842
told 161275
across 160767
political 160715
To 160220
Is 160050
think 159938
complaint 159759
er 159719
6 159487
end 158858
farmers 158608
happened 158276
times 157894
high 157832
Maharashtra 157574
money 157541
People 157002
land 156942
Who 156853
public 156017
cannot 155921
woman 155699
elections 155545
together 155225
My 154626
15 154569
F@@ 154568
Two 153864
Some 153304
security 152723
along 152549
lead 151714
best 151587
Gods 151439
ers 151210
news 150111
system 148808
mother 148624
p@@ 147469
N@@ 147362
five 146921
since 146823
Bangladesh 146626
law 146599
states 146522
led 146497
Thats 146222
available 146093
d@@ 146038
added 145885
Kapoor 145205
20 144726
Punjab 144609
received 144202
problem 144190
look 143993
treatment 143742
China 143584
Bank 143427
officials 143107
upon 142621
12 142381
cent 142053
u 141577
areas 140855
reported 140662
Jehovahs 140501
true 140227
s@@ 139922
b@@ 139807
reached 139793
E@@ 139792
actor 139536
al 139440
Both 139400
special 138692
earth 138546
R@@ 138491
y@@ 137947
food 137789
8 137774
without 137590
doing 137338
put 137056
report 136860
age 136841
es 136617
change 136615
school 136472
nothing 136260
working 136042
ing 135957
filed 134847
always 134781
question 134742
parents 134638
South 134510
n@@ 134137
7 133812
West 133602
left 133446
directed 133430
informed 133401
following 133345
Our 133211
accident 132448
Gujarat 132391
released 132070
States 131903
Lok 131882
dead 131804
W@@ 131501
national 131458
large 131328
t@@ 131021
making 130262
J@@ 129790
Bollywood 129219
believe 129176
Kerala 129093
based 128519
m@@ 128415
road 128302
seats 128221
local 128218
Day 127529
didnt 127106
let 126790
anything 126662
currently 126222
total 126025
official 125799
Supreme 125443
an@@ 124297
became 123884
win 123732
find 123667
e@@ 123429
announced 123342
daughter 123172
films 122630
University 122536
visit 122492
Party 122377
event 122254
thing 122200
human 122150
better 121952
example 121743
keep 121606
village 121252
child 121237
Act 120828
ar 120785
lost 120660
g@@ 120433
face 120377
al@@ 120338
Central 119930
show 119928
O@@ 119866
include 119344
Secretary 119039
hand 119031
heart 118723
taking 117945
11 117840
education 117622
High 117592
Not 117236
election 117120
month 117010
50 116890
e 116881
result 116858
ar@@ 116774
t 116712
big 116596
needs 116573
reason 116358
An 116180
car 116149
might 116072
United 116052
Jammu 115925
saying 115736
problems 115711
series 115680
Karnataka 115462
Bengal 115455
immediately 115400
girl 115357
service 114866
truth 114726
9 114641
match 114591
play 114526
Ram 114440
process 113747
provide 113733
really 113591
major 113553
According 113218
cause 112908
With 112872
continue 112819
possible 112535
brought 112230
Home 112100
en@@ 111937
level 111918
shared 111757
ed 111192
don 110976
war 110935
happy 110831
Health 110748
S 110743
small 110556
ation 110537
live 110394
O 110079
General 110067
form 110052
played 110042
ate 110024
future 109961
100 109543
h@@ 109288
V@@ 108742
increase 108634
cricket 108533
Indias 108408
third 108375
coming 108077
control 107965
business 107622
lives 107367
workers 107212
something 107207
f@@ 107121
book 106977
station 106604
gave 106578
30 106471
issued 106431
Amit 106425
free 106288
statement 106217
l@@ 106212
Trump 105905
rushed 105280
launched 105176
services 105023
comes 104813
young 104770
company 104712
old 104555
period 104364
Nadu 104228
top 104180
faith 103986
international 103913
14 103889
bring 103690
i@@ 103603
am@@ 103473
Development 103463
post 103417
group 103260
Kohli 103241
3@@ 102884
issues 102725
means 102428
written 102339
night 102126
attended 102058
Department 101910
Test 101764
admitted 101681
connection 101657
entire 101577
project 101552
provided 101520
Australia 101437
history 101434
towards 101370
words 101314
er@@ 101230
v@@ 101195
Assembly 100881
story 100869
ones 100736
25 100650
CBI 100482
ever 100237
y 100234
list 100048
senior 99981
13 99842
less 99631
full 99560
runs 99390
nation 99128
side 98739
head 98696
viral 98607
himself 98276
decided 97690
condition 97656
w@@ 97606
temple 97568
sector 97534
friends 97426
U@@ 97286
recently 97237
peace 97045
District 96871
account 96852
market 96712
began 96649
mind 96509
study 96499
within 96144
husband 95805
murder 95743
During 95402
king 95379
member 95355
medical 95283
clear 95241
understand 95184
happen 95121
c@@ 95105
gone 94932
MP 94921
r@@ 94653
4@@ 94645
feel 94585
Former 94438
behind 94419
International 94248
Sri 94184
o@@ 93985
getting 93730
often 93593
field 93250
Dont 93245
private 93191
price 92937
having 92919
oil 92903
u@@ 92902
I@@ 92732
though 92627
phone 92508
works 92452
Christian 92310
start 92231
open 92190
cost 91890
meet 91652
wrong 91617
details 91569
wrote 91564
office 91540
parties 91471
prices 91458
16 91416
fear 91407
Paul 91373
Rajasthan 91360
final 91356
j@@ 91351
music 91283
expected 91006
earlier 90925
read 90834
2020 90669
million 90617
likely 90307
parts 90270
ating 90189
fight 90150
general 90012
Uttar 89977
efforts 89943
st@@ 89850
questions 89747
5@@ 89712
answer 89670
a@@ 89557
Hospital 89467
Hindi 89418
course 89316
as@@ 89285
Centre 89215
ts 89095
care 88973
places 88841
driver 88839
building 88827
little 88812
ated 88670
Army 88557
region 88473
spirit 88426
view 88410
stars 88246
ad@@ 87964
director 87916
Israel 87877
th@@ 87833
close 87779
economic 87761
18 87515
married 87471
k 87393
m 87330
Twitter 87107
serious 87037
near 87017
captain 86893
strong 86850
Justice 86846
created 86802
week 86702
6@@ 86542
Affairs 86513
Cabinet 86467
produced 86245
Commission 86187
past 86186
word 86169
politics 86162
language 86153
main 86077
unto 86068
whom 86026
till 85835
six 85809
dis@@ 85700
CM 85599
investigating 85204
rate 84841
17 84726
Three 84724
Let 84722
hope 84551
hit 84293
C 83959
release 83829
programme 83817
point 83806
ag@@ 83770
Ali 83741
24 83663
using 83485
England 83409
Im 83052
Of 82970
brother 82968
anyone 82890
Kingdom 82831
lodged 82805
Bihar 82800
remain 82774
months 82766
growth 82755
living 82692
Director 82544
date 82490
secretary 82481
increased 82413
Christians 82380
More 82168
en 82131
whole 82026
interest 82008
huge 81997
Witnesses 81835
K 81808
everyone 81591
needed 81589
nor 81419
blood 81391
Most 81383
e-@@ 81352
Where 81224
College 81163
call 81159
b 81151
ha@@ 80972
job 80933
Your 80893
light 80870
Yadav 80756
suicide 80727
knowledge 80671
districts 80571
hard 80459
Are 80420
industry 80081
Virat 80021
ab@@ 79822
once 79821
ways 79760
themselves 79721
ch@@ 79647
everything 79565
Hyderabad 79506
financial 79500
poor 79375
Sena 79338
declared 79325
expressed 79201
largest 79149
on@@ 79137
Later 78877
North 78864
run 78748
tell 78727
z@@ 78709
thought 78487
Her 78388
candidates 78388
kind 78159
results 78057
7@@ 78034
19 78024
2@@ 78019
difficult 77867
common 77822
early 77754
Haryana 77738
success 77730
return 77708
experience 77633
society 77546
game 77531
talk 77515
40 77360
di@@ 77355
global 77259
ya 77231
it@@ 77219
Finance 77214
Chennai 77134
related 77097
Air 76995
least 76976
move 76967
Parliament 76947
response 76938
While 76937
easy 76838
officers 76748
fact 76584
at@@ 76542
crores 76384
Committee 76243
recovered 76170
de@@ 76123
stated 75979
2019 75964
scheme 75816
benefit 75747
Meanwhile 75686
features 75489
ye 75468
Here 75365
protest 75193
changed 75173
or@@ 75128
families 75082
responsibility 75052
until 75026
youth 74997
rain 74979
Mr 74764
playing 74592
raised 74576
Telugu 74486
Y@@ 74373
trying 74284
forces 74257
Yes 74154
activities 74151
relationship 74143
Their 74137
bus 74124
English 74115
basis 74020
respect 73915
named 73859
Z@@ 73776
Medical 73765
share 73761
ask 73697
front 73681
test 73623
ensure 73360
production 73309
allowed 73263
ti@@ 73208
COVID-19 73207
data 73180
ani 73166
air 73144
line 73104
David 73081
eyes 73010
R 73008
Several 73000
worked 72939
involved 72871
brothers 72753
leave 72745
key 72697
cant 72550
hands 72460
according 72432
g 72429
P 72380
Theres 72369
'@@ 72305
Cup 72165
heavy 72078
met 72055
spread 72003
gold 71962
personal 71911
bad 71777
Christ 71649
affected 71628
committee 71591
2018 71468
percent 71415
reports 71348
conducted 71345
energy 71337
economy 71308
single 71294
Andhra 71259
required 71210
injuries 71189
ting 71183
bank 71178
century 71023
technology 71020
roles 71014
stop 70916
claimed 70876
pay 70872
21 70816
18@@ 70747
central 70720
spiritual 70645
Re@@ 70515
Council 70456
By 70425
demanded 70349
n 70238
passed 70230
teams 70205
speak 70161
22 70155
ready 70151
Africa 70123
underway 70112
el@@ 70063
projects 70026
population 69979
Those 69975
School 69952
community 69909
actress 69854
real 69832
alleged 69732
B 69534
marriage 69430
vehicles 69390
turn 69359
8@@ 69330
loss 69117
identified 69107
ans 69005
John 68990
reasons 68657
saw 68557
Dr 68520
ana 68446
positive 68403
.@@ 68402
Whats 68260
position 68212
candidate 68108
Vijay 68084
schools 68083
Shiv 68073
patients 68050
training 67994
Also 67953
born 67938
Everyone 67841
capital 67798
officer 67776
An@@ 67771
religious 67717
heard 67715
amount 67556
sons 67402
personnel 67385
caused 67279
doctors 67275
joined 67267
followed 67241
red 67153
train 67068
Now 67029
plan 66963
disease 66949
learn 66791
Rohit 66787
ant 66747
necessary 66731
violence 66705
act 66684
above 66575
Education 66536
appointed 66445
Board 66442
Will 66370
d 66335
either 66316
town 66283
address 66274
doesnt 66250
policy 66250
ur 66076
From 65976
completed 65974
wanted 65970
In@@ 65965
ates 65956
research 65797
D 65718
Salman 65580
foreign 65529
Madhya 65526
houses 65508
popular 65385
forward 65378
participated 65369
ak@@ 65264
seven 65254
looking 65207
opportunity 65181
probe 65168
located 65167
Reddy 65154
morning 65128
shot 64929
message 64915
paid 64865
East 64733
regarding 64713
assembly 64676
steps 64631
force 64587
quite 64560
progress 64507
cooperation 64382
Even 64185
religion 64153
stand 64071
deal 64026
current 64007
ministry 63967
else 63923
ac@@ 63825
hold 63712
certain 63653
M 63611
included 63549
passengers 63503
Facebook 63494
rest 63483
higher 63401
letter 63326
online 63096
ro@@ 63039
ly 63035
ap@@ 62992
ri@@ 62836
follow 62832
quality 62831
9@@ 62825
es@@ 62744
Following 62741
is@@ 62702
May 62594
Al@@ 62527
authorities 62431
Hindu 62410
coronavirus 62332
tax 62257
rights 62251
km 62241
'm 62181
Defence 62181
congregation 62143
try 62009
alone 61878
similar 61761
points 61737
bodies 61729
knows 61565
MLA 61312
wickets 61310
makes 61305
increasing 61295
Muslim 61232
trade 61159
're 61017
Women 60920
picture 60915
whether 60840
Telangana 60760
revealed 60611
h 60570
construction 60444
stay 60353
Since 60325
seat 60247
etc 60233
p 60157
outside 60148
especially 60013
kept 59943
ah 59921
function 59896
turned 59852
active 59788
late 59770
rise 59767
le@@ 59754
Kolkata 59679
formed 59542
cities 59507
charge 59502
Institute 59417
l 59408
Best 59385
Other 59324
camera 59313
fine 59269
opposition 59229
fans 59208
leading 59192
military 59190
First 59161
search 59159
2017 59147
Students 59082
considered 58917
ad 58917
eat 58910
purpose 58869
committed 58766
worship 58748
takes 58739
im@@ 58696
be@@ 58686
page 58635
ent 58577
citizens 58575
seized 58572
vehicle 58393
moved 58369
changes 58363
indeed 58187
measures 58147
L 57917
department 57915
record 57889
demand 57875
failed 57852
Deputy 57780
companies 57773
sh@@ 57744
Ministers 57704
highest 57696
reach 57645
200 57640
developed 57570
enough 57524
couple 57498
T 57340
Such 57324
includes 57094
value 57071
American 57046
Bharat 56962
pressure 56956
Rs.@@ 56875
prime 56649
spoke 56641
ahead 56622
denied 56563
ra 56515
li@@ 56482
als 56305
Read 56296
birth 56247
built 56171
Can 56162
attention 56148
23 56100
giving 55970
recent 55945
published 55926
successful 55888
500 55879
pur 55781
half 55739
60 55666
season 55662
Agriculture 55649
$ 55624
il@@ 55606
tried 55594
Only 55501
traffic 55470
British 55455
ground 55416
class 55410
Hence 55398
sure 55317
didn 55302
shifted 55295
continued 55274
roads 55225
governments 55212
Priyanka 55208
daily 55082
thou 54985
income 54971
em@@ 54890
polls 54889
operation 54851
administration 54839
serve 54815
non-@@ 54814
term 54783
Sha@@ 54753
Chinese 54619
Ar@@ 54596
create 54586
House 54579
arrest 54564
movement 54558
ul@@ 54531
rejected 54465
Special 54426
deceased 54395
E 54381
Another 54356
wants 54347
ine 54314
gets 54286
ur@@ 54165
evidence 54126
TV 54039
Public 54028
Nobody 53976
rich 53965
friend 53935
ai 53920
Indians 53888
fully 53856
culture 53844
ministers 53720
management 53606
Sanjay 53552
offer 53530
IPL 53530
mobile 53517
therefore 53497
Mar@@ 53441
groups 53423
freedom 53398
Am@@ 53391
low 53372
ago 53326
effect 53293
Earlier 53280
MLAs 53246
Sh@@ 53214
simple 53189
Patel 53187
plays 53172
players 53144
returned 53123
Besides 53103
shooting 52991
complete 52954
river 52950
Ch@@ 52889
conference 52863
facilities 52770
award 52737
products 52720
student 52666
con@@ 52611
Yet 52596
short 52568
song 52533
Par@@ 52489
um 52486
rule 52449
over@@ 52418
Rao 52325
teachers 52318
employees 52271
March 52252
handed 52240
felt 52151
strength 52132
Asia 52079
ic@@ 52040
sp@@ 52037
tweeted 52030
pictures 51981
ol@@ 51964
Him 51962
carried 51838
Have 51723
isnt 51696
campaign 51683
remember 51658
mean 51620
step 51613
discussed 51544
die 51532
inside 51440
Muslims 51403
City 51382
ha 51272
supply 51237
Governor 51229
28 51178
April 51159
Rajya 51082
Therefore 51079
nations 51055
approved 51033
space 51004
sources 50988
Man@@ 50885
Commissioner 50871
upcoming 50835
Security 50769
Raj 50765
Con@@ 50760
Lanka 50732
natural 50680
Har@@ 50647
Be 50617
Prasad 50554
ji 50528
hear 50506
books 50502
victory 50424
concerned 50405
happening 50378
board 50375
goes 50370
Dr. 50318
Technology 50123
addition 50067
press 50062
served 50020
rains 50007
stopped 49948
established 49918
star 49855
Russia 49773
Thus 49764
justice 49721
below 49712
diesel 49676
constituency 49492
room 49491
suffering 49489
consider 49456
26 49456
languages 49407
opportunities 49397
deep 49396
capacity 49384
opened 49378
rules 49375
benefits 49364
application 49358
Vice 49255
Water 49254
worth 49229
rural 49220
trust 49215
border 49194
performance 49032
ing@@ 49030
thats 49008
banks 49003
investment 48952
relations 48898
closed 48898
fall 48879
si@@ 48865
Donald 48815
whose 48804
ic 48803
le 48684
critical 48682
z 48678
confirmed 48674
ala 48673
custody 48671
infrastructure 48618
N 48615
el 48563
Pakistani 48517
Four 48514
King 48488
fast 48445
hi@@ 48425
helped 48403
offered 48399
gives 48386
se@@ 48379
army 48373
receive 48338
Cricket 48284
Un@@ 48277
actually 48264
site 48213
Award 48204
av@@ 48199
Japan 48186
crime 48186
2016 48177
moment 48173
he@@ 48149
institutions 48147
ally 48135
ia 48074
Election 48027
sea 48026
suffered 48011
majority 47982
June 47966
examination 47945
Today 47914
hearing 47889
file 47866
doctor 47866
conditions 47863
Bill 47836
tions 47835
elected 47812
accepted 47806
accept 47704
alliance 47701
black 47627
allow 47619
Add 47605
ex@@ 47603
Opposition 47557
helps 47522
facing 47514
someone 47471
est 47467
Zealand 47343
yourself 47248
thus 47243
Moses 47228
itself 47213
sister 47207
college 47205
Ram@@ 47170
soldiers 47170
launch 47168
cultural 47159
_ 47137
Research 47135
Road 47134
Because 47101
Iran 47067
terms 47048
ted 46995
names 46988
om@@ 46986
direction 46942
improve 46930
risk 46923
Instagram 46916
holy 46889
os@@ 46884
prepared 46880
NCP 46857
completely 46817
recorded 46810
ings 46805
pl@@ 46803
c 46786
Ad@@ 46779
fell 46758
legal 46751
Railways 46718
safety 46677
Dhoni 46655
et 46644
ous 46644
art 46603
responsible 46548
talks 46544
evening 46509
th 46497
ul 46472
save 46354
presented 46301
mentioned 46293
sides 46273
seriously 46205
Don 46204
refused 46170
jail 46157
environment 46141
x 46129
add 46117
healthy 46114
remained 46075
session 46058
Corporation 46044
eight 46009
shows 46005
Sonia 45987
Group 45942
Force 45817
ka 45783
Railway 45781
charges 45770
hi 45744
Sam@@ 45742
Over 45731
ma 45712
article 45704
cut 45700
section 45664
-- 45643
attend 45551
source 45547
se 45512
Science 45505
petrol 45476
evil 45463
Bengaluru 45421
deaths 45362
inquiry 45336
ordered 45326
27 45297
enter 45290
speaking 45272
arrived 45268
Raj@@ 45261
railway 45192
allegations 45185
us@@ 45165
beautiful 45134
female 45102
girls 45097
matches 45085
safe 45078
Chairman 45071
biggest 45037
GST 44980
Under 44959
Constitution 44954
avoid 44946
Every 44931
ceremony 44918
except 44907
Word 44902
de 44895
impact 44891
providing 44882
wasnt 44856
Kar@@ 44855
petition 44824
growing 44822
Farmers 44799
boy 44776
organised 44769
engine 44746
te@@ 44741
scored 44722
Take 44688
speech 44676
thy 44667
up@@ 44614
staff 44600
pain 44586
looked 44583
visited 44574
July 44573
knew 44567
V 44553
Father 44547
join 44536
continues 44536
card 44523
2014 44501
modern 44456
Senior 44357
focus 44356
kar 44315
ite 44279
ons 44265
Kejriwal 44236
almost 44216
remains 44212
70 44212
career 44176
League 44158
Assam 44144
meetings 44129
Mo@@ 44092
G 44084
clean 44005
happens 43973
events 43970
ations 43936
ay@@ 43868
Peter 43856
employment 43801
previous 43782
laws 43752
travel 43747
ak 43738
democracy 43676
assistance 43667
vote 43657
and@@ 43638
September 43625
operations 43613
stage 43574
door 43574
October 43563
neither 43508
December 43498
surely 43445
thinking 43435
Family 43429
tr@@ 43388
certainly 43352
Rajnath 43316
ability 43312
ir@@ 43291
80 43287
France 43217
additional 43204
1.@@ 43175
posted 43096
model 43089
bail 43021
sought 42979
discussion 42977
Actor 42970
hours 42961
pe@@ 42928
contest 42856
matters 42818
Law 42799
idea 42793
fourth 42787
um@@ 42787
Anil 42744
signed 42742
ra@@ 42695
rape 42647
Bachchan 42548
Afghanistan 42458
ties 42419
ks 42393
servants 42375
leadership 42300
website 42273
2015 42185
challenge 42162
victim 42126
cast 42118
airport 42078
thousand 42052
op@@ 42019
De@@ 42011
November 41971
importance 41881
Just 41878
damaged 41873
conduct 41828
London 41790
storage 41753
status 41735
presence 41643
watch 41612
announcement 41602
35 41571
Or 41546
Bar@@ 41541
29 41504
About 41494
Office 41440
January 41431
sc@@ 41417
31 41363
sense 41354
nature 41350
throughout 41329
ter 41276
America 41260
significant 41242
festival 41207
'll 41153
et@@ 41104
extremely 41090
physical 41034
science 40978
crisis 40978
apostle 40959
numbers 40956
Apart 40955
LORD 40955
loved 40953
Ra@@ 40951
dies 40941
Film 40922
gas 40899
celebrated 40871
effort 40869
detained 40857
urged 40816
hospitals 40778
talking 40760
rally 40756
relief 40720
protests 40681
confidence 40657
believed 40649
centre 40648
terrorists 40628
fled 40615
ancient 40611
greater 40607
od@@ 40585
photo 40579
actors 40459
ara 40447
Goa 40396
access 40379
Sar@@ 40378
truck 40256
sign 40220
lo@@ 40218
running 40216
Foreign 40195
August 40177
Association 40171
sub@@ 40106
end@@ 40100
punishment 40045
attacks 40019
har@@ 40017
lower 39992
notice 39971
agreed 39962
seeking 39957
thee 39946
apply 39926
bench 39917
SP 39901
na 39897
seek 39868
id@@ 39849
Cha@@ 39810
virus 39808
Odisha 39796
none 39783
ten 39782
villages 39780
CCTV 39675
occurred 39637
s. 39618
challenges 39599
via 39568
300 39509
treated 39487
essential 39457
Information 39415
effective 39414
receiving 39397
speed 39380
Nath 39376
false 39364
voice 39347
joy 39326
build 39309
happiness 39265
decisions 39242
daughters 39165
esh 39124
ec@@ 39123
claim 39112
south 39079
sisters 39075
War 39073
plans 39064
sin 39030
milk 39010
beginning 39004
white 38998
green 38969
wedding 38929
chairman 38928
chaired 38908
X@@ 38877
Children 38858
begin 38855
humans 38851
Life 38845
Arjun 38832
acting 38829
agriculture 38803
Good 38749
maintain 38746
budget 38737
lies 38729
han 38694
ended 38689
Islam 38679
me@@ 38669
faithful 38634
north 38624
Article 38612
weight 38567
reply 38545
innings 38506
trains 38491
path 38475
Among 38437
type 38404
degree 38397
par@@ 38392
begun 38370
pandemic 38347
sports 38346
difference 38323
aware 38266
lockdown 38261
Krishna 38259
corruption 38257
heavens 38251
mis@@ 38237
nearby 38210
Civil 38178
terrorism 38166
skin 38166
normal 38151
ne@@ 38118
terror 38115
St@@ 38112
soul 38110
provides 38097
cash 38096
wish 38064
Mr. 38055
feet 38031
Ma@@ 38015
prevent 38005
exercise 37979
prayer 37905
victims 37894
sleep 37888
destroyed 37862
ed@@ 37844
defence 37827
pass 37785
mark 37737
ling 37728
undergoing 37727
material 37711
joint 37705
solution 37692
kill 37683
no@@ 37654
journey 37641
protect 37629
kids 37621
enjoy 37607
Ahmed 37584
Satan 37582
note 37575
BCCI 37556
subject 37524
wise 37494
Republic 37460
implemented 37460
votes 37451
Indeed 37433
placed 37403
ens 37371
concern 37327
phase 37316
approval 37288
manner 37286
movies 37286
deployed 37268
individual 37266
ang@@ 37253
U 37248
French 37210
os 37196
unit 37192
Did 37182
accounts 37170
a-@@ 37149
forth 37121
've 37121
Naidu 37112
particular 37050
Malayalam 37050
Nothing 37042
ors 37040
suspended 37027
Service 37014
ud@@ 37004
See 36930
Welfare 36911
Say 36908
send 36900
bill 36886
judge 36883
F 36860
hearts 36854
ve 36852
average 36823
Akshay 36773
Su@@ 36768
la 36694
32 36653
Q@@ 36653
regular 36645
ist 36609
strengthen 36570
duty 36568
primary 36559
produce 36539
review 36490
Tata 36488
Arvind 36479
billion 36476
goal 36469
approach 36465
users 36464
Germany 36449
Food 36446
York 36418
Nepal 36397
Bal@@ 36388
write 36378
x@@ 36360
residents 36357
ut@@ 36321
jobs 36308
shown 36308
rescue 36306
Janata 36295
domestic 36264
player 36235
Deepika 36219
salt 36215
battle 36202
wont 36200
carry 36151
la@@ 36134
competition 36108
develop 36108
Services 36078
Banerjee 36053
UP 36049
har 36046
stone 36025
cancer 36009
signs 35961
Th@@ 35953
reality 35937
Dhaka 35932
tournament 35922
granted 35915
Book 35895
Ramesh 35890
co@@ 35870
range 35848
pro@@ 35829
r 35826
1@@ 35784
severe 35784
image 35776
90 35747
verdict 35740
proper 35727
fellow 35699
waiting 35697
doubt 35691
levels 35688
strike 35684
becomes 35660
anti-@@ 35636
era 35601
ch 35586
Man 35581
extended 35567
Social 35564
Scheme 35557
whatever 35548
broke 35540
bit 35540
generation 35477
qu@@ 35469
options 35467
longer 35465
ent@@ 35456
fighting 35453
Each 35425
desire 35422
15@@ 35411
toward 35379
request 35370
rainfall 35367
0@@ 35351
Imran 35317
incidents 35316
Power 35305
Thiruvananthapuram 35305
headed 35293
ness 35282
plea 35255
Although 35242
equal 35229
ism 35212
acted 35193
per@@ 35183
testing 35171
Five 35170
selected 35166
submitted 35157
reduce 35151
learning 35146
invited 35145
songs 35139
sexual 35130
Di@@ 35116
coach 35107
opening 35098
FIR 35027
ban 35020
supported 35008
Fire 34972
rather 34968
proud 34958
Chopra 34956
colour 34950
implementation 34948
introduced 34918
character 34893
rates 34891
spent 34889
winning 34874
Well 34840
Mission 34835
17@@ 34795
Muhammad 34790
Kal@@ 34778
Arun 34769
stations 34745
Europe 34708
sitting 34701
civil 34700
debut 34688
vision 34662
resources 34652
Further 34645
potential 34635
10@@ 34621
European 34618
Kannada 34615
heaven 34595
Please 34588
lived 34584
programmes 34544
ry 34538
property 34529
initiated 34519
Ex@@ 34467
feature 34466
funds 34415
oc@@ 34411
Sa@@ 34360
missing 34336
teacher 34328
75 34319
listen 34317
direct 34309
drink 34304
for@@ 34249
temperature 34246
Heavy 34226
Jerusalem 34211
witness 34192
ator 34188
Pawar 34170
ball 34124
ODI 34113
ence 34102
Prakash 34092
faced 34081
Asian 34064
ish 34031
reading 34015
2.@@ 33990
couldnt 33982
sugar 33979
20@@ 33940
to@@ 33939
caught 33937
seems 33935
dream 33917
ment 33907
schemes 33900
carrying 33896
February 33895
En@@ 33892
damage 33889
referred 33869
authority 33849
practice 33846
dispute 33820
thousands 33818
promote 33808
appeared 33765
aircraft 33743
proposal 33730
Be@@ 33722
Matthew 33696
33 33677
games 33669
Team 33660
separate 33649
studies 33638
ou@@ 33630
individuals 33618
calls 33612
trial 33586
pre@@ 33568
res@@ 33545
tree 33540
target 33529
out@@ 33528
rec@@ 33524
program 33509
attacked 33500
Make 33467
ev@@ 33443
al-@@ 33440
proposed 33280
maximum 33278
ICC 33276
mon@@ 33266
plant 33256
ering 33231
immediate 33224
network 33190
hurt 33188
ari 33144
Se@@ 33126
contact 33110
bi@@ 33108
serving 33088
baby 33084
becoming 33078
keeping 33077
nearly 33062
Saudi 33058
afraid 33042
writing 33036
ance 33025
wait 33020
powerful 33004
worlds 32991
mankind 32977
firm 32963
myself 32948
Officer 32922
awarded 32920
break 32899
Youth 32894
ri 32888
spoken 32887
killing 32865
Anushka 32857
su@@ 32843
Y 32827
hair 32821
Chhattisgarh 32788
ir 32786
animals 32785
cover 32784
ruling 32769
compared 32746
removed 32739
uk@@ 32704
understanding 32702
systems 32698
rising 32616
entered 32607
actions 32605
forget 32596
Speaking 32593
bilateral 32584
appeal 32574
particularly 32572
units 32562
45 32558
Bangalore 32550
UK 32539
accompanied 32525
man@@ 32523
credit 32505
basic 32505
Suresh 32502
protection 32501
sha@@ 32494
homes 32464
Everything 32458
walk 32448
ran 32447
table 32442
t-@@ 32408
creation 32402
ies 32401
standing 32384
Yahweh 32381
famous 32364
Time 32364
associated 32346
UN 32334
Does 32322
loving 32272
Thackeray 32253
believers 32248
specific 32232
noted 32226
disciples 32214
audience 32210
cricketer 32208
initiative 32189
f 32185
Jharkhand 32125
ds 32124
promise 32098
discuss 32048
box 32044
teaching 32025
usually 32023
Ashok 32017
decide 32015
instead 31981
achieve 31958
war@@ 31947
post-mortem 31941
San@@ 31930
br@@ 31922
Ravi 31921
scene 31916
Ab@@ 31891
reportedly 31883
Amitabh 31871
ourselves 31828
Open 31814
righteous 31783
trees 31781
Love 31770
self 31748
transport 31717
Ahmedabad 31715
loan 31713
Rukh 31700
existing 31696
Additional 31690
urban 31679
latest 31678
terrorist 31674
interview 31669
James 31664
lose 31648
ents 31634
Sunil 31628
design 31609
lack 31605
activity 31601
Gupta 31591
agreement 31588
Keep 31579
silver 31550
Bi@@ 31546
ina 31533
respectively 31516
Russian 31514
spokesperson 31512
ys 31508
Management 31494
sometimes 31482
photos 31478
title 31455
writer 31451
ai@@ 31427
offers 31389
agency 31369
grow 31366
taught 31310
massive 31307
wisdom 31293
app 31293
Mohammed 31285
ful 31275
Mohan 31232
beat 31224
digital 31206
les 31174
composed 31170
Sachin 31153
allegedly 31141
described 31129
drinking 31122
preaching 31119
causes 31095
aid 31069
ant@@ 31066
showed 31027
forms 31008
ath@@ 31001
markets 30986
ren@@ 30977
unique 30961
examples 30948
bl@@ 30945
television 30930
goods 30915
round 30913
buy 30892
Psalm 30880
check 30873
aw@@ 30854
Economic 30849
estimated 30844
remaining 30843
laid 30821
tic 30790
holds 30786
Korea 30781
Mal@@ 30766
powder 30744
dedicated 30743
Mohammad 30743
3.@@ 30735
directly 30724
H 30710
External 30700
anniversary 30698
finally 30675
lakhs 30665
2013 30660
Yogi 30650
hath 30648
Photo 30646
Ajay 30644
Le@@ 30629
er-@@ 30620
facility 30612
besides 30612
ity 30579
fl@@ 30566
arrangements 30552
Mamata 30542
J 30529
MoU 30515
university 30492
IT 30490
setting 30484
learned 30447
y-@@ 30429
id 30407
beyond 30399
all@@ 30395
abroad 30383
Ive 30371
orders 30361
welfare 30325
pray 30306
debate 30289
divided 30288
wide 30282
Lets 30280
Abraham 30270
claims 30249
cold 30232
ang 30226
multiple 30214
platform 30205
electricity 30196
weeks 30187
4.@@ 30186
Gur@@ 30169
ongoing 30165
SC 30160
19@@ 30157
awards 30151
Islamic 30127
attempt 30113
Nagar 30097
doesn 30091
bear 30081
0.@@ 30080
Fadnavis 30070
Rajiv 30059
ari@@ 30033
ep@@ 30027
worry 29991
managed 29957
anger 29953
Sinha 29953
sharing 29929
Google 29925
diseases 29925
ig@@ 29918
comments 29910
Manmohan 29894
ked 29893
RBI 29887
S. 29857
Son 29850
Section 29849
please 29844
River 29833
meaning 29832
mar@@ 29819
firing 29755
forest 29737
locals 29732
moving 29706
sustained 29704
News 29698
gr@@ 29687
comment 29686
permission 29682
ship 29666
Pune 29666
offering 29644
ise 29630
toll 29590
bed 29583
contribution 29578
II 29566
Ltd 29511
documents 29499
mental 29480
bo@@ 29431
addressed 29407
agree 29385
organized 29349
marks 29347
Temple 29337
negative 29327
species 29325
Which 29318
af@@ 29302
relatives 29302
simply 29272
organization 29270
Dis@@ 29268
bat 29264
birthday 29248
stands 29236
Amendment 29208
score 29203
base 29153
promised 29136
ty 29111
performed 29106
@ 29102
mercy 29081
ath 29079
honour 29072
choose 29061
Sports 29053
limited 29050
lie 29035
mo@@ 29035
chance 29032
ves 29028
injury 28994
Super 28990
Shankar 28968
# 28960
Due 28954
6.@@ 28951
Control 28927
il 28881
minor 28880
version 28869
ED 28861
criminal 28840
protesters 28825
Internet 28819
display 28819
gain 28819
stood 28799
do@@ 28777
weather 28776
tweet 28733
begins 28732
Kovind 28708
5.@@ 28699
quickly 28688
guidance 28687
proved 28681
demands 28679
kg 28665
sing 28661
ites 28653
opposed 28643
looks 28643
views 28610
command 28604
Com@@ 28599
e. 28577
choice 28559
despite 28547
investigations 28543
holding 28534
respond 28525
+ 28507
16@@ 28460
east 28441
types 28440
Before 28409
gh@@ 28408
internal 28402
wicket 28402
circumstances 28364
counsel 28359
developing 28324
Mahatma 28311
v 28306
sold 28300
German 28285
guilty 28262
prove 28260
inaugurated 28231
ants 28205
res 28199
Devendra 28177
7.@@ 28159
flight 28158
posts 28156
independent 28140
150 28131
Sub@@ 28120
screen 28113
ins 28097
appropriate 28066
option 28060
Kamal 28026
Joseph 28024
Indies 28014
Transport 28011
370 28011
Rahman 28009
2012 27973
feeling 27972
ary 27971
participate 27967
values 27965
Bengali 27958
videos 27944
tests 27944
symptoms 27941
ind@@ 27939
internet 27936
patient 27935
planning 27922
2011 27908
text 27890
Like 27881
Bharatiya 27878
34 27835
size 27834
co-@@ 27834
appear 27825
advice 27825
Car@@ 27825
assured 27821
annual 27800
ying 27787
400 27785
controversy 27777
Authority 27755
payment 27753
alert 27752
Limited 27733
defeat 27728
hundred 27725
CO@@ 27718
partnership 27717
vegetables 27716
ars 27715
organisation 27688
ical 27684
Station 27681
K. 27676
ub@@ 27645
flow 27643
0 27625
cinema 27614
Go 27595
reduced 27595
MPs 27577
perfect 27566
influence 27554
36 27551
wishes 27535
AAP 27530
ni@@ 27526
Sal@@ 27524
Na@@ 27484
El@@ 27474
Human 27465
threat 27456
Principal 27441
truly 27423
discussions 27418
cr@@ 27399
Ranveer 27386
Business 27362
spend 27358
awareness 27351
ending 27350
stories 27345
ators 27298
union 27297
sound 27271
cancelled 27247
leaves 27235
sectors 27198
Sitharaman 27185
colleges 27184
ice 27168
provisions 27150
vs 27136
asking 27121
commercial 27112
ding 27101
ends 27073
fresh 27057
interests 27019
peoples 27017
worried 27008
lines 27001
sad 27001
Bha@@ 26985
manufacturing 26983
category 26982
Though 26979
draw 26971
electric 26969
IN@@ 26953
investigated 26947
14@@ 26917
vi@@ 26908
drive 26907
Yoga 26896
camp 26888
standards 26888
cars 26885
exchange 26878
inter@@ 26875
Dhawan 26874
Friends 26869
Ne@@ 26860
-year-old 26834
prayers 26821
dangerous 26816
saved 26814
touch 26796
els 26787
Governments 26786
ot@@ 26785
literature 26779
deputy 26740
Action 26721
original 26710
Adityanath 26694
communication 26668
ay 26643
nobody 26642
finance 26638
welcome 26633
imposed 26629
GB 26623
Red 26620
ash 26618
Pro@@ 26616
skipper 26597
Jaitley 26596
easily 26589
ta 26585
IC@@ 26578
Great 26561
Anand 26548
changing 26545
sacrifice 26534
subsequently 26513
Once 26503
followers 26489
opinion 26479
tested 26454
contains 26452
As@@ 26445
struggle 26424
provision 26416
principles 26411
X 26409
rivers 26407
warning 26387
fruits 26379
Sushant 26378
attitude 26343
affairs 26335
wicked 26332
Were 26331
Hes 26328
ali@@ 26321
prominent 26319
computer 26311
nine 26307
Watch 26306
questioned 26287
self-@@ 26285
sections 26280
MS 26275
Kaur 26273
traditional 26265
37 26251
Conference 26233
busy 26229
achieved 26222
fish 26217
Greek 26182
Look 26182
ard 26142
eye 26139
re-@@ 26118
ative 26111
leads 26080
route 26062
highly 26060
Gold 26033
Global 26031
Hindus 26027
ton 26011
centres 25999
charged 25999
technical 25995
CEO 25952
ology 25951
deeds 25934
Kings 25923
Nirmala 25922
careful 25912
under@@ 25903
host 25903
dismissed 25901
aj@@ 25872
ists 25865
eth 25863
double 25861
Egypt 25860
Himachal 25855
ian 25855
warned 25852
Roy 25844
elders 25843
seeing 25830
distance 25828
observed 25822
items 25818
survived 25818
po@@ 25816
foundation 25792
priority 25782
Last 25777
rescued 25775
Out 25772
ages 25772
Jews 25768
regularly 25760
mission 25759
regional 25756
encounter 25756
ker 25743
infection 25731
Pradhan 25719
der 25715
scale 25706
Fund 25705
squad 25693
65 25684
producer 25674
heat 25672
cor@@ 25666
covered 25661
Nations 25655
batsman 25644
1,@@ 25641
fields 25636
connected 25632
reward 25618
initiatives 25603
numerous 25601
IS@@ 25590
Babu 25582
ging 25580
style 25557
Industry 25535
aim 25534
Dev@@ 25525
Budget 25524
ph@@ 25503
Padukone 25501
Abdul 25499
delivered 25497
Mon@@ 25495
Project 25493
interested 25472
Mishra 25458
clearly 25454
acts 25447
Ajit 25433
warm 25424
blast 25423
cha@@ 25414
responded 25402
fuel 25396
Thank 25374
Moreover 25366
ered 25358
ali 25358
planned 25349
entry 25349
user 25343
west 25342
Rajput 25320
inspired 25315
partner 25315
raise 25289
goals 25286
plants 25278
Tax 25259
seem 25253
loans 25243
congratulated 25236
drug 25215
defeated 25214
notification 25206
paper 25178
Bhatt 25133
link 25115
toss 25115
broken 25103
uses 25097
ja 25081
Eastern 25078
resolve 25075
Washington 25057
tion 25056
judgment 25048
Rural 25041
Canada 25039
scared 25031
educational 25002
agencies 25000
structure 24990
hasnt 24987
thoughts 24982
Nitin 24979
Scriptures 24978
ill 24978
scheduled 24961
Lal 24960
Mad@@ 24958
Mahesh 24957
interesting 24937
Chandigarh 24937
12@@ 24929
ob@@ 24926
millions 24912
Cl@@ 24906
requested 24885
stress 24871
Come 24869
sky 24858
Similarly 24842
advised 24835
football 24834
j 24827
unknown 24816
Me@@ 24801
Actress 24792
Sheikh 24790
ru@@ 24790
answered 24787
constructed 24787
au@@ 24762
havent 24747
greatest 24745
illegal 24740
promises 24739
ats 24738
Per@@ 24731
Airport 24716
agricultural 24709
kingdom 24706
teach 24689
Mah@@ 24684
Rai 24652
Thakur 24641
answers 24623
atmosphere 24619
youths 24606
mishap 24599
resignation 24589
sed 24588
minimum 24583
surprised 24577
Patil 24575
resigned 24559
creating 24538
expect 24536
twice 24502
historic 24477
opposite 24473
Swaraj 24468
fair 24459
crowd 24457
explained 24447
BSP 24439
tour 24413
judicial 24405
the@@ 24381
Kapil 24376
Uttarakhand 24370
Karan 24314
behalf 24296
organisations 24274
Chandra 24267
W 24265
ter@@ 24265
Tendulkar 24255
shares 24253
trouble 24246
climate 24231
fun 24230
commitment 24228
Pan@@ 24221
militants 24217
forever 24216
strongly 24198
customers 24189
cup 24187
cabinet 24174
sw@@ 24168
standard 24165
Games 24160
contesting 24149
perhaps 24105
medal 24105
residence 24103
TDP 24091
follows 24079
Coronavirus 24076
filled 24072
42 24062
Pat@@ 24057
RSS 24052
ore 24045
Shetty 24044
suffer 24035
falls 24023
alive 24001
affect 23998
24@@ 23995
car@@ 23985
leaving 23985
ised 23975
cl@@ 23973
ke 23973
dance 23954
representatives 23943
Jan@@ 23940
thank 23937
feelings 23935
sl@@ 23920
bringing 23919
Citizenship 23907
og@@ 23904
ters 23891
limit 23889
crops 23871
window 23867
smartphone 23859
headquarters 23854
Speaker 23836
devotees 23832
wins 23824
drugs 23820
Currently 23809
Still 23796
ab 23783
rupees 23775
sale 23774
ery 23763
costs 23756
sight 23744
Show 23742
male 23736
product 23735
ash@@ 23716
Around 23711
secret 23704
Others 23694
resolved 23690
widely 23688
scientific 23685
resolution 23683
designed 23680
Awards 23675
fee 23666
pollution 23659
Navy 23654
correct 23648
helping 23644
centuries 23636
ada 23613
Maruti 23613
villagers 23590
fruit 23589
track 23583
vital 23580
waste 23579
ms 23578
association 23571
shops 23565
identity 23564
policemen 23562
praise 23559
confident 23558
hot 23539
engaged 23496
AN@@ 23483
bar@@ 23479
younger 23470
lands 23462
reporters 23462
complex 23457
Kareena 23446
passing 23445
gift 23419
content 23417
emergency 23413
sex 23405
strict 23402
scientists 23387
determined 23379
overs 23368
govt 23365
tive 23364
ute 23353
location 23346
Commerce 23342
troops 23335
express 23324
ideas 23315
Music 23301
wealth 23295
tradition 23266
BJPs 23258
blessings 23236
rice 23232
Western 23232
Post 23231
fifth 23230
8.@@ 23228
wonderful 23226
arms 23224
faces 23221
banned 23200
55 23198
fulfilled 23197
phones 23196
resulted 23196
Labour 23194
48 23179
animal 23174
anti@@ 23174
remove 23165
task 23145
Society 23144
plane 23144
middle 23142
Australian 23130
ge@@ 23123
branch 23121
experts 23115
att@@ 23114
driving 23098
RE@@ 23086
device 23085
Devi 23085
boost 23079
guidelines 23068
distributed 23067
raped 23050
air@@ 23035
q@@ 23034
angels 23029
sort 23001
older 22994
Pandey 22979
.. 22977
Alia 22963
gu@@ 22950
calling 22950
sts 22941
worldwide 22940
addressing 22930
Kan@@ 22918
journalist 22918
Tourism 22917
Soon 22911
Energy 22910
dry 22893
CPI 22885
booked 22883
bridge 22874
effects 22870
Mary 22869
Company 22860
approached 22856
Adam 22843
ver@@ 22819
ov@@ 22815
gi@@ 22811
Despite 22801
Im@@ 22789
pending 22779
powers 22774
thereafter 22774
exist 22770
so@@ 22755
hour 22747
Govt 22746
gar@@ 22742
tourism 22740
insurance 22737
ruled 22736
files 22729
unity 22726
demanding 22725
38 22704
equipment 22704
Academy 22699
proof 22684
Tr@@ 22667
shut 22643
ram@@ 22642
tough 22626
prison 22616
forced 22612
gathered 22609
industrial 22599
compensation 22589
ines 22586
Li@@ 22583
grief 22581
Mother 22579
boys 22579
2010 22560
eventually 22555
Chidambaram 22531
welcomed 22521
anointed 22502
participation 22494
appreciated 22486
PTI 22475
theres 22457
Royal 22451
Earth 22449
conducting 22440
rear 22438
Ranbir 22437
44 22429
trailer 22414
-based 22402
clash 22394
independence 22392
remarks 22384
Guru 22377
com@@ 22369
ast@@ 22361
Use 22358
weapons 22353
identify 22343
Joint 22332
ches 22329
Very 22319
ini 22307
successfully 22306
ement 22288
angry 22281
complaints 22281
tor@@ 22267
re 22266
White 22262
Times 22258
showing 22244
exam 22237
practices 22213
Qu@@ 22209
Yojana 22197
Kha@@ 22188
revenue 22185
supporting 22176
cur@@ 22171
hand@@ 22169
13@@ 22157
postmortem 22140
street 22135
Proverbs 22128
advantage 22123
regions 22120
aspects 22114
sit 22113
fathers 22109
accidents 22072
apart 22056
ach@@ 22055
territory 22053
Aadhaar 22043
policies 22037
Isaiah 22037
winners 22034
flights 22024
Arabia 22023
da 22018
eating 22012
grant 22003
Ayodhya 21988
Mahindra 21988
Thousands 21969
fixed 21967
crucial 21960
Singapore 21958
pan 21951
objective 21948
Sea 21944
ps 21937
Recently 21936
error 21919
Ro@@ 21918
ses 21918
concerns 21907
ita 21899
finished 21895
wind 21878
favour 21868
Park 21864
guest 21860
shocked 21831
Work 21828
Smith 21819
nuclear 21815
Gadkari 21796
instance 21795
Policy 21795
Sur@@ 21795
prepare 21794
Subsequently 21783
AR@@ 21770
occur 21765
IT@@ 21760
ug@@ 21742
System 21741
ho@@ 21738
ann@@ 21733
Express 21711
Dal 21701
Si@@ 21684
transferred 21680
Media 21663
god 21661
ble 21645
Kam@@ 21626
professional 21625
brings 21614
requires 21581
PM@@ 21573
stable 21563
distribution 21553
JD 21552
measure 21548
Bas@@ 21545
commission 21533
Financial 21531
Job 21527
memory 21518
00 21515
skills 21511
exactly 21509
chosen 21501
Mark 21498
ST@@ 21496
race 21495
mouth 21494
te 21494
polling 21493
encourage 21484
degrees 21475
survey 21459
perform 21455
Mukherjee 21443
studied 21442
dr@@ 21441
Thereafter 21430
Manohar 21427
9.@@ 21427
ST 21419
ati@@ 21408
poverty 21402
appealed 21402
Suzuki 21399
Happy 21397
Nitish 21395
ade 21391
wall 21390
floor 21387
bu@@ 21381
situated 21379
belongs 21360
Srinagar 21350
applications 21321
experienced 21308
constituted 21308
Aamir 21292
fought 21274
Child 21271
WhatsApp 21268
footage 21267
constituencies 21235
Indira 21215
stock 21209
fi@@ 21208
highway 21202
courage 21181
Acts 21170
fund 21163
Doctors 21157
righteousness 21150
Nehru 21141
conflict 21126
tw@@ 21121
appears 21120
str@@ 21119
balance 21116
notes 21110
friendly 21110
anywhere 21105
Kuldeep 21104
lawyer 21089
bar 21087
glory 21084
enable 21079
watching 21065
az@@ 21053
Japanese 21049
although 21048
Urban 21046
2009 21043
handle 21035
Shahid 21035
wal 21020
anybody 20999
Sushma 20991
willing 20989
def@@ 20986
passes 20981
length 20949
Programme 20922
Gu@@ 20919
row 20911
offices 20908
un 20903
st 20900
approves 20896
principal 20890
Pur@@ 20883
NDA 20880
pre-@@ 20872
studying 20869
lying 20858
peaceful 20843
activists 20842
Uddhav 20824
ale 20817
communities 20813
Shi@@ 20810
aya 20803
singer 20795
ma@@ 20783
Local 20776
guide 20773
Heres 20766
THE 20762
NC@@ 20759
yes 20757
Pawan 20750
surface 20742
departments 20740
sets 20735
decades 20709
tha 20705
western 20704
Al 20701
Engineering 20694
garlic 20687
unable 20683
failure 20674
learnt 20664
Sharad 20663
Vi@@ 20661
producing 20652
improved 20647
Pal@@ 20623
concerning 20615
Raja 20611
buildings 20595
escape 20588
Investigation 20571
hundreds 20570
Tom 20547
danger 20544
courts 20523
Jag@@ 20523
division 20494
formation 20489
apex 20466
Brazil 20462
Co@@ 20455
wear 20454
poll 20453
Sometimes 20451
prophet 20450
dec@@ 20424
2000 20415
cell 20407
ram 20407
sun 20403
establish 20399
tourists 20395
Rajesh 20384
in-@@ 20383
pan@@ 20378
church 20365
harmony 20353
industries 20347
servant 20338
Oil 20337
Goyal 20337
Captain 20335
sur@@ 20333
sales 20331
Israelites 20326
oo@@ 20326
starting 20323
replied 20303
medicines 20302
context 20300
Sp@@ 20296
Main 20288
Covid-19 20283
permanent 20280
ics 20269
ously 20269
2008 20269
Pulwama 20264
connectivity 20261
executive 20259
buses 20236
worse 20235
mass 20225
COVID 20216
seed 20214
our@@ 20209
Total 20203
min@@ 20201
DC 20201
39 20200
onion 20200
mode 20197
U.S. 20180
increases 20180
eastern 20166
talked 20163
oath 20151
sheep 20149
Bo@@ 20138
soil 20124
Luke 20117
flood 20111
P. 20076
For@@ 20070
countrys 20067
monitoring 20066
kindness 20062
port 20049
armed 20048
historical 20041
picked 20035
possibility 20034
ge 20034
citizen 20029
condemned 20028
mainly 20024
meant 20021
mistake 20003
detailed 20003
torque 20001
quit 19993
excellent 19985
threatened 19978
explain 19966
tu@@ 19963
secure 19960
birds 19937
Get 19914
Would 19913
recovery 19910
Pre@@ 19894
Mantri 19894
stayed 19891
overall 19891
Corinthians 19881
closely 19872
lay 19869
AS@@ 19858
Joshi 19848
ely 19844
Android 19844
strategy 19835
heavenly 19833
ational 19829
witnessed 19825
ah@@ 19825
History 19819
Ac@@ 19816
African 19810
records 19806
properties 19798
Italy 19797
Foundation 19788
43 19772
linked 19761
AT@@ 19758
Mor@@ 19742
deliver 19739
Check 19736
ank@@ 19733
panic 19716
northern 19712
facts 19706
collection 19706
transfer 19701
Modis 19677
ving 19676
seeds 19676
ish@@ 19667
visiting 19663
Timothy 19659
mat@@ 19659
adi 19654
temples 19646
extent 19639
travelling 19632
factors 19630
declined 19622
Forest 19612
Us 19604
Black 19598
Diwali 19592
wi@@ 19591
.- 19588
Click 19586
celebrations 19585
99 19573
Kochi 19569
| 19563
expression 19557
owned 19550
conversation 19549
sal@@ 19541
belong 19536
250 19534
Oh 19529
voters 19522
Training 19518
respective 19506
motorcycle 19503
Six 19498
Consider 19496
Surely 19494
differences 19494
Nav@@ 19492
inder 19473
CPM 19471
earned 19467
balls 19457
ti 19451
contain 19440
installed 19428
starred 19425
None 19419
Division 19408
Nm 19406
suggested 19402
understood 19397
blue 19382
figure 19376
method 19375
IS 19352
can@@ 19350
Messenger 19348
47 19346
tea 19342
code 19338
generally 19335
Nar@@ 19331
taste 19328
visible 19325
solar 19307
Go@@ 19307
Second 19305
guard 19305
starts 19295
probably 19290
eg@@ 19281
panel 19280
Lucknow 19276
enemies 19271
straight 19249
Major 19242
bowl 19241
are@@ 19238
honoured 19236
registration 19231
Thomas 19224
argument 19219
gathering 19219
Industries 19218
statements 19186
ow@@ 19185
Solomon 19185
marry 19168
reforms 19155
alongside 19145
CRPF 19131
sins 19122
heads 19120
ill@@ 19118
fe@@ 19112
Trade 19110
Member 19104
Parents 19090
ie 19082
gl@@ 19063
everywhere 19059
shi@@ 19052
Ambani 19051
farmer 19049
Manoj 19046
rose 19045
Ri@@ 19029
Kalyan 19025
Never 19023
Municipal 19018
Iraq 18998
hal@@ 18997
fired 18985
emerged 18983
household 18981
engineering 18959
ments 18955
India-@@ 18951
Ganga 18945
Abhishek 18943
SBI 18935
magazine 18932
Dev 18920
submit 18915
es. 18910
Name 18907
selection 18904
searching 18904
murdered 18903
block 18899
Assistant 18894
mine 18886
variety 18886
belief 18885
harm 18874
NRC 18862
28@@ 18856
challenging 18852
mi@@ 18851
ner 18850
emb@@ 18846
Avoid 18844
ships 18844
Ps 18842
Saif 18827
southern 18825
Ni@@ 18808
enemy 18792
author 18791
owner 18790
Space 18783
captured 18779
Reserve 18768
beauty 18763
She@@ 18747
democratic 18744
Cor@@ 18743
ama 18736
strengthening 18730
batting 18723
walking 18717
Woman 18714
medicine 18710
succeed 18709
Br@@ 18707
require 18702
mostly 18702
Mahendra 18690
rail 18682
software 18677
deeply 18671
ls 18670
Summit 18654
promoting 18652
1-@@ 18649
aged 18648
continuing 18648
ba 18648
ki 18640
farm 18634
island 18621
Pl@@ 18620
cards 18614
thanked 18605
tri@@ 18604
bound 18601
pace 18599
enjoyed 18598
storm 18588
Abdullah 18588
citizenship 18579
ist@@ 18568
pages 18558
causing 18555
inc@@ 18548
collected 18546
amongst 18545
yourselves 18538
Das 18538
parliamentary 18523
Instead 18520
baptized 18514
partners 18511
represented 18502
tells 18496
Katrina 18494
Vijayan 18493
childhood 18492
collaboration 18489
enhance 18467
clothes 18452
possession 18445
newspaper 18445
blessed 18444
moon 18443
Myanmar 18440
ft 18440
slogans 18439
tension 18432
impossible 18421
elements 18420
passenger 18415
trained 18405
contribute 18403
Nag@@ 18401
improving 18400
wearing 18386
reaching 18382
41 18368
ena 18365
beneficial 18360
IP@@ 18357
tic@@ 18354
Mukesh 18347
maintained 18328
1st 18324
absconding 18310
drama 18309
ded 18287
Hall 18286
suspect 18281
requirements 18271
.... 18265
ened 18234
summer 18234
experiences 18233
shoot 18220
encouraged 18212
condolences 18204
divine 18193
adopted 18186
master 18171
600 18169
bike 18164
George 18139
cameras 18131
Cooperation 18122
streets 18108
Malik 18108
95 18108
vice 18106
province 18096
SE@@ 18084
Pa@@ 18082
jointly 18081
super@@ 18074
stones 18071
Sharif 18057
operating 18051
channel 18050
theme 18047
Metro 18036
friendship 18033
DMK 18032
ot 18024
totally 18022
AI@@ 18019
Te@@ 18008
celebrate 18003
Environment 18001
lets 18001
He@@ 17999
Sunday 17999
qualities 17982
larger 17981
iron 17975
Could 17969
ized 17967
Po@@ 17960
Whether 17958
mutual 17958
diet 17952
Change 17948
fication 17946
Code 17936
Varanasi 17929
recommended 17919
van 17911
Leader 17898
listed 17898
der@@ 17895
titled 17891
color 17883
ched 17880
pride 17876
Manipur 17870
wives 17865
Pr@@ 17865
crop 17863
moral 17849
methods 17842
medium 17842
dark 17840
Mi@@ 17820
ff@@ 17819
pal 17809
covenant 17808
delegation 17806
Petrol 17805
labour 17789
colours 17787
relevant 17780
emotional 17780
USA 17775
ste@@ 17768
ati 17760
Revelation 17744
grew 17743
solve 17743
Chandrababu 17742
27@@ 17742
ets 17738
ours 17723
presided 17722
ticket 17720
ane 17711
destroy 17701
dropped 17693
purposes 17690
Shar@@ 17689
Pe@@ 17687
brand 17686
Panchayat 17684
flesh 17678
isn 17672
administrative 17668
elder 17667
images 17665
discharged 17660
grown 17642
expectations 17635
alism 17632
Sector 17628
coal 17628
Ban@@ 17624
store 17606
criticism 17604
extend 17602
Patna 17596
participants 17591
floods 17585
ening 17584
49 17584
HC 17573
4,@@ 17571
pieces 17565
gods 17556
Candidates 17555
fied 17553
asks 17538
4-@@ 17526
integrity 17522
classes 17513
Ak@@ 17512
healthcare 17511
suspected 17508
kings 17506
eng@@ 17493
} 17492
Indonesia 17482
Year 17481
* 17480
ising 17477
crash 17469
keeps 17468
Green 17462
ham@@ 17457
advance 17456
sell 17443
losing 17443
Inter@@ 17439
85 17436
apur 17431
hat 17429
destruction 17425
mal@@ 17425
herself 17408
2007 17407
consequences 17402
Ladakh 17400
an-@@ 17399
kinds 17399
Pinarayi 17396
ci@@ 17375
Festival 17371
solutions 17370
assault 17367
Bombay 17364
governor 17353
Traffic 17353
therein 17346
Price 17346
rooms 17345
mix 17345
background 17344
everybody 17344
pi@@ 17339
tomorrow 17335
profit 17327
burnt 17322
fake 17320
apostles 17318
ically 17316
center 17311
Rather 17302
Me 17302
pivotal 17299
Any 17282
shortly 17282
fit 17279
criticised 17264
i.e. 17262
Has 17261
6-@@ 17258
models 17255
25@@ 17251
Amarinder 17244
Private 17243
articles 17231
zing 17228
caste 17226
Tell 17223
fying 17222
Romans 17219
pretty 17217
52 17216
initial 17214
sentence 17189
Everybody 17186
mountains 17185
Digital 17184
schedule 17180
Based 17174
park 17171
Press 17168
disaster 17166
Peace 17166
existence 17164
struck 17164
exact 17158
skill 17156
aries 17154
banking 17151
nice 17151
iz@@ 17149
wounded 17148
anda 17148
losses 17147
applied 17141
om 17139
drawn 17138
upset 17138
powered 17136
amazing 17133
approximately 17133
pointed 17131
est@@ 17120
Sindhu 17117
Finally 17117
ey 17110
ut 17105
silent 17099
Ba@@ 17095
All-@@ 17093
Stadium 17091
investigate 17086
pol@@ 17085
46 17078
Britain 17070
Memorial 17055
sm@@ 17053
comfort 17050
Sw@@ 17050
col@@ 17046
sick 17039
hotel 17037
Elections 17033
waters 17020
cells 17013
Executive 16996
net 16994
wa 16993
Sardar 16987
consideration 16983
materials 16983
commit 16982
hits 16982
facilitate 16978
Was 16973
Marathi 16973
C. 16970
featured 16951
slave 16945
abad 16942
technologies 16938
constantly 16936
Vardhan 16933
Give 16929
spreading 16927
va 16919
aims 16916
ward 16914
Ranjan 16914
Agreement 16906
initially 16903
locations 16900
d-@@ 16896
heritage 16887
yan 16886
ret@@ 16884
Daniel 16871
Judah 16871
Gr@@ 16871
connect 16860
down@@ 16856
infected 16850
organizations 16846
delivery 16839
guided 16833
Rajinikanth 16825
Organisation 16822
we@@ 16820
51 16819
Industrial 16810
grand 16809
ong@@ 16797
jit 16793
Independence 16780
sti@@ 16777
zed 16777
26@@ 16769
Free 16768
council 16764
Manish 16755
thanks 16746
allows 16736
controlled 16735
Sara 16733
quoted 16721
sites 16714
forgive 16712
loves 16705
samples 16703
Sciences 16696
Members 16689
Bhavan 16681
Maha@@ 16674
strategic 16674
Ran@@ 16672
adequate 16668
Olympic 16659
violent 16656
Parliamentary 16649
di 16648
falling 16645
definitely 16640
worker 16635
positions 16632
obtained 16631
Reliance 16630
ensuring 16628
Staff 16627
obey 16622
Deepak 16618
tbsp 16616
worst 16605
des@@ 16602
settled 16601
Verma 16601
ide 16596
appreciation 16595
Shiv@@ 16594
telling 16589
ell@@ 16579
prosperity 16578
poster 16578
o-@@ 16570
ze 16566
Young 16566
comprising 16561
List 16554
Roman 16552
difficulties 16549
Kaif 16548
CAA 16541
Apple 16539
,@@ 16533
ley 16522
ju@@ 16521
reaction 16517
expenditure 16514
Should 16513
Mag@@ 16513
Ge@@ 16512
sk@@ 16511
US@@ 16506
discipline 16506
Bl@@ 16500
returns 16500
Federation 16499
wash 16493
Jay@@ 16493
certificate 16491
previously 16489
Corona 16487
File 16484
beneficiaries 16480
Ganguly 16479
document 16474
voting 16465
Dutt 16463
2006 16455
wasn 16453
all-@@ 16447
ong 16446
Kumaraswamy 16446
No@@ 16433
judges 16432
5-@@ 16426
bhp 16418
im 16415
functioning 16395
banner 16393
priest 16392
Star 16387
core 16380
land@@ 16377
grateful 16377
Trust 16376
coalition 16374
closer 16372
attending 16370
SA@@ 16368
governance 16366
protesting 16366
Tests 16363
on-@@ 16356
founder 16355
Sikh 16353
feels 16351
knowing 16340
instructions 16338
manager 16325
practical 16324
outstanding 16317
Syria 16316
dreams 16311
Right 16309
purchase 16308
800 16306
star@@ 16304
properly 16299
mention 16283
10,000 16281
rapidly 16275
of@@ 16265
Bureau 16257
devices 16249
ently 16248
Badal 16248
useful 16247
Pandya 16242
ain@@ 16237
establishment 16235
personality 16222
und@@ 16209
surprise 16205
RAM 16203
ster 16198
assets 16198
Chand@@ 16197
Mc@@ 16188
AP 16185
alcohol 16184
ve@@ 16180
ming 16177
Honda 16176
ik@@ 16164
uc@@ 16160
scam 16160
commanded 16145
q 16144
Income 16140
nagar 16139
Sandeep 16137
arm 16121
Mat@@ 16120
go@@ 16120
prize 16118
ises 16118
Or@@ 16112
enti@@ 16107
ure 16099
minutes 16097
characters 16093
Kh@@ 16090
Plan 16089
Mu@@ 16088
messages 16084
IM@@ 16081
64 16080
uddin 16074
yesterday 16062
Dubai 16055
avail 16053
Mil@@ 16049
Bhushan 16049
shock 16048
edition 16047
honor 16042
Meeting 16038
Do@@ 16019
ain 16015
everlasting 16010
foot 16010
chapter 16009
concept 15999
Dinesh 15987
putting 15985
produces 15981
recognized 15978
hate 15977
statue 15973
Jewish 15971
politician 15971
Creator 15968
Legislative 15964
3-@@ 15961
principle 15955
Arunachal 15953
ern@@ 15951
innovation 15947
Lo@@ 15946
Animal 15946
arm@@ 15944
Cs 15944
recommendations 15942
miles 15941
spokesman 15941
Spain 15930
Sir 15930
institution 15927
labourers 15922
ality 15915
s-@@ 15909
Malaysia 15909
sufficient 15906
namely 15903
wake 15902
Je@@ 15901
weak 15898
penalty 15890
circuit 15887
FC 15886
ham 15881
ease 15876
Democratic 15873
Land 15868
30@@ 15868
ni 15867
implement 15865
-1@@ 15862
Res@@ 15859
50@@ 15857
mothers 15856
Ko@@ 15856
char@@ 15853
debt 15846
quick 15839
amb@@ 15839
Gar@@ 15839
mi 15834
ee 15827
mer@@ 15825
sion 15825
escaped 15825
fighter 15823
questioning 15814
precious 15805
wheat 15803
pregnant 15802
brain 15801
Chris 15798
Tri@@ 15796
sacred 15791
adding 15787
bin 15785
proceedings 15781
JNU 15780
Class 15777
ISRO 15772
concluded 15767
ex-@@ 15763
mountain 15761
umb@@ 15756
deny 15749
constitution 15739
ne 15733
contract 15733
parliament 15729
categories 15724
Perhaps 15721
ten@@ 15714
Samajwadi 15713
IPC 15712
gained 15707
returning 15706
believes 15701
Prophet 15697
ching 15689
ens@@ 15687
Bumrah 15685
retired 15684
courses 15672
Jacob 15666
wood 15665
blessing 15653
examined 15652
ela 15649
winter 15648
fallen 15646
rem@@ 15643
Premier 15642
Jam@@ 15640
participating 15635
Friday 15632
Officers 15627
bas@@ 15627
56 15618
mighty 15613
treat 15612
ger 15612
severely 15609
li 15609
Center 15606
meat 15604
Video 15603
Tripura 15601
Without 15595
Shami 15591
Church 15589
extra 15584
ably 15583
zone 15581
Monday 15581
whats 15573
privilege 15572
trip 15551
eligible 15549
united 15548
sanctioned 15547
pr@@ 15544
carefully 15544
RA@@ 15540
appointment 15532
blocked 15526
Fans 15522
club 15518
preparations 15496
imp@@ 15492
iting 15491
Rs@@ 15489
selling 15488
inf@@ 15483
earthquake 15482
vast 15481
walked 15474
Kozhikode 15471
novel 15469
suggestions 15464
locked 15464
mate 15446
depends 15444
pure 15439
han@@ 15438
Watchtower 15432
litre 15430
rare 15428
witnesses 15426
AL@@ 15423
Pranab 15422
universities 15420
Along 15419
Professor 15411
package 15408
eli@@ 15406
abuse 15405
wing 15405
resident 15394
Is@@ 15393
lots 15387
greatly 15382
consists 15381
bul@@ 15372
000 15368
advanced 15365
overcome 15356
Raju 15356
demise 15343
copy 15336
undertaken 15335
head@@ 15332
speaks 15332
med 15329
drop 15329
Steve 15325
spotted 15325
alized 15324
YouTube 15319
Puri 15312
panchayat 15311
Rights 15309
Mexico 15306
likes 15306
dialogue 15304
premises 15296
ns 15291
piece 15290
trading 15288
hell 15282
ail 15280
ata 15279
Paris 15273
2005 15272
stressed 15254
mm 15253
eshwar 15250
Tal@@ 15247
alternative 15241
Shiva 15241
Aaron 15241
native 15238
pu@@ 15236
Sahib 15236
sixth 15235
reveal 15233
pri@@ 15231
Various 15231
cross 15228
RJD 15224
shortage 15214
absolutely 15213
trials 15213
ile 15207
Ti@@ 15204
punished 15197
gate 15188
investments 15180
Jaipur 15179
Swami 15177
investors 15176
collapsed 15174
Bur@@ 15170
Spanish 15170
Verily 15170
leg 15168
Pi@@ 15163
54 15157
back@@ 15150
ler 15150
factory 15147
journalists 15146
blame 15145
resurrection 15143
Picture 15139
seemed 15126
kills 15125
Ahmad 15123
sustainable 15117
availability 15114
delay 15111
figures 15108
neighbours 15108
sir 15107
commits 15106
intelligence 15102
patience 15094
garh 15088
Olympics 15086
vaccine 15082
turns 15082
2,@@ 15080
6,@@ 15074
A. 15063
flag 15059
Petroleum 15058
load 15057
ths 15056
acc@@ 15054
lock 15053
whereas 15052
shape 15051
{ 15049
thi 15049
glad 15041
Sat@@ 15038
multi-@@ 15027
Number 15026
chopped 15019
fever 15016
trans@@ 15013
DA 15011
transmission 15011
suddenly 15011
Death 15008
i-@@ 15007
tra 15006
So@@ 14999
processing 14998
200@@ 14998
Remember 14996
exists 14992
Administration 14987
fan 14985
anc@@ 14984
Atal 14982
tribal 14977
Azad 14974
ize 14973
academic 14973
painful 14967
cal@@ 14966
Advani 14962
ited 14959
pleasure 14955
verily 14955
Ed@@ 14953
ff 14952
appearance 14951
comprises 14947
TRS 14945
anymore 14944
Political 14943
Ambedkar 14941
Forces 14941
elling 14939
regime 14935
restrictions 14934
coast 14929
unless 14927
72 14918
00@@ 14913
nab 14907
poet 14906
beaten 14905
assigned 14902
easier 14902
aside 14888
Mun@@ 14881
ric@@ 14877
metres 14875
priests 14873
TMC 14867
Through 14864
cry 14864
letters 14864
constant 14862
portion 14861
humanity 14860
Johar 14855
culprits 14851
Head 14848
AR 14841
Var@@ 14839
appreciate 14831
focused 14830
situations 14829
replaced 14829
dog 14829
ishing 14828
temporary 14825
Otherwise 14825
Hardik 14819
Michael 14816
Dar@@ 14815
clashes 14814
capable 14812
fundamental 14811
hu@@ 14806
bread 14805
Jo@@ 14804
harassment 14796
peak 14792
Fi@@ 14790
Rafale 14790
bro@@ 14788
contributed 14786
Protection 14786
chemical 14780
Port 14779
relating 14776
anta 14771
mosque 14768
afternoon 14761
personally 14750
ber@@ 14748
square 14748
Motors 14747
Big 14746
tribute 14745
Region 14744
export 14742
masks 14741
meets 14739
Bad@@ 14738
Ravindra 14735
plenty 14719
achievement 14712
ascertained 14711
ization 14709
stake 14703
three-@@ 14703
sub-@@ 14702
attempts 14698
> 14695
discovered 14694
desires 14691
subjects 14688
Eat 14685
illness 14679
DE@@ 14671
Crore 14667
hal 14663
Gi@@ 14657
OF 14641
hy@@ 14637
ok 14633
Holy 14631
pleased 14624
C.E. 14614
5,@@ 14610
Ji 14610
bs 14599
Report 14596
ring 14595
ke@@ 14588
Noah 14582
turning 14581
spiritually 14580
consecutive 14576
trend 14575
dear 14575
challenged 14575
ily 14573
Son@@ 14572
exp@@ 14572
battery 14568
stronger 14564
summit 14559
register 14553
fail 14552
legs 14549
wan 14540
theory 14533
arrangement 14531
elderly 14531
Auto 14528
merely 14525
ei@@ 14525
reflect 14515
NE@@ 14512
duties 14511
ail@@ 14508
actual 14507
CC@@ 14505
burden 14505
campus 14502
visits 14499
Punjabi 14498
AM@@ 14496
foods 14494
ass 14490
ning 14487
Boss 14485
ast 14484
excited 14480
Pharaoh 14479
Varun 14479
atic 14478
completion 14475
stages 14470
paying 14467
Ben@@ 14467
R. 14467
brigade 14461
her@@ 14459
Note 14457
app@@ 14457
considering 14451
At@@ 14448
du@@ 14443
slow 14437
plus 14433
web 14428
borders 14427
protestors 14419
Prince 14416
burning 14414
disrupted 14408
Heat 14408
calm 14400
covering 14397
juice 14396
prizes 14394
loyal 14390
sum 14388
machine 14386
True 14379
violation 14378
surgery 14375
2nd 14371
chose 14365
presently 14365
diabetes 14364
hike 14364
2022 14360
joining 14360
lesson 14345
priced 14338
nominated 14335
cool 14328
Ob@@ 14323
supporters 14321
tourist 14317
CP@@ 14309
functions 14298
allegation 14296
belonging 14293
aimed 14287
Sidhu 14286
explains 14285
KL 14285
Piyush 14282
Line 14281
ements 14276
crying 14275
explosion 14271
lights 14271
tics 14269
Rawat 14269
Theyre 14255
medals 14254
Rec@@ 14250
CA@@ 14246
wards 14241
59 14241
generations 14235
Superintendent 14232
ures 14226
ber 14222
bri@@ 14222
dy 14218
58 14217
Highways 14214
Aishwarya 14212
housing 14210
Officials 14210
survive 14202
entirely 14202
bought 14202
Natural 14197
pm 14193
realize 14187
Obama 14185
Agency 14180
expensive 14170
enc@@ 14159
Nawaz 14156
casualties 14154
aram 14152
Mix 14151
ES 14149
Abu 14145
Agarwal 14145
ME@@ 14143
gradually 14128
ODIs 14128
Whos 14121
Money 14117
teaspoon 14116
whoever 14111
venture 14110
raising 14109
62 14109
programs 14107
AC@@ 14107
sol@@ 14104
listening 14096
plastic 14094
conspiracy 14091
mixed 14090
meal 14086
acres 14078
religions 14072
HD 14067
Schools 14064
newly 14055
Gas 14055
Hebrews 14053
stolen 14053
ass@@ 14052
5,000 14051
smart 14051
ush@@ 14050
dates 14045
Addressing 14036
Khanna 14032
Harsh 14031
procedure 14024
forgiveness 14023
specified 14020
Next 14020
bur@@ 14020
Genesis 14019
IN 14018
Sanskrit 14015
Banks 14005
pen@@ 14005
fat 13999
Aditya 13988
Pakistans 13985
heed 13985
2001 13983
reference 13965
Gopal 13962
10.@@ 13962
conc@@ 13949
rent 13946
immense 13944
height 13942
empty 13941
Tar@@ 13941
63 13938
satisfied 13935
GDP 13932
Valley 13930
makers 13929
67 13925
chain 13925
solved 13924
destination 13922
exception 13919
aspect 13919
professor 13916
ains 13904
Mobile 13893
examine 13892
frequently 13892
darkness 13891
Jadeja 13886
expanded 13881
liked 13881
writes 13877
cautious 13873
Hebrew 13858
papers 13858
improvement 13856
Mand@@ 13854
band 13849
bowler 13849
farming 13847
Small 13846
2004 13845
66 13837
Thailand 13826
bowling 13825
Village 13823
outbreak 13822
Thanks 13816
fill 13815
Teachers 13812
motion 13812
maintaining 13811
Jitendra 13811
aria 13811
quarter 13807
'd 13807
UTs 13800
Know 13800
multi@@ 13792
ol 13791
arent 13782
primarily 13778
shop 13775
rap@@ 13774
Bhopal 13772
external 13771
ek@@ 13760
outcome 13759
prayed 13758
sport 13751
Padma 13750
Independent 13745
represent 13742
atory 13736
IAF 13736
Revenue 13733
pioneer 13731
platforms 13726
Turkey 13726
Saturday 13725
Her@@ 13724
work@@ 13724
53 13720
steel 13717
observe 13716
Tiwari 13706
mandatory 13704
29@@ 13700
Indi@@ 13697
Being 13688
complained 13683
50,000 13682
fy 13677
convention 13677
Al-@@ 13674
wave 13674
Mer@@ 13671
stakeholders 13669
favourite 13668
tonnes 13667
electronic 13662
Directed 13655
Ham@@ 13654
yellow 13645
liquor 13643
Shikhar 13641
sensitive 13633
filing 13633
doors 13624
uri 13624
upto 13622
ser@@ 13620
crude 13617
script 13612
bigger 13610
Jadhav 13609
entering 13602
camps 13600
Kangana 13596
Madras 13594
spending 13593
uri@@ 13592
celebration 13590
distress 13587
Thursday 13586
Whatever 13579
promotion 13573
125 13572
Hasan 13561
hero 13556
ore@@ 13554
judgement 13544
touched 13540
consumption 13539
sa 13535
Bel@@ 13527
pur@@ 13525
Ash@@ 13519
inspiration 13518
assist 13516
relation 13515
ess 13512
Arabic 13511
commissioner 13509
chi@@ 13505
Rakesh 13500
slowly 13495
Hundreds 13493
requirement 13490
delayed 13483
ved 13481
Col@@ 13478
reserved 13475
ura 13459
co 13459
imagine 13456
minds 13453
officially 13426
tongue 13426
rupee 13424
researchers 13422
salary 13422
dev@@ 13420
mistakes 13417
tor 13415
Vikram 13415
permitted 13410
Directorate 13406
ula 13403
Street 13391
limits 13386
occasions 13386
Arab 13383
pilot 13380
Sonam 13375
Sun@@ 13370
voted 13368
Hyundai 13367
Ashwin 13366
significance 13365
formal 13360
stability 13359
object 13357
well-@@ 13355
dedication 13353
crimes 13353
ine@@ 13352
thereof 13346
aka 13344
ordinary 13339
stranded 13333
households 13329
exports 13328
comm@@ 13327
hide 13324
towns 13322
Bigg 13322
ingly 13321
ion 13319
root 13317
smaller 13310
disappointed 13308
winner 13305
select 13301
Akhtar 13300
responsibilities 13300
secondary 13292
vi 13289
entertainment 13288
Min@@ 13287
greetings 13276
relationships 13276
tributes 13274
ory 13274
Gautam 13271
phases 13267
feed 13266
strengthened 13261
tickets 13260
analysis 13256
otherwise 13255
conclusion 13248
municipal 13248
uni@@ 13241
esh@@ 13240
hor@@ 13239
Credit 13238
collision 13237
praised 13234
womens 13234
soldier 13229
Judge 13229
PS 13225
Gang@@ 13222
40@@ 13221
fil@@ 13219
nomination 13218
protein 13214
Mur@@ 13208
advocate 13207
ANI 13202
applicable 13199
Nagpur 13195
2-@@ 13193
Safety 13192
BS 13192
1,000 13192
Top 13182
Devil 13177
associate 13177
miss 13160
den@@ 13152
fault 13149
SS 13148
talent 13145
ING 13142
fin@@ 13139
ila 13138
origin 13137
ell 13129
ID 13127
wonder 13127
two-@@ 13125
assistant 13125
Celsius 13121
arrives 13118
recognised 13116
walls 13116
pa 13112
ams 13109
mer 13107
120 13103
defined 13100
Saul 13099
staying 13099
highlighted 13099
tur@@ 13099
one-@@ 13095
visitors 13095
Hussain 13095
SUV 13094
Middle 13093
AC 13091
invitation 13091
teachings 13088
format 13082
Centres 13082
ished 13079
performing 13074
fies 13071
resign 13071
Steel 13070
ged 13068
Think 13065
rapid 13062
Korean 13062
Dec@@ 13061
symbol 13060
pattern 13057
recognition 13054
gratitude 13053
ned 13049
inv@@ 13047
Taliban 13041
preparing 13040
Quran 13038
garden 13036
Master 13033
ads 13031
moves 13016
Ke@@ 13016
radio 13005
ink@@ 13004
em 13001
Disaster 13001
blind 12999
Tuesday 12997
guests 12996
Ag@@ 12995
bagged 12990
La@@ 12989
inch 12989
coastal 12983
links 12982
breaking 12979
founded 12978
corresponding 12978
alization 12977
Agricultural 12977
Museum 12975
Arora 12974
pepper 12974
68 12969
Warner 12967
decline 12965
Allahabad 12964
autopsy 12952
BRICS 12947
folk 12946
posed 12946
upper 12946
ly@@ 12946
factor 12945
ess@@ 12945
prophecy 12944
Hol@@ 12942
Grand 12939
pp@@ 12939
Tha@@ 12935
bird 12935
Bhutan 12929
Ber@@ 12927
hol@@ 12926
ace 12924
sees 12921
Haasan 12919
maintenance 12919
700 12911
Gogoi 12907
Char@@ 12901
cul@@ 12900
Memorandum 12898
Dh@@ 12898
sentenced 12897
iti@@ 12897
MS@@ 12896
encouraging 12894
involving 12893
involves 12891
Wednesday 12890
quiet 12885
Higher 12878
seeks 12876
EC@@ 12874
reducing 12873
congregations 12866
marked 12863
Understanding 12861
Regional 12857
abandoned 12852
channels 12850
wished 12849
S.@@ 12847
y. 12846
Championship 12844
Ghosh 12842
MC 12841
allocated 12839
detail 12831
Paradise 12829
2,000 12829
Culture 12817
hidden 12816
displayed 12815
cope 12813
Mas@@ 12811
flowers 12811
57 12809
Inspector 12807
ver 12806
manage 12801
behold 12798
che@@ 12792
cattle 12785
portal 12781
Survey 12780
ances 12778
Aviation 12778
agar 12777
widespread 12776
Selection 12775
Vajpayee 12767
norms 12766
hari 12763
ans@@ 12758
Sridevi 12757
Sim@@ 12756
retirement 12747
comprehensive 12746
Sab@@ 12743
onions 12736
ganj 12731
Old 12731
cre@@ 12730
Mehta 12726
chances 12723
reviewed 12721
adi@@ 12718
mor@@ 12718
effectively 12716
Search 12713
environmental 12706
Hong 12705
Em@@ 12701
Ja@@ 12700
efficient 12699
involvement 12699
directions 12698
celebrities 12694
blamed 12687
prior 12687
manual 12681
Robert 12676
interaction 12674
count 12673
satisfaction 12672
tion@@ 12671
ped 12669
Baba 12669
dealing 12668
repeated 12667
Blue 12664
Mizoram 12662
automatic 12661
amid 12659
acy 12656
Case 12653
couldn 12652
lake 12650
reg@@ 12649
Mus@@ 12648
map 12641
endra 12638
operational 12637
Nam@@ 12636
aj 12631
Az@@ 12630
hopes 12626
Select 12625
dollar 12625
1000 12623
import 12619
Help 12613
Amazon 12613
Samuel 12611
sweet 12611
crossed 12607
The@@ 12606
Str@@ 12603
notified 12600
AIIMS 12600
qualified 12598
que 12591
nar@@ 12590
int@@ 12583
ty@@ 12579
taxes 12577
61 12575
engines 12573
expansion 12573
ach 12572
strikes 12572
mortem 12571
EC 12563
Pak 12562
California 12562
Wash 12558
dem@@ 12556
hospitalised 12555
Organization 12547
PV 12547
UAE 12547
tical 12540
rel@@ 12540
bomb 12538
ek 12538
arise 12533
transportation 12532
83 12530
auto 12529
ginger 12529
badly 12525
politicians 12525
unfortunate 12524
Jawaharlal 12523
transactions 12523
Catholic 12519
sn@@ 12519
12.@@ 12513
finding 12511
controversial 12510
allowing 12508
ith 12506
LED 12503
noticed 12495
businesses 12494
TR@@ 12489
translated 12487
husbandry 12486
catch 12485
7,@@ 12477
WHO 12476
raj 12475
77 12473
alised 12471
Working 12469
rumours 12466
Mount 12460
fr@@ 12460
gun 12460
mere 12459
Pictures 12457
Jain 12456
favor 12452
Kat@@ 12448
Seven 12448
Rana 12448
Ver@@ 12445
protected 12441
fore@@ 12437
Upon 12436
Nadda 12436
Truth 12434
drivers 12432
recognize 12431
boat 12431
arrival 12428
combat 12423
remote 12422
chilli 12422
Ask 12420
dam 12419
isolated 12416
Bri@@ 12414
Nevertheless 12412
inner 12411
invest 12409
hai 12409
mit@@ 12408
3rd 12406
thi@@ 12400
3,@@ 12382
arranged 12381
Calcutta 12369
operated 12364
consumers 12357
rer 12350
suspects 12350
ation@@ 12348
rank 12344
Rashtriya 12342
az 12339
Maldives 12337
Housing 12334
w 12333
crew 12332
Crime 12332
acceptable 12331
Up 12328
satellite 12324
admit 12321
fishermen 12320
tremendous 12305
pursue 12300
activist 12296
lifted 12286
accurate 12285
expenses 12285
37@@ 12285
Pri@@ 12283
2003 12281
pick 12280
ears 12277
currency 12271
chairperson 12269
Ill 12262
reduction 12259
competitions 12258
fraud 12256
sessions 12255
SO@@ 12253
procurement 12251
rock 12250
triggered 12246
Club 12244
preparation 12240
efficiency 12233
agitation 12232
Narayan 12232
Shah@@ 12232
Rem@@ 12227
coverage 12226
Rashid 12226
Iranian 12226
del@@ 12223
Northern 12217
commonly 12216
Chouhan 12210
batsmen 12208
Technical 12206
No.@@ 12199
neck 12186
Charan 12183
heavily 12176
traditions 12176
sovereignty 12169
35@@ 12169
bearing 12165
sending 12162
Armed 12160
jan 12158
refers 12156
Ocean 12147
BC 12147
Akhilesh 12141
missile 12140
NIA 12136
= 12134
Prices 12134
tional 12129
86 12124
glass 12124
hill 12122
athi 12122
convicted 12114
Rail 12114
tors 12108
off@@ 12103
represents 12102
ran@@ 12101
Ben 12100
driven 12100
bag 12099
Real 12095
\ 12089
isation 12084
thereby 12083
gains 12083
Nation 12071
agenda 12070
stri@@ 12070
Sud@@ 12068
Nat@@ 12064
oned 12060
ky 12059
wine 12052
targeted 12052
preach 12051
fly 12047
arrive 12045
V. 12044
Sang@@ 12037
MT 12036
DGP 12035
Investment 12033
84 12027
Jio 12026
pension 12024
B.@@ 12023
poetry 12014
Ap@@ 12010
corporate 12010
suit 12009
Drink 12008
Protests 12007
suitable 12004
Sikkim 12004
secured 12002
breaks 12000
K.@@ 12000
val@@ 11999
Kong 11999
ender 11998
ICICI 11996
oldest 11994
absence 11994
torment 11988
Jasprit 11985
bright 11983
Ser@@ 11982
strange 11979
irrigation 11979
conscience 11974
Vinod 11972
8,@@ 11966
valid 11961
dated 11961
extension 11957
kar@@ 11955
73 11955
post-@@ 11954
Sad@@ 11953
emp@@ 11952
Details 11948
74 11947
ust 11946
Infrastructure 11945
equipped 11944
Q 11941
Insurance 11941
Urdu 11941
high-@@ 11939
nabbed 11938
ransom 11937
kin 11936
Far@@ 11929
reservation 11928
supposed 11927
counter 11924
ER 11920
cas@@ 11918
conservation 11912
Vijay@@ 11910
elled 11910
year-old 11910
hara 11909
contested 11909
mod@@ 11903
Maj@@ 11902
Vikas 11900
78 11892
Smt 11891
solid 11888
Nick 11884
attached 11883
hun@@ 11881
remembered 11880
ap 11879
Rang@@ 11877
angel 11876
Patnaik 11870
signing 11869
Vis@@ 11868
artists 11866
Hossain 11865
Smart 11863
valley 11859
constitutional 11859
corner 11858
imprisonment 11855
2002 11851
valuable 11842
supplies 11841
97 11839
ological 11838
latter 11836
devotion 11834
smooth 11833
Body 11832
significantly 11832
mil@@ 11827
festivals 11824
sun@@ 11821
11.@@ 11820
76 11818
Pacific 11812
bronze 11810
Joe 11810
Rashtrapati 11809
hosted 11806
backed 11794
Av@@ 11791
UPA 11787
Construction 11786
Mayor 11785
War@@ 11784
0-@@ 11783
,9@@ 11777
bre@@ 11777
pair 11774
volume 11773
tt@@ 11773
marketing 11771
launches 11771
ami 11762
difficulty 11757
congratulate 11754
Lakh 11753
surrounding 11750
ond@@ 11750
them. 11740
sharp 11739
za 11737
Kim 11737
7-@@ 11734
Mufti 11732
PS@@ 11726
index 11725
BSF 11724
mixture 11723
imitate 11721
8-@@ 11719
Lankan 11714
reform 11713
philosophy 11712
acid 11712
Tan@@ 11711
verses 11710
Tiger 11709
Mayawati 11705
Christmas 11704
Des@@ 11698
XI 11698
91 11694
starring 11694
tears 11693
71 11691
form@@ 11690
succeeded 11688
terrible 11686
anga 11683
Dr.@@ 11669
post@@ 11664
assessment 11662
Had 11660
funding 11660
NEW 11657
keen 11656
partys 11647
Play 11645
theatre 11640
attendance 11632
presidential 11629
Bay 11626
affair 11624
bond 11624
yan@@ 11621
Art 11619
iness 11614
Sum@@ 11609
Employment 11607
Mir@@ 11605
wild 11601
achievements 11598
por@@ 11597
sudden 11596
Rama 11595
exams 11592
non 11589
forming 11588
unveiled 11587
ND@@ 11587
Rajendra 11587
sen@@ 11586
tools 11585
hasn 11584
69 11582
Shraddha 11581
strive 11575
Javadekar 11573
comp@@ 11571
Naik 11567
FI@@ 11565
ust@@ 11561
probing 11560
Jeremiah 11553
Left 11552
Mitchell 11552
Meghalaya 11549
ades 11549
2018-19 11545
seventh 11543
hu 11542
server 11538
ame 11534
Ms 11533
Witness 11527
UN@@ 11523
Trinamool 11519
forgotten 11518
tsp 11518
Irani 11518
t. 11515
repeatedly 11514
declare 11514
operate 11508
Syed 11505
implementing 11504
fo@@ 11498
sung 11495
enhanced 11491
arrests 11491
Capital 11490
ind 11487
pronounced 11486
ung 11483
Golden 11481
framework 11471
generated 11471
intended 11466
hosts 11465
Wal@@ 11460
humble 11458
verse 11457
metal 11457
AM 11456
Ju@@ 11456
Courts 11455
astray 11455
sacrifices 11452
bowlers 11451
adds 11450
rep@@ 11444
tro@@ 11444
filmmaker 11444
Shri@@ 11439
Motor 11439
lady 11438
competitive 11435
Subhash 11435
ani@@ 11434
disclosed 11434
addresses 11425
pat@@ 11424
Gehlot 11423
surprising 11421
2017-18 11421
Kabir 11421
Efforts 11418
continuously 11417
Pun@@ 11417
IIT 11415
mp@@ 11413
certificates 11412
ranked 11407
aging 11406
genuine 11406
Devgn 11403
ear@@ 11402
AN 11402
St. 11402
roll 11399
confusion 11394
godly 11393
explanation 11389
ok@@ 11385
CH@@ 11385
ush 11382
integrated 11377
Babylon 11376
continuous 11374
speaker 11372
fielded 11372
Aam 11371
Trophy 11370
update 11362
Bharti 11361
Try 11358
92 11357
Ka@@ 11356
tly 11355
writers 11353
fa@@ 11350
micro@@ 11345
singing 11343
combined 11341
owners 11340
Mirza 11337
engage 11336
96 11332
ranks 11331
NTR 11331
parent 11330
App 11328
Resources 11326
behavior 11322
manifest 11322
Rules 11321
Ter@@ 11317
viewed 11314
asserted 11314
salvation 11313
termed 11310
Stay 11307
electoral 11305
Gowda 11305
email 11304
82 11303
Vitamin 11300
comfortable 11299
supports 11296
Covid 11296
ire 11293
determine 11293
Building 11291
reviews 11288
earliest 11288
faster 11285
Lalu 11281
thankful 11278
AD 11274
petitions 11274
sword 11273
Skill 11269
Islands 11269
dic@@ 11268
disbelieve 11266
divorce 11261
81 11261
Collector 11261
ays 11260
Dha@@ 11258
duo 11257
draft 11255
intention 11247
artist 11231
80@@ 11231
jeet 11231
vice-president 11229
contrast 11225
Amritsar 11223
variants 11221
Merciful 11219
grave 11215
unbelievers 11202
Pay 11194
upazila 11192
photographs 11188
HDFC 11185
honest 11184
Pad@@ 11183
ola 11180
earn 11180
fulfill 11177
88 11177
Ann@@ 11175
disp@@ 11174
Italian 11173
sheet 11169
Val@@ 11166
haven 11159
largely 11158
We@@ 11158
expand 11156
enquiry 11155
ination 11150
biopic 11149
affordable 11144
Men 11137
Dr@@ 11136
reject 11134
mining 11131
jawans 11131
Forum 11130
conveyed 11128
ishes 11128
Ru@@ 11127
dress 11126
indicated 11124
withdrawn 11124
flour 11124
contributions 11122
veteran 11119
van@@ 11118
monthly 11117
helpful 11111
Johnson 11111
soft 11109
anxiety 11108
Planning 11108
entitled 11105
au 11102
sil@@ 11101
password 11100
collapse 11099
eggs 11098
mans 11097
Ganesh 11093
staged 11089
lessons 11087
superstar 11085
everyday 11082
98 11082
Rani 11082
employee 11080
ented 11080
decade 11079
resulting 11078
suggest 11078
generate 11078
cont@@ 11074
outrage 11070
engagement 11070
vo@@ 11068
squ@@ 11068
ji@@ 11066
ress 11058
extensive 11056
globally 11056
add@@ 11052
ew@@ 11051
Jai 11050
pa@@ 11049
innocent 11043
thrown 11034
button 11033
anna 11032
gifts 11030
inaugurate 11030
print 11029
adults 11023
iPhone 11023
Bh@@ 11021
institute 11016
globe 11014
gender 11012
SMS 11012
subsidy 11012
Production 11011
inhabitants 11010
Pauls 11009
Indore 11007
Sourav 11002
fashion 11001
vitamin 11000
traveling 10997
Lu@@ 10995
arguments 10992
Trans@@ 10989
bid 10986
payments 10979
190@@ 10979
ll 10977
educated 10973
Sunny 10963
SA 10962
TO 10962
ax@@ 10958
-up 10954
Tur@@ 10950
burn 10943
wherein 10943
coffee 10941
hatred 10940
aff@@ 10939
DM@@ 10937
Secondary 10934
Dilip 10934
output 10933
bal@@ 10931
directors 10929
Neither 10928
hall 10928
reaches 10923
ce 10920
Vietnam 10919
Educational 10919
PC 10918
enabled 10916
prescribed 10914
Shivraj 10914
sorry 10908
managing 10908
cap@@ 10903
exit 10902
processes 10901
Series 10900
Hasina 10899
paste 10899
Scriptural 10897
parking 10896
Hor@@ 10896
download 10895
Application 10894
Super@@ 10892
universe 10890
Nanak 10887
yoga 10885
flying 10881
variant 10881
convinced 10878
reasonable 10877
distancing 10876
Umesh 10876
pal@@ 10874
Up@@ 10873
Chaudhary 10871
covers 10870
employed 10863
Jayalalithaa 10863
Things 10861
beliefs 10860
Having 10856
carbon 10853
den 10852
Nobel 10849
diverse 10847
secular 10846
Naveen 10845
hel@@ 10840
shoulder 10839
Bangladeshi 10838
Pol@@ 10836
grace 10835
det@@ 10831
Taking 10829
behaviour 10828
Command 10827
sensor 10826
Prize 10826
routes 10826
ruler 10823
interrogation 10820
log@@ 10819
evident 10819
Som@@ 10818
Nagaland 10817
87 10814
restored 10813
offence 10808
Sy@@ 10808
Start 10805
kers 10801
130 10799
Omar 10798
cricketers 10797
Ireland 10797
Vadra 10795
Hollywood 10792
Aadmi 10789
intervention 10788
monsoon 10783
Vs 10781
Set 10778
regulations 10777
Cal@@ 10768
realized 10767
Cultural 10764
theft 10758
realise 10757
sec@@ 10754
dust 10751
depth 10750
super 10748
performances 10744
Pooja 10743
Pant 10742
extreme 10741
prof@@ 10739
planet 10739
kitchen 10738
sions 10735
silence 10734
1999 10733
has@@ 10733
Thou 10733
Afghan 10728
actively 10725
gram 10719
uv@@ 10717
Hal@@ 10714
grounds 10713
stand@@ 10710
any@@ 10710
scholars 10707
Jonas 10704
cal 10703
connections 10701
Hon@@ 10700
2021 10694
instructed 10692
gather 10687
stadium 10682
Empire 10682
affection 10679
Soviet 10676
Fort 10673
SP@@ 10672
9,@@ 10671
EU 10663
Buddhist 10657
smoke 10656
Managing 10655
depression 10655
P.@@ 10654
impressed 10651
BNP 10650
Rep@@ 10649
fiscal 10647
chest 10637
T20I 10637
serves 10636
Peoples 10636
mel@@ 10634
Island 10633
shelter 10633
revised 10631
tips 10628
disbelievers 10623
ack 10618
saving 10617
89 10616
SS@@ 10615
tear 10613
integral 10612
Alliance 10609
DELHI 10604
int 10602
wage 10600
ils 10600
ose 10600
charging 10600
mentally 10599
Xi 10598
ensured 10597
greeted 10594
Nor@@ 10594
Bab@@ 10583
innovative 10582
civilian 10582
tender 10577
winds 10576
rounds 10573
tense 10568
holiday 10566
ignored 10562
assignment 10561
Roshan 10556
chair 10555
Persian 10555
Sand@@ 10554
IAS 10554
ping 10553
ga 10552
Enter 10551
intense 10548
Prevention 10548
USD 10547
Latin 10542
indicate 10539
comedy 10537
wars 10535
Hope 10532
equivalent 10532
traders 10529
withdraw 10527
branches 10520
Ranaut 10520
AS 10517
Ang@@ 10516
Naval 10515
pe 10512
alist 10511
relative 10497
exhibition 10496
NI@@ 10492
Matt 10491
owing 10490
D. 10489
kilometres 10480
TH@@ 10477
Smriti 10477
journal 10475
Tomar 10474
predicted 10468
Maybe 10466
brief 10463
BS@@ 10463
Films 10462
94 10460
Ste@@ 10459
combination 10459
Light 10456
originally 10455
Che@@ 10455
four-@@ 10452
publications 10451
chi 10451
emerging 10451
golden 10449
ency 10447
sha 10443
Hell 10443
determination 10440
d. 10438
midst 10437
heading 10433
split 10428
Kir@@ 10427
remarkable 10424
Step 10423
Climate 10421
Israeli 10421
gearbox 10421
okay 10417
shalt 10412
overseas 10410
Christs 10409
Lakshmi 10409
representative 10407
handling 10404
photograph 10404
grams 10395
indigenous 10395
gonna 10394
graduate 10393
physically 10390
percentage 10383
migrant 10382
tied 10382
ading 10379
Pal 10378
bow 10376
hum@@ 10375
shed 10369
firmly 10368
releases 10368
Sen@@ 10366
diversity 10366
components 10365
ick 10364
conferred 10362
Brother 10362
Bag@@ 10362
IL@@ 10358
segment 10358
Fin@@ 10357
regarded 10353
Chand 10347
zz@@ 10345
Answer 10343
dignity 10343
invite 10340
ga@@ 10339
holders 10338
sincere 10333
Resource 10332
NDRF 10331
apps 10330
Chahal 10328
ges 10326
ingredients 10324
20th 10321
ON 10321
two-day 10320
ue 10318
islands 10317
Lahore 10317
gra@@ 10316
translation 10316
acquitted 10314
cooking 10314
remake 10311
emphasized 10310
sa@@ 10309
Tam@@ 10308
Siddaramaiah 10305
Raut 10304
Meh@@ 10301
labs 10300
rou@@ 10299
Ay@@ 10297
replace 10297
compassion 10296
ands 10293
lam@@ 10282
citation 10278
Anurag 10275
endure 10272
run@@ 10271
editor 10270
CE@@ 10270
PO@@ 10269
My@@ 10268
motor 10262
colleagues 10257
forests 10257
souls 10256
minerals 10256
Order 10255
whenever 10248
protested 10248
affects 10246
sparked 10242
Jan 10240
eries 10237
consumer 10236
legislative 10234
Sri@@ 10233
MA 10231
lah 10231
Indo-@@ 10229
itation 10227
rankings 10227
Ud@@ 10227
opposing 10225
tragedy 10221
gang 10217
wa@@ 10216
slammed 10215
VI@@ 10212
newspapers 10212
click 10204
doubts 10200
pped 10199
Highway 10198
cycle 10198
telephone 10197
postponed 10197
rejoice 10194
Vishnu 10192
announce 10191
Bose 10189
fame 10181
sworn 10180
urge 10179
Cr@@ 10178
Secretariat 10178
tering 10177
Bihari 10175
equally 10173
Behold 10173
threats 10172
ica 10171
hom@@ 10171
ther@@ 10170
Lake 10168
pilgrims 10167
scope 10162
mask 10162
hockey 10158
hur@@ 10156
earthly 10153
frame 10145
gap 10145
aji 10144
av 10144
sake 10143
sleeping 10143
grain 10140
balanced 10136
ideal 10135
Bethel 10134
ancy 10133
diplomatic 10131
350 10130
untoward 10128
finish 10120
vacant 10120
honey 10117
Malhotra 10117
1.5 10112
influenced 10111
airports 10111
witnessing 10103
visa 10101
attempted 10096
Lucky 10096
stick 10092
Border 10091
possess 10089
Chowdhury 10089
Ph@@ 10088
Ibrahim 10088
5th 10086
sted 10086
Scheduled 10085
Air@@ 10085
edge 10083
Workers 10082
eni@@ 10080
Vivek 10077
tired 10075
renowned 10074
admission 10066
Jagan 10066
borne 10065
AP@@ 10059
roof 10054
museum 10051
mechanism 10047
93 10043
fitness 10042
var@@ 10039
beings 10033
wh@@ 10033
arian 10031
ene 10029
Nirav 10027
unidentified 10026
bor@@ 10024
Bu@@ 10024
Att@@ 10022
lifestyle 10022
Mohanlal 10021
royal 10020
toilet 10019
dwell 10019
plain 10019
coordination 10017
legislators 10016
79 10015
Noida 10014
Bajaj 10013
tons 10010
Intelligence 10006
Mak@@ 10005
simultaneously 10004
commented 10002
Tim 10002
Sil@@ 10001
Sensex 10001
lawyers 9997
contrary 9994
od 9994
Bhuvneshwar 9994
emphasis 9993
believing 9992
eagerly 9988
Convention 9988
league 9986
shocking 9985
shift 9983
plot 9981
contained 9976
refuge 9975
sanitation 9974
architecture 9971
tar@@ 9970
Rishi 9968
resource 9966
imports 9962
NT@@ 9960
tracks 9959
AI 9958
mur@@ 9957
legislation 9953
profession 9949
metro 9949
buried 9947
venue 9946
illa 9946
couples 9946
Eve 9945
Corporate 9945
lowest 9942
tool 9941
Card 9941
injustice 9938
Common 9936
discrimination 9933
Putin 9931
allocation 9928
Def@@ 9928
refugees 9925
pping 9923
Jordan 9921
Language 9921
Care 9921
Abbas 9920
exposed 9919
considerable 9914
ode 9914
reiterated 9914
machines 9914
equality 9911
react 9911
conf@@ 9907
publication 9905
Network 9904
Data 9902
rev@@ 9902
Jal@@ 9902
Royals 9900
weapon 9898
Meteorological 9897
SH@@ 9896
containing 9894
ole 9893
critically 9892
Electronics 9889
quantity 9888
prophets 9885
Manager 9883
militant 9881
SC@@ 9881
neighbouring 9881
stuck 9877
appa 9877
ank 9873
representing 9872
Rom@@ 9870
Football 9869
Pand@@ 9867
relatively 9864
Surat 9863
4th 9862
Por@@ 9859
library 9858
Swachh 9855
ake 9854
wages 9854
icon 9851
Bibles 9848
Town 9848
equ@@ 9845
UR@@ 9843
flee 9842
jewellery 9841
Arts 9837
ministerial 9835
Dhan@@ 9831
Med@@ 9829
recalled 9827
ayed 9827
fastest 9823
ing-@@ 9821
emotions 9820
critics 9820
ought 9818
gre@@ 9817
bottom 9815
observation 9815
OR@@ 9815
B. 9813
angle 9812
consult 9809
dollars 9809
enting 9807
Philippines 9804
tan@@ 9795
cured 9792
PL@@ 9791
cargo 9790
cra@@ 9787
dri@@ 9785
ric 9784
Kun@@ 9784
blog 9784
opens 9783
Mehbooba 9783
appearing 9780
Martin 9779
ables 9777
Error 9773
Inc@@ 9771
Exchange 9770
ys@@ 9769
fac@@ 9768
buying 9767
tenure 9765
developments 9759
Queen 9756
inal 9756
Fl@@ 9754
Mul@@ 9752
universal 9751
aking 9751
Gill 9751
Solar 9750
separated 9743
updates 9742
objectives 9741
aps 9741
timely 9739
Prabhu 9738
tures 9737
AB@@ 9736
aid@@ 9736
pleasant 9735
quarantine 9729
AIADMK 9729
Under@@ 9728
fort 9718
Lo 9718
Nearly 9717
worthy 9717
tackle 9716
pet 9714
AT 9713
possibly 9711
inn@@ 9709
occupied 9707
needy 9706
stream 9705
SIT 9700
yp@@ 9699
GS@@ 9699
dual 9695
unprecedented 9693
ora 9692
minority 9691
Prabhas 9690
persecution 9687
prisoners 9682
IP 9679
tel@@ 9677
ial 9676
god@@ 9675
throne 9674
Long 9670
achieving 9668
eve 9668
trace 9667
kh@@ 9666
monitor 9665
professionals 9665
expert 9664
CB@@ 9662
delight 9662
Find 9661
Front 9653
tensions 9653
ban@@ 9653
Pratap 9653
IF@@ 9652
tennis 9652
designated 9650
ected 9647
fighters 9647
M. 9646
B.C.E. 9645
revolution 9645
Online 9643
ta@@ 9638
criminals 9637
cc 9634
IR@@ 9632
attackers 9630
structures 9630
dia 9629
entrepreneurs 9628
targets 9626
bing 9625
ture 9623
asi 9620
membership 9620
allotted 9620
territories 9619
Kane 9619
paradise 9618
Coal 9617
Aayog 9616
Del@@ 9615
smoking 9614
cer@@ 9614
Islamabad 9614
Broadcasting 9613
Sonakshi 9612
Kol@@ 9609
lift 9607
cou@@ 9605
literacy 9605
examinations 9603
profile 9600
had@@ 9600
yours 9594
Need 9592
describe 9585
Citizens 9585
mas@@ 9584
Americans 9581
Chi@@ 9581
Annual 9575
Haz@@ 9573
No. 9572
grade 9569
creatures 9566
confessed 9565
bones 9564
-led 9563
Sabarimala 9560
Something 9559
zones 9559
dignitaries 9558
Justices 9558
baptism 9555
grains 9549
Womens 9542
teen 9537
Bhar@@ 9537
legend 9535
accordance 9533
acquired 9531
Legal 9531
izing 9530
ard@@ 9530
NO@@ 9529
anti 9529
Da@@ 9525
fre@@ 9524
ing. 9523
accordingly 9523
scenario 9522
you. 9522
fix 9516
20,000 9516
Parrikar 9515
Save 9514
Joshua 9513
Champions 9513
pun@@ 9512
eness 9511
hast 9509
cooperate 9508
cli@@ 9506
meters 9505
mag@@ 9497
ride 9497
respected 9496
Kanpur 9494
Rav@@ 9494
Satans 9491
3,000 9487
popularity 9483
aan 9481
rival 9477
tribe 9476
si 9475
refer 9475
regret 9474
slightly 9472
bowled 9471
red@@ 9470
ids 9468
obtain 9467
Medicine 9467
beds 9466
flat 9466
ethnic 9462
joins 9461
oms 9457
recover 9457
oo 9454
bra@@ 9449
windows 9447
ullah 9447
husbands 9446
railways 9444
Sham@@ 9444
broad 9443
Lok@@ 9442
ces 9438
mal 9438
premium 9437
raids 9437
urgent 9435
risks 9435
surrounded 9433
mid@@ 9432
ws 9430
watched 9427
Sch@@ 9425
pregnancy 9425
announces 9425
Bangla 9425
usage 9424
breathing 9423
Speci@@ 9422
introduction 9420
atha 9420
ities 9419
Wor@@ 9419
in-charge 9419
Congratulations 9418
brown 9412
fulfillment 9410
riding 9408
Match 9407
luck 9405
Wise 9404
qui@@ 9403
YS 9400
drawing 9398
yas 9392
Eight 9388
Ha@@ 9384
calcium 9382
qualify 9378
organic 9378
apologise 9376
antly 9366
Communist 9366
Non-@@ 9366
Military 9366
alisation 9360
mail 9359
hon@@ 9359
infections 9359
scoring 9358
des 9357
Venkaiah 9356
Ambassador 9356
Radha 9355
Sing@@ 9353
Hel@@ 9350
21st 9346
UT 9345
eless 9342
2019-20 9341
Gandhis 9339
sexually 9339
pulled 9337
N. 9336
dinner 9336
cleanliness 9334
guy 9331
push 9329
Pro 9328
Shastri 9326
gun@@ 9324
suff@@ 9320
black@@ 9320
than@@ 9318
screening 9318
AL 9316
Consumer 9315
60@@ 9315
jo@@ 9313
Employees 9313
Rome 9312
backs 9312
throw 9310
wal@@ 9309
creative 9306
top@@ 9306
reduces 9306
III 9304
aning 9296
Gun@@ 9296
je@@ 9296
encouragement 9294
ems 9294
perspective 9292
thr@@ 9290
Saina 9288
leg@@ 9287
harmful 9284
Coast 9281
ey@@ 9279
boundaries 9276
lord 9276
Af@@ 9275
nationals 9269
isolation 9267
familiar 9266
SI@@ 9266
Youre 9262
stepped 9262
Talking 9260
clarified 9257
Moon 9255
Jason 9255
lest 9253
avoided 9252
JP 9248
Kur@@ 9242
Clean 9241
asa 9240
ere 9237
ards 9236
Guard 9235
equity 9232
Girl 9232
Airtel 9231
cy@@ 9229
desired 9229
May@@ 9228
empowerment 9225
entrance 9223
topic 9223
vis@@ 9221
Puducherry 9220
aying 9217
gen@@ 9216
E-@@ 9215
Train 9215
smile 9214
hence 9212
bullet 9212
ili@@ 9211
Community 9210
interim 9210
Benefits 9209
Tel@@ 9207
ori@@ 9207
cops 9207
vulnerable 9204
objects 9203
normally 9203
reveals 9200
hanging 9199
cow 9197
typically 9195
Key 9192
starrer 9191
Op@@ 9186
tweets 9184
delighted 9181
Level 9181
Blood 9181
Qureshi 9178
Presidents 9176
.0@@ 9173
Rel@@ 9169
Relief 9169
Secretaries 9168
five-@@ 9168
introduce 9165
Satish 9165
Strict 9162
rid 9161
Jaishankar 9160
kumar 9159
rulers 9157
benefited 9155
fees 9152
inform 9150
Market 9150
Source 9148
spouse 9147
Car 9146
harvest 9142
promoted 9141
Thir@@ 9141
Chennithala 9141
todays 9138
Nand@@ 9137
Santosh 9131
Dal@@ 9129
sentiments 9127
New@@ 9125
motivated 9120
AND 9118
J. 9117
ration 9115
Shivaji 9114
magic 9114
uncle 9114
yield 9113
Isaac 9113
Girls 9111
AYUSH 9109
ona 9108
water@@ 9105
nation@@ 9104
mad@@ 9103
ney 9099
Similar 9098
Sushil 9098
Mis@@ 9095
Third 9093
lashed 9093
yar 9092
Branch 9089
ports 9083
dealt 9083
Kul@@ 9082
Sai@@ 9081
occurs 9079
ude 9078
cried 9078
reign 9076
feared 9075
meals 9074
foretold 9072
Hassan 9072
Southern 9070
Hereafter 9064
Gul@@ 9061
Index 9059
Band@@ 9059
San 9058
supplied 9057
Dharmendra 9055
describes 9055
oppose 9054
lyrics 9053
anth 9050
revelations 9046
counting 9041
Sol@@ 9039
Fac@@ 9038
MSME 9035
supreme 9034
administered 9034
poems 9032
Out@@ 9031
indicates 9029
converted 9029
helmed 9029
default 9028
enjoying 9026
ese 9026
faculty 9026
there@@ 9023
Innovation 9021
amendment 9020
NITI 9013
ika 9012
tically 9010
altar 9009
retail 9009
inclusive 9005
rers 9004
preliminary 9002
folder 9000
Guwahati 9000
stir 9000
sul@@ 8995
executed 8995
Store 8995
updated 8994
gro@@ 8994
2016-17 8993
1998 8993
firms 8989
Nas@@ 8986
cro@@ 8984
blocks 8983
ails 8982
stat@@ 8981
puts 8980
Honble 8980
William 8980
oxygen 8979
Tribal 8978
sixes 8977
handled 8976
raw 8974
fray 8970
fishing 8965
presentation 8962
Brothers 8961
exciting 8961
ota 8960
Dam@@ 8959
Shukla 8958
virtual 8956
Sel@@ 8954
Ministries 8953
lucky 8950
ght@@ 8947
ained 8947
ual 8945
PDP 8943
eternal 8942
Jail 8942
coaches 8942
dependent 8941
ium 8940
amended 8939
s.@@ 8939
ular 8939
remanded 8939
Presently 8936
bat@@ 8935
Netherlands 8931
teaser 8931
conscious 8928
tar 8928
surveillance 8925
Iqbal 8922
bel@@ 8921
sli@@ 8919
painting 8919
instruction 8918
Again 8917
band@@ 8915
Roads 8913
blow 8913
civilians 8913
prevention 8913
hear@@ 8912
berg 8912
confirmation 8911
onto 8911
transparent 8910
Mallya 8909
Spirit 8906
ef 8906
speci@@ 8905
consultation 8903
Han@@ 8901
psalmist 8896
seconds 8890
Resurrection 8888
Block 8887
anth@@ 8885
conferencing 8882
calendar 8879
IC 8877
cu@@ 8872
gardens 8871
networks 8866
restore 8866
Dan@@ 8866
hes 8864
Much 8861
Him@@ 8861
mature 8860
Advisor 8857
opener 8856
ous@@ 8855
ratio 8855
Against 8853
hunger 8845
therapy 8845
Support 8844
cholesterol 8844
Vir@@ 8843
EL@@ 8841
Ds 8839
advantages 8835
Silver 8834
pays 8828
Championships 8828
Du@@ 8828
ick@@ 8823
resistance 8822
ed. 8822
Tw@@ 8821
recruitment 8821
Menon 8821
DNA 8816
Z 8814
wouldnt 8814
turmeric 8808
BE@@ 8803
Country 8802
ect 8802
creates 8801
rat 8798
lion 8796
component 8795
eds 8792
shame 8792
customer 8785
dad 8784
transparency 8783
tim@@ 8782
arts 8782
uring 8781
TS 8780
flows 8778
drew 8776
Session 8774
youre 8774
tered 8774
loc@@ 8771
ulation 8771
Nair 8771
wara 8770
CR@@ 8770
lasting 8767
Ephesians 8764
celebrating 8761
worshipped 8760
Hari@@ 8756
procedures 8755
med@@ 8752
CBSE 8751
fed 8750
corrupt 8749
cleared 8749
habits 8748
Kashmiri 8744
zero 8736
alli 8736
routine 8735
fearing 8732
radi@@ 8730
checked 8729
loyalty 8728
Sec@@ 8728
whatsoever 8725
tal@@ 8724
reacted 8724
Locals 8724
inflation 8724
ag 8724
reservoirs 8723
proposals 8722
NS@@ 8722
finds 8720
ailing 8719
reflected 8716
enn@@ 8715
ro 8714
Same 8712
Ghulam 8712
Yeah 8711
Christianity 8711
ups 8711
Accordingly 8709
Movement 8707
divide 8704
afford 8700
Hu@@ 8698
collective 8695
Goddess 8695
purchased 8693
Rain 8693
Hindustan 8689
PR@@ 8689
toilets 8686
Varma 8686
transformation 8683
Khans 8683
annually 8681
Emergency 8680
Daily 8679
gan@@ 8677
Deshmukh 8677
intensified 8673
heartfelt 8671
Shakti 8669
disputes 8669
fulfil 8667
ners 8666
belonged 8666
livelihood 8665
aspirations 8664
PMs 8664
hydro@@ 8663
youngest 8658
audio 8657
ences 8657
condemn 8654
Harish 8654
Shroff 8653
allies 8651
Furthermore 8647
Entertainment 8647
Review 8646
1996 8646
KCR 8644
opted 8643
customs 8640
Sadar 8637
ees 8636
tend 8636
Argentina 8635
Enterprises 8635
Put 8633
temperatures 8632
casualty 8630
IG@@ 8630
Srinivas 8630
Ku@@ 8628
Er@@ 8626
printed 8622
vessels 8621
ills 8620
rab@@ 8616
Institutions 8615
raining 8613
bir 8613
Janhvi 8612
Kannur 8610
Ren@@ 8608
rs 8606
wherever 8606
stomach 8605
Mani 8605
possibilities 8604
Mandir 8599
SSP 8598
thoroughly 8597
preserve 8594
missionary 8594
Doing 8592
LPG 8591
IPS 8590
ER@@ 8588
tribes 8583
tank 8578
obvious 8573
NA@@ 8569
unemployment 8569
restricted 8568
La 8565
involve 8564
caution 8563
by@@ 8562
ries 8561
Bul@@ 8558
parked 8557
committing 8556
Inf@@ 8555
15th 8554
derived 8553
hub 8548
estate 8547
flock 8546
producers 8546
techniques 8544
deposit 8544
motive 8543
Questions 8542
execution 8542
Launch 8540
eding 8540
Bhagat 8540
Am 8539
Vas@@ 8539
repair 8537
Weve 8537
clothing 8533
Charge 8533
atives 8533
Aj@@ 8533
kets 8532
tie 8530
MW 8530
extraordinary 8529
uck@@ 8529
Penal 8529
www.@@ 8525
oes 8525
enhancing 8525
prestigious 8525
interacted 8522
2.0 8518
champion 8517
Model 8517
residential 8515
Mang@@ 8514
dying 8513
tis 8511
Canadian 8509
maybe 8509
gs 8509
claiming 8508
protecting 8508
unjust 8507
awaited 8507
plate 8506
dogs 8505
realised 8501
Agra 8500
hoped 8500
Kas@@ 8499
receives 8498
pura 8496
humility 8495
ack@@ 8494
Isnt 8494
Tir@@ 8493
my@@ 8493
sends 8492
Radio 8492
pres@@ 8491
ital 8490
Primary 8488
scenes 8487
Madurai 8486
Faith 8483
Shes 8482
Awake 8481
jet 8481
Sultan 8480
Naz@@ 8477
lovers 8468
flowing 8468
eh@@ 8466
settlement 8466
Gauri 8466
CS@@ 8465
Politics 8465
literary 8463
tragic 8461
communal 8459
pul@@ 8458
mob 8457
felicitated 8455
Akali 8454
Coimbatore 8452
Hi@@ 8452
ech@@ 8449
terminal 8448
Call 8448
enthusiasm 8447
ket 8444
recall 8443
productivity 8443
Henry 8440
Cancer 8440
Knowing 8439
OS 8437
cotton 8435
auction 8434
connecting 8432
Azhar 8430
Gen@@ 8428
Rupani 8421
Nathan 8420
Live 8419
ther 8418
Chittagong 8418
Ki@@ 8417
long-term 8415
ros@@ 8414
ao 8413
dar 8412
CC 8411
missed 8411
Karthik 8410
Lal@@ 8409
Sen 8408
Pra@@ 8406
swing 8406
7th 8405
classical 8404
Rishabh 8401
personalities 8396
locality 8395
increasingly 8393
render 8389
enters 8386
Wayanad 8386
ark 8385
renewable 8385
ranking 8384
TC 8382
itors 8382
Rahane 8382
guarantee 8379
Sav@@ 8379
moments 8376
Cre@@ 8374
reputation 8373
na@@ 8367
nam@@ 8364
depend 8364
Voting 8364
applies 8361
Unit 8361
Ishant 8361
usual 8360
Comp@@ 8360
boundary 8356
gh 8355
convicts 8355
Mod@@ 8354
ecting 8352
A.@@ 8350
Personnel 8350
eration 8349
ier 8349
Student 8349
bless 8346
suggests 8346
rendered 8344
Rob@@ 8342
105 8341
Nabi 8341
responding 8339
element 8339
ment@@ 8339
TA 8336
Vehicles 8333
breath 8332
momentum 8332
moderate 8327
Studies 8327
istic 8326
census 8326
CA 8326
habit 8323
1971 8323
minorities 8320
BR@@ 8318
referring 8318
2.5 8318
adopt 8317
Sources 8315
DR@@ 8314
dh@@ 8313
contr@@ 8311
apparently 8310
Companies 8310
God@@ 8310
Ty@@ 8308
Challengers 8308
beating 8306
Apply 8304
ander 8304
fears 8303
Expo 8300
Fe@@ 8299
bills 8299
ira 8299
Rajeev 8298
vitamins 8298
Rescue 8293
nearest 8291
hab@@ 8290
devoted 8286
Image 8285
Sweden 8285
gates 8283
AY 8281
withdrawal 8280
declaration 8280
ava 8280
Akbar 8280
sh 8278
prevented 8275
disperse 8275
Relations 8273
imperfect 8272
cuts 8270
alities 8268
Stalin 8263
capabilities 8260
maritime 8260
pool 8258
Leela 8256
ammunition 8255
Lak@@ 8254
demonstrate 8252
tan 8252
grants 8251
alam 8250
Stop 8249
attract 8248
businessman 8247
album 8245
SR@@ 8245
Early 8244
amounts 8244
Jas@@ 8243
Hegde 8243
Cur@@ 8241
shrine 8240
ologist 8240
eri 8240
Samsung 8240
crushed 8238
stocks 8235
tally 8234
Consequently 8233
ow 8229
inj@@ 8228
Computer 8226
forthcoming 8224
somewhere 8221
Stokes 8221
ino 8220
tle 8220
Hey 8219
cultures 8218
riots 8218
nationwide 8214
Age 8212
youngsters 8211
reads 8211
it. 8211
RO@@ 8210
Hrithik 8204
ich@@ 8201
pil@@ 8201
DP 8198
beloved 8197
landing 8197
sting 8195
trapped 8195
Nationalist 8190
inaugural 8189
establishing 8188
1991 8186
don@@ 8183
Gl@@ 8179
utter 8179
resigns 8175
Area 8174
tives 8172
Eli@@ 8171
Personal 8170
sav@@ 8170
layer 8170
migrants 8169
sy@@ 8168
Rahim 8167
waves 8166
Bang@@ 8166
Manj@@ 8166
copies 8160
contacted 8159
Ali@@ 8159
144 8157
ero@@ 8157
Marriage 8155
with@@ 8153
Additionally 8153
suspension 8151
LO@@ 8147
180 8147
attractive 8145
ounding 8144
thinks 8137
non@@ 8136
respects 8134
ashamed 8133
lab@@ 8133
Ir@@ 8133
bi 8128
Iyer 8126
twenty 8126
item 8125
workshop 8123
thieves 8122
sealed 8122
Plus 8120
fibre 8120
cylinder 8117
stores 8115
yl@@ 8114
saith 8113
Bor@@ 8112
Sc@@ 8111
bonds 8110
memorial 8110
Want 8109
specifically 8107
washed 8102
musical 8099
hardship 8098
ano@@ 8097
ghts 8095
giant 8095
Jinping 8094
carries 8093
engineer 8093
,000 8090
outfit 8089
Gram 8088
Tower 8083
slaves 8082
mid-@@ 8080
Communication 8079
Ronaldo 8077
Kath@@ 8076
Yuzvendra 8070
kil@@ 8069
Ul@@ 8068
centers 8068
Says 8067
inda 8067
tal 8062
Ratna 8062
risen 8062
sor@@ 8059
ign@@ 8052
spring 8050
accessible 8049
inheritance 8048
PP@@ 8048
interrogated 8048
Sher@@ 8046
unusual 8045
travelled 8044
Freedom 8043
FDI 8042
lo 8042
Mac@@ 8039
defend 8039
dev 8039
Turkish 8039
ple 8038
ahs 8034
mild 8030
explore 8030
apping 8030
pro-@@ 8030
poly@@ 8027
assurance 8025
argued 8023
minus 8023
Om 8023
hardly 8020
AK 8020
mom 8019
ining 8014
remark 8013
Design 8013
Ros@@ 8011
Within 8006
snow 8003
accomplished 8002
aker 8001
ud 8000
eminent 7998
agreements 7997
romantic 7996
selfie 7994
Ref@@ 7994
Magistrate 7993
paddy 7992
19th 7991
andi 7991
passport 7991
Williamson 7990
highlights 7987
resentment 7986
commenced 7986
skilled 7981
AG@@ 7981
cure 7980
Pandit 7980
Mike 7979
Gol@@ 7978
uting 7978
amed 7977
Fir@@ 7974
Men@@ 7970
Bis@@ 7968
airline 7968
cultivate 7967
Windows 7967
PAN 7967
tablespoon 7966
hills 7965
Shipping 7965
Gujarati 7965
aur 7964
fare 7963
him@@ 7961
Departments 7959
or-@@ 7959
Hy@@ 7959
Choose 7956
Web 7956
Parishad 7955
dating 7954
rely 7946
Cases 7946
Bah@@ 7944
Mann 7943
inconvenience 7942
memories 7938
offspring 7936
brave 7932
Bahadur 7930
div@@ 7928
ID@@ 7927
Kiran 7927
Switzerland 7925
grass 7925
< 7922
asting 7920
landed 7920
af 7919
Rajan 7919
ultimately 7918
kid 7915
cho@@ 7912
Gan@@ 7910
Durga 7910
expelled 7910
institutes 7909
FIFA 7909
messengers 7906
lit@@ 7906
Follow 7904
threw 7903
Integrated 7902
scholar 7901
absolute 7901
UL@@ 7900
Ji@@ 7898
movements 7896
passage 7896
adult 7895
Nab@@ 7894
ox@@ 7894
Sai 7893
GS 7890
tribulation 7880
Shashi 7880
Awami 7880
martyred 7877
corporation 7876
strictly 7874
Symptoms 7873
Back 7871
Journal 7867
ignore 7865
forecast 7862
soci@@ 7860
Register 7860
depending 7858
publicly 7858
Qatar 7858
concrete 7857
ye@@ 7857
,999 7857
noise 7856
arch@@ 7856
removal 7855
tioned 7849
Tech 7846
PA 7846
DS 7845
Sikhs 7843
corridor 7843
Movie 7840
cat@@ 7840
subsequent 7838
Mosque 7838
1997 7837
Large 7836
volunteers 7835
atively 7834
lers 7833
potassium 7831
obedience 7830
Asked 7830
Initially 7830
rav@@ 7830
immunity 7830
minute 7828
forbidden 7826
freely 7826
highways 7826
Hero 7825
Cannot 7823
alists 7823
lu@@ 7816
elsewhere 7816
savings 7816
Bre@@ 7814
compare 7814
Jodhpur 7814
Ford 7810
cle@@ 7809
succumbed 7808
sle@@ 7807
prohibited 7807
guards 7807
idols 7807
View 7806
Fa@@ 7802
nam 7801
udd@@ 7800
consent 7799
Muk@@ 7798
Customs 7796
Gandhinagar 7794
1-0 7794
commerce 7793
Ranchi 7793
Commonwealth 7792
condoled 7790
convey 7789
sand 7789
zeal 7788
udi 7788
complicated 7783
mated 7783
read@@ 7780
hungry 7780
shouldnt 7780
Leaders 7774
Modern 7773
Leave 7767
safely 7767
Ari@@ 7767
vol@@ 7764
inauguration 7761
Pres@@ 7758
stretch 7758
ici@@ 7756
Messiah 7756
glorious 7756
Headquarters 7756
applying 7754
Anna 7754
sem@@ 7753
tes 7752
laundering 7752
dwelling 7751
Randeep 7751
breast 7750
baseless 7744
Navjot 7742
dig@@ 7738
lemon 7737
ashing 7736
Commander 7735
warn 7734
cap 7734
publishers 7733
merciful 7732
vain 7731
instrument 7731
Kottayam 7728
owns 7728
Listen 7727
Unfortunately 7726
domain 7725
chicken 7725
superior 7721
sive 7720
deadly 7719
cook 7719
cher 7718
shar@@ 7714
ema 7712
Buddha 7711
12th 7710
Standard 7709
dish 7708
tap 7707
deserve 7706
Sul@@ 7701
policeman 7701
AD@@ 7700
wrath 7699
impressive 7699
01 7698
alize 7697
ligh@@ 7697
bathroom 7697
medi@@ 7695
oral 7695
Full 7694
rises 7693
coll@@ 7688
titles 7687
Maharaj 7686
Vinay 7686
launching 7685
Till 7682
bridges 7682
slain 7680
retained 7680
Samaj 7680
Kartarpur 7678
tune 7677
esses 7676
ef@@ 7675
RS 7674
top-@@ 7673
judiciary 7672
deals 7671
margin 7670
scientist 7669
description 7668
listened 7667
ide@@ 7666
substantial 7666
childs 7664
Has@@ 7663
detected 7659
comparison 7659
nephew 7658
whi@@ 7657
acknowledged 7656
chemicals 7656
1995 7656
pic@@ 7655
ree 7655
Ernakulam 7654
reactions 7654
acquisition 7653
ashes 7650
demonstrated 7650
episode 7648
manufactured 7647
County 7647
trusted 7645
Venugopal 7645
oring 7644
ster@@ 7644
penned 7642
Place 7642
fol@@ 7639
gar 7638
ump 7637
laugh 7636
nose 7635
Miss 7632
immune 7630
forgiving 7629
Study 7629
Gen 7629
aining 7628
obedient 7628
collect 7628
Kisan 7628
ums 7627
bil@@ 7626
eff@@ 7624
sang 7623
aiah 7621
Colour 7621
Farooq 7621
pha@@ 7620
objected 7620
Masjid 7620
Yuvraj 7620
Response 7619
Teacher 7619
funeral 7619
reliable 7618
unions 7617
poses 7617
tobacco 7617
mes 7617
cop@@ 7616
definition 7615
Ki 7615
printing 7613
Kishore 7612
sanctions 7609
openly 7609
keys 7608
to-@@ 7608
Bridge 7608
deposits 7608
settle 7607
beside 7606
illustration 7605
Cri@@ 7603
wat@@ 7601
deb@@ 7596
cutting 7594
st-@@ 7589
iled 7589
counterpart 7587
Whoever 7584
Dhar@@ 7582
Pilot 7582
chase 7577
disciple 7574
rage 7570
men@@ 7569
Cant 7567
Paswan 7566
Yeddyurappa 7565
abundance 7563
frequent 7561
Pu@@ 7559
DRDO 7558
opinions 7558
MSMEs 7555
Greater 7552
Authorities 7551
accomplish 7550
Cut 7549
Ex-@@ 7548
emerge 7547
clock 7546
MD 7544
Sam 7543
Really 7542
Chin@@ 7542
testimony 7540
circulated 7539
ase 7537
1990 7537
syn@@ 7536
confused 7536
Dalit 7536
Ansari 7535
shirt 7534
Saini 7534
Marketing 7533
Microsoft 7531
cleaning 7529
scuffle 7529
hid 7528
bags 7528
horse 7527
reverse 7527
Swamy 7526
00,000 7522
forwarded 7520
BJD 7518
new@@ 7516
detention 7516
heav@@ 7513
establishments 7511
Gulf 7510
threatening 7509
Bhubaneswar 7508
auspicious 7506
tent 7505
Partnership 7504
Cap@@ 7504
Territories 7504
accepting 7503
mobil@@ 7503
Distribution 7501
NR@@ 7501
releasing 7501
nutrition 7499
Allu 7498
feeding 7497
halt 7497
ref@@ 7496
Fre@@ 7494
occupation 7494
cour@@ 7493
Clearly 7493
cr 7492
wala 7490
ful@@ 7488
teaches 7487
abilities 7487
laying 7486
guys 7486
riches 7485
findings 7480
Raksha 7480
choices 7476
clause 7476
31st 7476
aring 7475
shots 7474
divisions 7473
sam@@ 7473
eting 7471
Jayanti 7471
tasks 7471
companions 7470
6th 7467
overnight 7466
palace 7466
cha 7465
commence 7464
Andaman 7462
bol@@ 7462
Owaisi 7462
Repeat 7461
committees 7461
MO@@ 7458
dar@@ 7457
Shivakumar 7457
Brah@@ 7456
ambulance 7456
Remove 7454
Date 7453
201@@ 7451
privacy 7447
distinct 7445
rang@@ 7444
hat@@ 7443
Tharoor 7442
IA@@ 7438
Active 7437
brilliant 7437
alia 7437
110 7436
tight 7436
8th 7436
repeat 7434
demonstration 7434
inter-@@ 7433
undertake 7432
likewise 7430
vers 7429
sof@@ 7428
wilderness 7427
Gre@@ 7426
Tim@@ 7425
assumed 7425
Filmfare 7423
females 7423
Javed 7423
vary 7422
oph@@ 7422
Method 7422
cheating 7419
coconut 7419
Rate 7415
Prem 7414
roots 7413
praying 7413
Gardens 7413
assaulted 7413
weakness 7411
pop@@ 7408
Asi@@ 7404
reli@@ 7404
1914 7403
notable 7402
T-@@ 7400
Box 7398
she@@ 7397
manufacturer 7395
Hockey 7395
precautions 7391
Tripathi 7388
itch 7384
discussing 7384
spec@@ 7384
row@@ 7380
asleep 7379
Sethupathi 7379
telecom 7378
Ven@@ 7378
mates 7377
pulses 7376
9th 7376
economies 7373
spar@@ 7373
Azam 7371
LE@@ 7370
Cell 7368
Library 7367
deficit 7366
butter 7366
05 7361
ects 7359
sounds 7358
Sania 7355
oning 7352
capability 7351
PC@@ 7349
conclude 7349
eth@@ 7345
Harry 7344
highlight 7343
Promotion 7341
donated 7339
Jr 7339
Egyptian 7337
dancing 7337
Bhawan 7333
oh@@ 7333
fate 7333
pursuing 7331
low@@ 7328
Close 7327
athletes 7326
siblings 7326
lau@@ 7325
aked 7325
contemporary 7324
liver 7321
violating 7321
gaon 7320
compl@@ 7318
settings 7316
custom 7315
ple@@ 7314
Wh@@ 7314
violated 7313
Maulana 7313
Hooda 7312
Kon@@ 7310
tam@@ 7310
fold 7309
ared 7307
23@@ 7307
ately 7305
instruments 7302
magazines 7301
Pension 7297
olive 7297
Dileep 7296
resurrected 7294
Mos@@ 7293
Moscow 7291
warns 7290
agents 7289
pillars 7289
Lot 7288
drought 7288
setup 7287
legendary 7287
literally 7283
eful 7283
resist 7282
1947 7280
TB 7279
doubles 7278
Heart 7277
uda 7275
ideology 7275
Works 7274
permit 7274
shi 7274
expecting 7273
consistent 7272
erupted 7271
lunch 7270
Chairperson 7270
Prab@@ 7270
truths 7269
Ras@@ 7268
Learn 7265
Suk@@ 7265
flooded 7265
offerings 7264
remand 7264
akumar 7260
blo@@ 7259
MC@@ 7259
HRD 7259
conviction 7258
rows 7257
recording 7257
oming 7257
alike 7256
puri 7256
tall 7255
Charles 7253
Way 7252
recognise 7251
ective 7250
avi 7249
dominated 7248
stringent 7248
Sm@@ 7246
measured 7243
disputed 7240
elaborate 7239
badminton 7238
input 7237
Bush 7237
onic 7235
Patiala 7235
heart@@ 7234
Met@@ 7234
Reports 7233
refuse 7232
Sub-@@ 7231
dairy 7229
eliminate 7228
exclusive 7228
dered 7228
switched 7227
Forgiving 7227
negligence 7226
usion 7225
pushed 7223
Sundar 7223
Hinduism 7222
thorough 7220
pos@@ 7220
akar 7220
pressed 7219
compromise 7219
Rio 7219
summoned 7215
integration 7215
R.@@ 7213
Cam@@ 7211
shopping 7211
Knight 7211
tries 7211
adverse 7209
aviation 7209
da@@ 7208
Mel@@ 7207
Alok 7206
Sukhbir 7205
Madrid 7204
compete 7203
Raina 7203
install 7201
mayor 7200
a. 7200
Likewise 7199
yam 7198
departed 7196
agent 7196
Saty@@ 7195
Bhag@@ 7193
institutional 7191
missions 7191
northeast 7190
Ta@@ 7190
mak@@ 7190
Always 7187
Bud@@ 7186
ki@@ 7185
teeth 7185
sible 7183
Chinas 7183
heated 7181
talented 7181
punish 7179
messenger 7178
Tribunal 7177
Kartik 7173
lifetime 7171
Godavari 7171
rush 7171
Hamid 7170
shouted 7166
reporting 7165
aks 7165
ambassador 7164
identification 7163
reminded 7162
k-@@ 7162
corona 7162
Heritage 7161
Cop@@ 7161
versions 7158
associates 7158
bitter 7157
closing 7154
triple 7153
Deol 7153
Making 7151
1993 7151
CD 7149
Television 7149
alli@@ 7145
celebrates 7144
slams 7144
beach 7141
Messengers 7141
Siddiqui 7141
processor 7136
Pradeep 7135
evolution 7133
twelve 7132
ven@@ 7128
Kav@@ 7126
unclear 7125
Drinking 7124
cited 7124
Can@@ 7124
raises 7123
part@@ 7123
sin@@ 7121
loaded 7121
fri@@ 7120
10th 7119
Wi@@ 7119
Asif 7118
apuram 7118
ras 7117
Operation 7116
commodities 7115
lal 7113
past@@ 7113
day@@ 7112
th-@@ 7111
Bus 7110
motorcycles 7110
examining 7109
periods 7108
federal 7108
crazy 7107
at-@@ 7107
economics 7107
Greece 7107
hotels 7106
differently 7102
ides 7102
Especially 7099
stating 7099
Unable 7095
eighth 7095
negotiations 7093
ashed 7092
SAW 7092
Christ@@ 7089
Rajkumar 7089
loud 7088
ocean 7088
Messi 7088
1992 7087
Flo@@ 7086
speedy 7086
Mam@@ 7083
sel@@ 7083
communications 7082
Malaika 7082
amp@@ 7080
Chancellor 7080
crossing 7078
Gambhir 7078
11@@ 7077
electro@@ 7077
denies 7075
Ze@@ 7074
mol@@ 7074
passion 7073
aik@@ 7073
financing 7073
delegates 7072
Examination 7071
queries 7070
lov@@ 7070
ny 7069
separately 7066
bars 7064
Direct 7063
ik 7061
flo@@ 7061
Ur@@ 7061
instances 7061
onwards 7058
gam@@ 7057
Chavan 7056
armies 7055
Tab@@ 7054
clinical 7054
appoint 7053
submission 7052
1994 7050
websites 7047
Sanjeev 7047
rivals 7046
scooter 7045
Province 7044
-to-@@ 7042
Gilead 7041
monitored 7041
all-rounder 7041
goodness 7040
Kaushal 7040
author@@ 7039
Electric 7037
Official 7037
pose 7037
ICU 7034
politically 7033
una 7033
assure 7032
Nic@@ 7030
9-@@ 7030
technological 7030
mad 7029
backward 7029
Governing 7028
mandate 7026
interior 7026
rendering 7025
Rak@@ 7024
existed 7024
adjoining 7023
meter 7019
hailed 7017
sat 7017
Treatment 7015
thick 7011
pertaining 7011
dam@@ 7011
Ve@@ 7010
Scripture 7009
deemed 7007
Okay 7006
ascertain 7004
spl@@ 7004
cordoned 7003
signal 7002
enterprises 7002
societies 7001
inate 7001
Little 6999
Portuguese 6998
expanding 6997
wari 6996
funded 6995
productive 6994
ink 6993
way@@ 6992
scores 6991
Boo@@ 6991
rejects 6989
objection 6988
computers 6988
HIV 6987
lak@@ 6987
finalised 6986
sters 6986
orange 6984
manufacturers 6981
T. 6981
S-@@ 6979
Violence 6979
homage 6978
Saf@@ 6978
chargesheet 6977
Story 6976
PE@@ 6975
burned 6975
aa 6975
mood 6974
ever@@ 6974
fer@@ 6973
electrical 6971
Chauhan 6970
All@@ 6966
functional 6963
Nature 6962
Pras@@ 6962
Hon 6961
naturally 6961
audiences 6961
cloud 6960
confirm 6960
Harbhajan 6960
chastisement 6957
governing 6955
160 6955
Birth 6955
bestowed 6955
Shreyas 6954
weekly 6953
egg 6953
Karachi 6953
arose 6951
boats 6951
vacation 6950
ental 6949
three-match 6948
IL 6945
chillies 6945
analy@@ 6943
Federal 6942
alias 6942
improves 6941
smiled 6941
sen 6940
alerted 6939
probed 6937
martyrs 6933
rit@@ 6932
play@@ 6931
ron 6930
Manchester 6929
Ever 6928
narrow 6928
aming 6927
Hem@@ 6927
Tra@@ 6922
resort 6919
assi@@ 6918
constable 6916
rain@@ 6916
Amethi 6915
crashed 6913
Desai 6913
AIDS 6911
Vish@@ 6910
aren 6910
acquire 6909
abide 6908
ached 6906
ISIS 6906
And@@ 6903
license 6902
consisting 6896
pioneers 6894
ecosystem 6893
Milk 6892
Tu@@ 6891
laughed 6888
Jal 6885
oriented 6885
criticized 6882
illing 6881
deteriorated 6879
clouds 6877
Bir@@ 6874
rebel 6873
whosoever 6872
credited 6871
Comm@@ 6871
Ric@@ 6871
gle 6870
ella 6870
enforcement 6870
kmph 6870
Suddenly 6869
kin@@ 6869
Fear 6868
torture 6867
machinery 6867
defense 6866
Protest 6863
bha@@ 6862
apology 6861
Raman@@ 6860
amendments 6860
Enforcement 6860
Masood 6859
flower 6859
constitute 6854
rence 6853
suspicious 6852
Qualification 6851
automatically 6850
ep 6850
rating 6850
inclusion 6849
Electricity 6849
eaten 6848
finals 6848
lamp 6847
wings 6847
Eden 6846
boards 6844
draws 6841
cooperative 6841
liber@@ 6840
Final 6839
gm 6837
Mani@@ 6836
Lieutenant 6836
Districts 6830
disappeared 6828
hopeful 6827
statistics 6826
Rat@@ 6825
Gorakhpur 6822
bad@@ 6822
Medium 6820
pistol 6820
outer 6819
entr@@ 6819
distinguished 6818
Bol@@ 6818
priorities 6817
Cinema 6816
Garden 6815
readers 6815
pitch 6815
Houses 6813
mortuary 6811
subjected 6809
Anti-@@ 6808
nuts 6805
wills 6805
consuming 6802
Sath@@ 6801
Shinde 6800
Bhai 6799
Fortunately 6797
Toyota 6797
presidents 6796
attracted 6795
Scientists 6795
accorded 6792
foreigners 6792
Certificate 6791
anxious 6791
Bench 6791
countrymen 6790
pacer 6788
rolled 6787
nurses 6786
bal 6782
Ajinkya 6781
dge 6780
womans 6779
Results 6776
burst 6775
stern 6773
person@@ 6772
ll@@ 6770
ASEAN 6770
caring 6767
oot 6767
walks 6767
year@@ 6765
suspicion 6765
theatres 6765
differ 6763
afterwards 6762
commander 6761
dist@@ 6759
maiden 6759
retain 6758
cow@@ 6758
checking 6756
sorrow 6754
Lim@@ 6754
preferred 6753
disabled 6752
labor 6752
Talk 6751
notices 6750
Dil 6750
sou@@ 6749
apprised 6747
Dem@@ 6747
hoping 6744
heroine 6744
consume 6741
ori 6741
profits 6740
law@@ 6737
deity 6736
Scientific 6734
Saeed 6733
stor@@ 6733
Administrative 6732
prevailing 6732
aug@@ 6732
UT@@ 6732
Ayushman 6732
Beijing 6731
sample 6730
Arabian 6730
bo 6729
ceasefire 6728
tation 6727
cyber 6725
raid 6725
males 6724
ano 6723
deleted 6720
awaiting 6720
fires 6719
procession 6719
sar@@ 6719
Residents 6718
Alam 6718
neighbor 6717
requests 6715
Prior 6713
long@@ 6712
Exc@@ 6712
treasure 6711
Minimum 6710
halted 6710
string 6709
Diesel 6708
Hari 6708
ae 6707
Nil@@ 6707
bone 6707
nervous 6706
maker 6706
Taiwan 6706
Living 6702
aut@@ 6701
Dur@@ 6700
op 6700
short@@ 6700
ough 6699
longest 6697
Empowerment 6694
enormous 6694
.The 6694
aded 6693
kha 6692
del 6691
Sukh@@ 6691
Process 6689
associations 6688
Bhansali 6687
sub-section 6686
Statistics 6685
liquid 6685
2020-21 6685
Harris 6683
menu 6681
UP@@ 6681
aire 6680
Unity 6679
dubbed 6677
consumed 6676
Account 6676
Self 6675
SU@@ 6675
cos@@ 6674
circulation 6673
raping 6673
closure 6673
ders 6671
presents 6671
broad@@ 6670
formula 6670
rallies 6670
Dutta 6670
mu@@ 6669
fu@@ 6668
interfere 6666
lauded 6665
thor@@ 6664
aggressive 6663
ET 6663
hole 6662
Ludhiana 6661
Prashant 6660
Airways 6659
Kot@@ 6658
KS 6656
BA 6656
missionaries 6655
manifesto 6654
ear 6654
Pul@@ 6654
basically 6653
Sagar 6650
Kumari 6649
jets 6647
overseer 6645
Knowledge 6641
1989 6639
900 6636
Ho@@ 6635
feat 6634
.com 6634
smartphones 6634
ranging 6632
PMO 6630
Bat@@ 6630
Abhiyan 6626
girlfriend 6625
churches 6624
yard 6623
On@@ 6622
Prof 6621
kh 6620
curb 6618
supervision 6618
ea 6613
intellectual 6613
richest 6611
preached 6610
planted 6609
Pankaj 6608
ater 6607
Actually 6604
Capt 6604
inspector 6602
Dep@@ 6601
cares 6601
evacuated 6601
gross 6601
Cross 6601
Ten 6600
Zone 6600
Rev@@ 6599
Tokyo 6598
Ga@@ 6598
Nifty 6598
lips 6597
Cook 6597
laughing 6596
Sunrisers 6595
ate@@ 6593
jurisdiction 6593
DG@@ 6593
disturbed 6592
spared 6590
allied 6590
Ah@@ 6588
quarters 6588
exercises 6587
transform 6586
Airlines 6586
Vik@@ 6586
attacking 6585
prosecution 6585
reflects 6584
09 6584
nights 6584
Mayank 6583
stroke 6582
quake 6579
manufacture 6578
Hun@@ 6578
Snapdragon 6578
endurance 6577
utmost 6577
yal 6577
uck 6576
intelligent 6575
Nor 6575
Mysore 6573
wheels 6572
featuring 6569
aga 6569
Vivekananda 6568
Shak@@ 6568
fifty 6567
Tagore 6566
excess 6565
pilots 6564
mindset 6561
Red@@ 6561
texts 6560
rac@@ 6557
Days 6557
port@@ 6556
salute 6553
Sup@@ 6552
DG 6551
apprehended 6551
wheel 6550
Nay@@ 6550
long-@@ 6549
dominant 6548
imported 6547
flagship 6547
Ly@@ 6546
uploaded 6544
spinner 6543
Physical 6540
Thane 6540
commandments 6539
interact 6537
ba@@ 6537
franchise 6536
transaction 6535
20-@@ 6534
11,@@ 6533
unite 6529
lawful 6528
planes 6528
clarity 6527
fun@@ 6527
Py@@ 6527
le-@@ 6522
Stock 6522
partition 6521
jawan 6521
ce@@ 6520
broadcast 6519
ows 6518
11th 6516
shaped 6514
ly-@@ 6513
masses 6512
enabling 6512
ju 6512
span 6511
intervene 6511
chiefs 6511
proceed 6510
PNB 6510
Mom@@ 6509
G. 6509
scriptures 6508
Mughal 6508
containment 6506
Mir 6505
wr@@ 6503
Yemen 6501
compliance 6501
municipality 6501
mortality 6499
spots 6499
Ravichandran 6499
Wil@@ 6498
bud@@ 6497
distinction 6497
relates 6496
ologists 6494
technique 6493
Territory 6492
Advisory 6492
Gra@@ 6491
Junior 6488
cups 6488
counted 6486
Veteran 6483
designs 6481
Khattar 6480
gaining 6479
upright 6478
Richard 6478
hot@@ 6478
tra@@ 6477
ography 6476
drowned 6476
pink 6474
receipt 6473
BSNL 6469
Until 6467
affiliated 6466
traits 6465
douse 6464
ris@@ 6461
ader 6460
Nan@@ 6460
pledge 6459
voter 6459
Syrian 6459
Doval 6459
Vin@@ 6458
ool 6457
Ger@@ 6457
Chit@@ 6456
tab 6455
lar@@ 6455
commun@@ 6453
entities 6452
inputs 6452
Projects 6452
decreased 6452
Acharya 6451
break@@ 6451
tower 6451
mystery 6450
indra 6449
Records 6448
pull 6447
eager 6446
Dravid 6446
inations 6444
tion-@@ 6443
Goods 6442
failing 6442
topics 6442
Eventually 6440
collector 6440
concentration 6439
searched 6439
jumped 6439
formerly 6439
abundant 6438
truthful 6438
safeguard 6436
Div@@ 6435
End 6434
discharge 6433
Using 6433
flames 6432
rightly 6432
campaigning 6431
25,000 6430
Dutch 6430
voluntary 6429
Engineer 6429
first-@@ 6427
oon 6427
fairly 6425
ca@@ 6425
qualification 6423
commissioned 6417
Alex 6417
knock 6416
itt@@ 6416
cloth 6415
copper 6415
Polling 6413
Mid@@ 6413
iv@@ 6413
fierce 6412
junior 6411
iOS 6411
virtually 6409
selfish 6409
preserved 6409
2015-16 6409
dian 6409
hiding 6406
singles 6406
Farhan 6405
cough 6405
DP@@ 6404
restoration 6403
legislature 6401
parable 6401
Redmi 6400
struggling 6399
Coll@@ 6396
log 6395
tomatoes 6394
shepherd 6393
expressing 6392
robust 6392
coriander 6392
plying 6389
Palace 6389
win@@ 6388
specially 6388
Kapur 6388
'ble 6387
peacefully 6387
Corridor 6387
Mahajan 6386
completing 6386
attain 6385
P-@@ 6382
insight 6381
bore 6379
heights 6371
Assistance 6371
meanwhile 6367
entrusted 6366
Kumble 6365
Productions 6365
Registration 6364
angles 6363
tak@@ 6360
Dad 6359
iti 6359
Vidhan 6357
companion 6355
Ass@@ 6355
coin 6354
undertaking 6354
dol@@ 6353
unexpected 6353
ock 6353
oda 6352
Bipin 6352
high-level 6351
06 6350
exc@@ 6349
dly 6349
Belgium 6349
licence 6348
Sun 6346
widow 6345
RC@@ 6345
bears 6345
prospect 6344
Almighty 6344
Khand@@ 6344
circle 6344
shells 6344
Corruption 6343
Night 6341
capture 6339
cooked 6339
potatoes 6339
guides 6338
mut@@ 6337
Hill 6335
Husband 6335
Vicky 6335
shine 6333
Jamia 6333
desert 6332
Micro 6331
paired 6331
ray 6330
Dist@@ 6330
microSD 6330
gi 6329
POCSO 6328
Vidya 6328
bel 6327
Implementation 6326
legacy 6326
oli 6326
amy 6326
may@@ 6325
grandfather 6324
violations 6323
AB 6322
sum@@ 6321
Criminal 6321
ousness 6320
Disha 6319
Trains 6318
writings 6318
SI 6318
composer 6318
cat 6316
combine 6315
Economics 6315
propaganda 6313
suggestion 6312
pled 6310
throat 6307
Getting 6306
rebellion 6305
clay 6305
-India 6303
spare 6300
Directors 6299
hood 6299
tail 6296
Jos 6294
registering 6293
Gandhiji 6291
Hotel 6291
ection 6290
horses 6288
ambitious 6288
iah 6286
eps 6285
aves 6285
Mom 6284
Unto 6284
sand@@ 6283
blasts 6283
sinful 6282
eable 6281
Vladimir 6279
eling 6278
affecting 6278
Shall 6275
Star@@ 6274
sy 6273
BBC 6272
Sydney 6272
Naresh 6269
spr@@ 6269
Barcelona 6269
Riders 6267
fulfilling 6262
spir@@ 6261
mustard 6258
Vishal 6258
min 6257
mand@@ 6257
eman 6257
ankar 6256
30,000 6255
Someone 6254
IO@@ 6254
decrease 6254
cov@@ 6253
gunfight 6253
IANS 6253
Communications 6253
Galaxy 6253
Din@@ 6251
stic 6251
ounded 6247
ko 6246
somewhat 6245
yer 6245
chil@@ 6245
sch@@ 6244
inspection 6244
trophy 6243
Um@@ 6242
acute 6242
YSR 6242
io 6241
reception 6240
gies 6240
milestone 6239
Kenya 6238
grows 6238
communicate 6237
limitations 6236
fails 6235
nominations 6234
meaningful 6233
Nis@@ 6233
Scindia 6233
Siv@@ 6232
parallel 6231
varieties 6228
estimates 6226
Cy@@ 6226
regulatory 6225
hav@@ 6225
spirituality 6224
Different 6224
Ahead 6224
worshippers 6224
Portugal 6224
seasons 6224
Text 6222
alling 6222
characteristics 6221
08 6221
substance 6221
108 6220
4,000 6220
I-@@ 6220
DK 6220
Universities 6219
TE@@ 6219
D.@@ 6217
Visakhapatnam 6217
emo@@ 6216
HE@@ 6215
single-@@ 6215
Wing 6215
engineers 6214
care@@ 6214
ured 6212
cent@@ 6212
dynasty 6210
potato 6209
PCC 6208
tone 6207
trillion 6207
kilometers 6206
sing@@ 6205
Eid 6205
Systems 6204
Saj@@ 6204
wore 6204
Surjewala 6204
ells 6203
SE 6203
conflicts 6203
ections 6202
ja@@ 6201
cyclone 6200
Elijah 6198
sustain 6197
favourable 6197
excellence 6197
MG 6197
Bhagwat 6196
champions 6195
sole 6194
pling 6194
stuff 6193
Over@@ 6193
Sarah 6193
rinse 6192
Jahan 6192
Oman 6190
Nayanthara 6190
chat 6189
Ayurveda 6189
gener@@ 6189
ope 6188
Bil@@ 6186
spite 6185
experiment 6185
temporarily 6183
bold 6181
Hab@@ 6180
funny 6176
urges 6175
ural 6175
ord@@ 6174
104 6174
abe@@ 6174
sign@@ 6173
rend@@ 6173
swe@@ 6171
repentance 6170
thine 6169
og 6168
magnitude 6168
focusing 6166
aching 6165
materi@@ 6165
swear 6165
Flood 6164
pon@@ 6164
directing 6162
athy 6160
Regarding 6159
TO@@ 6159
Kodiyeri 6159
rub@@ 6158
Andrew 6158
ua 6155
distant 6154
dra@@ 6154
AF@@ 6152
encing 6150
owed 6149
ined 6148
loading 6147
Kap@@ 6147
India-Pakistan 6145
mon 6143
Anderson 6143
resh@@ 6142
Jayant 6142
Hum@@ 6141
ored 6141
Kargil 6141
typical 6141
Bring 6140
Leone 6139
NP@@ 6138
HS 6138
haran 6137
Crown 6136
Malappuram 6135
SAD 6135
ov 6135
overwhelming 6134
Kiara 6134
colourful 6133
prefer 6132
vessel 6132
Kollam 6130
construct 6130
Sin@@ 6130
Irrfan 6127
ME 6126
NGOs 6126
inspiring 6125
drunk 6123
sion@@ 6122
Rajinder 6122
sup@@ 6119
Referring 6118
approaching 6118
Population 6118
paintings 6118
robbery 6118
rig@@ 6116
Graduate 6116
brotherhood 6115
Raman 6115
ave 6115
Los 6115
tioning 6112
Message 6112
astr@@ 6111
earning 6110
awa 6110
treating 6110
ICMR 6107
stored 6106
Going 6106
bbl 6106
tidings 6104
MSP 6104
poll@@ 6103
neighbors 6101
lists 6100
Cooperative 6096
eta 6096
DC@@ 6096
path@@ 6095
Medal 6095
16th 6094
lin@@ 6093
styles 6092
aches 6091
Nigeria 6091
Dor@@ 6089
valued 6089
asset 6089
disposal 6087
IRCTC 6087
Benjamin 6086
Panchayats 6084
posters 6084
steady 6083
Aggarwal 6083
Denmark 6082
Tk 6082
Anti@@ 6081
backing 6078
lab 6077
Kum@@ 6076
motor@@ 6075
roll@@ 6075
stabbed 6072
Id 6072
128 6072
Sisodia 6070
Create 6069
low-@@ 6068
Sehwag 6067
err@@ 6065
contributing 6064
Jet 6064
rehabilitation 6063
representation 6063
Chicago 6063
stunning 6062
cultivation 6061
lock@@ 6060
MoS 6059
inform@@ 6058
Sik@@ 6057
pay@@ 6055
consciousness 6054
Ms. 6054
enables 6053
14th 6053
poem 6052
pot 6052
discovery 6051
theyre 6049
graduated 6047
flash 6046
02 6043
Tro@@ 6043
rian 6042
Param@@ 6042
inspire 6041
Ek@@ 6039
surfaced 6038
canal 6038
thir@@ 6036
power@@ 6035
ade@@ 6035
lighting 6034
infant 6030
sometime 6029
Representatives 6027
disasters 6027
rid@@ 6027
gen 6027
anyway 6026
extending 6026
Terrorism 6025
knife 6024
fro@@ 6023
bikes 6022
Jaya 6022
resume 6021
onal 6021
Philippians 6019
07 6019
ty-@@ 6019
itting 6018
directorial 6018
Almost 6017
VP 6016
convert 6016
Honey 6016
reserve 6014
relate 6011
vir 6011
hiked 6010
warrant 6010
Type 6009
Van@@ 6009
ech 6008
helicopter 6008
doers 6006
ome@@ 6004
C.@@ 6004
strategies 6003
Axis 6003
anagar 6001
tru@@ 6000
Bro@@ 5998
Taylor 5996
iya 5995
stance 5995
shameful 5994
Birthday 5994
Cas@@ 5994
Democracy 5994
Finch 5994
Madan 5992
loses 5991
entity 5990
irs 5990
rup@@ 5988
Stephen 5987
jump 5987
6,000 5987
speeches 5986
Pon@@ 5984
paise 5984
Minority 5984
troubled 5983
Jackson 5982
neg@@ 5980
xed 5979
laboratory 5979
exposure 5979
charity 5978
harsh 5978
Notice 5977
half-@@ 5977
Wheres 5976
nowhere 5976
voices 5974
Siddharth 5974
etc. 5973
phenomenon 5972
Om@@ 5972
140 5971
expressions 5970
restaurant 5970
assailants 5970
Ground 5967
litres 5967
descendants 5966
prosperous 5966
recommendation 5966
Certainly 5964
lia 5964
de-@@ 5963
Mic@@ 5963
encies 5963
Sak@@ 5961
calamity 5959
Dil@@ 5959
poured 5959
Kailash 5959
Nicobar 5958
parameters 5958
curse 5957
robbers 5957
bereaved 5956
provisional 5956
keeper 5955
Excellency 5955
actresses 5955
Subramanian 5955
believer 5954
Vehicle 5954
Thrissur 5953
mus@@ 5952
cam@@ 5952
boo@@ 5952
advisory 5951
cream 5950
2-0 5950
Maria 5949
vic@@ 5948
column 5946
ner@@ 5946
formally 5944
Said 5943
compulsory 5941
Revolution 5941
autonomous 5941
450 5941
thriller 5941
Quality 5940
discount 5940
buyers 5939
tech 5939
Ray 5939
Gayle 5939
metre 5938
commands 5937
hin@@ 5936
dre@@ 5936
similarly 5936
Dra@@ 5935
influential 5934
p-@@ 5934
privileges 5934
Williams 5934
Kishan 5934
App@@ 5934
Coun@@ 5934
cows 5933
titude 5932
duc@@ 5932
craft 5932
essing 5931
coins 5930
Bahrain 5927
Don@@ 5927
pursued 5927
Chandrayaan-2 5925
intent 5924
hospitality 5921
Pran@@ 5921
pers 5919
10,@@ 5919
abrogation 5918
sinners 5917
logical 5917
dip 5916
Lt 5914
salaries 5913
school@@ 5912
criteria 5912
reminder 5912
HO@@ 5911
inhabited 5911
teenth 5909
physics 5907
defamation 5907
Narasimha 5907
Anyone 5906
ith@@ 5906
compound 5906
Cummins 5906
Bra@@ 5905
03 5905
survival 5905
segments 5904
regards 5903
dozen 5903
Tor@@ 5903
wildlife 5902
Whom 5902
Testing 5901
levelled 5901
supremo 5899
tri 5898
Aw@@ 5898
tractor 5898
heroes 5897
mathematics 5892
Krishn@@ 5892
Nir@@ 5891
Rule 5891
surge 5890
merged 5888
Gal@@ 5888
NH@@ 5887
ound@@ 5886
Address 5884
Deep@@ 5884
prevailed 5884
ania 5879
approaches 5878
alleging 5876
Colombo 5876
Marshal 5875
Banking 5874
Presidential 5874
Looking 5873
counter@@ 5872
uru 5871
ker@@ 5871
factories 5871
150th 5870
spectrum 5869
Bs 5868
ulate 5868
Export 5867
pressing 5865
ult 5865
destinations 5865
Choudhary 5864
Lam@@ 5861
Bahujan 5861
14.@@ 5859
miracle 5858
Interest 5858
profound 5858
uded 5857
Hom@@ 5857
progressing 5857
Failed 5856
Ukraine 5856
empire 5855
beneath 5853
Rud@@ 5850
lik@@ 5849
Nawab 5849
duration 5848
deeper 5848
filling 5847
amenities 5846
discreet 5844
Commercial 5844
Winter 5844
estimate 5843
database 5842
somebody 5842
18th 5840
Sou@@ 5839
s' 5838
1950 5838
attraction 5838
ul-@@ 5837
resumed 5836
Republican 5835
Poland 5833
ony 5833
750 5832
bodys 5830
arises 5829
Kharge 5828
annum 5827
dict@@ 5827
premier 5827
Off@@ 5826
Lady 5826
reserves 5825
To@@ 5824
fantastic 5824
structural 5822
Russell 5821
Sales 5820
disclose 5819
need@@ 5818
IMD 5818
tomato 5817
Week 5815
Drug 5814
inary 5814
Misra 5814
arriving 5813
palm 5812
Oxford 5812
Chan@@ 5811
one@@ 5810
uprooted 5809
L. 5809
lat@@ 5808
Clinton 5808
swimming 5807
misleading 5807
lig@@ 5807
Fisheries 5805
justified 5805
15,000 5804
Dav@@ 5803
DSP 5803
kits 5800
sid@@ 5800
unnecessary 5799
Sawant 5798
ashi@@ 5798
Nad@@ 5798
cheaper 5797
fours 5797
Schedule 5796
ame@@ 5795
fined 5794
consequence 5794
pel 5791
weekend 5790
M.@@ 5790
Sangh 5789
DO@@ 5789
nominee 5789
sq 5788
sar 5787
AICC 5787
gearing 5786
Naqvi 5784
abs 5783
ultimate 5783
contingent 5782
adv@@ 5779
Kalam 5778
Millions 5777
Imagine 5776
Bagh 5775
rituals 5774
impose 5774
proven 5773
Tihar 5773
sporting 5773
Baahubali 5772
shadow 5770
apparent 5770
Ish@@ 5770
wk 5769
thin 5768
deposited 5767
1984 5767
Mol@@ 5767
campaigns 5765
circular 5765
breakfast 5765
conventional 5764
Md 5764
deaf 5763
gang@@ 5763
ares 5762
Gospel 5760
intr@@ 5759
extends 5759
solidarity 5759
Keeping 5758
04 5758
uous 5757
third-@@ 5755
Salt 5755
mul@@ 5754
trucks 5754
Pat 5753
Boney 5752
hunt 5751
Mari@@ 5750
sacrificed 5749
Kedarnath 5748
BMW 5748
dep@@ 5747
tains 5747
hectares 5747
undergo 5746
Pot@@ 5746
Bhu@@ 5746
breach 5745
cousin 5744
withdrew 5744
cop 5743
obviously 5742
ried 5742
ford 5742
odi@@ 5741
well-being 5739
grap@@ 5739
assume 5739
Delhi-@@ 5739
eas@@ 5738
Umar 5737
SCO 5735
Pen@@ 5731
warnings 5730
BY 5730
magistrate 5729
steadily 5727
bother 5727
speakers 5726
ren 5726
OK 5725
Learning 5724
Mulayam 5723
contacts 5721
pack 5721
excessive 5721
garments 5718
Signs 5717
Bedi 5717
Flipkart 5717
expertise 5716
Barack 5716
stays 5715
unbeaten 5714
guns 5714
transformed 5713
restaurants 5713
Chakraborty 5712
ib 5712
airlines 5712
Electronic 5711
Program 5711
meditation 5711
and-@@ 5711
Shakib 5711
Phase 5709
scattered 5709
lim@@ 5709
Manju 5709
deprived 5708
lining 5708
Song 5708
INS 5707
artificial 5706
protocol 5705
Plant 5705
inity 5704
Features 5704
operates 5702
wicketkeeper 5702
Sidharth 5702
Immediately 5701
1972 5700
Kher 5700
presenting 5699
cheap 5699
Admiral 5699
consensus 5698
Nik@@ 5698
elec@@ 5697
booth 5697
asha 5693
helper 5692
generous 5691
traced 5691
Nehwal 5691
Books 5689
varied 5689
Important 5689
MP@@ 5688
Strategic 5687
Jav@@ 5687
utes 5687
bans 5687
bon@@ 5687
Nay 5687
repent 5685
seminar 5684
rarely 5683
ben@@ 5683
Fr@@ 5682
dealings 5681
Except 5681
acknowledge 5680
Chandrasekhar 5680
resses 5679
ima 5678
Ghaziabad 5678
posing 5677
Unlike 5676
Dam 5676
Liberation 5676
Hand@@ 5675
Sev@@ 5674
removing 5673
Jalandhar 5672
imm@@ 5671
uniform 5671
A-@@ 5670
trap 5670
Consul@@ 5670
Lee 5670
historian 5669
predic@@ 5668
13.@@ 5668
St 5668
Prem@@ 5668
Berlin 5667
Bobde 5667
Operations 5666
Rajkot 5665
kidney 5665
saddened 5665
sickness 5664
aci@@ 5663
ety 5662
ras@@ 5662
extensively 5662
Kand@@ 5661
draw@@ 5661
1988 5661
classified 5660
legally 5656
E. 5655
Hos@@ 5654
wor@@ 5654
Musharraf 5654
regulation 5653
Khar@@ 5653
immigrants 5652
NASA 5652
lit 5651
offences 5650
searches 5650
vegetable 5647
garbage 5646
noble 5645
Tom@@ 5641
streams 5641
hygiene 5640
pes 5640
T20 5639
house@@ 5638
e- 5638
offensive 5637
MR@@ 5637
second-@@ 5637
Fran@@ 5634
Fertilizers 5633
childrens 5633
Boy 5632
inundated 5631
jar@@ 5631
ruin 5630
Kashyap 5627
Kumar@@ 5626
ians 5625
Bec@@ 5624
tiny 5624
respiratory 5624
renamed 5624
parks 5624
Visit 5623
diverted 5623
Amrita 5622
Cent@@ 5621
pilgrimage 5620
let@@ 5619
Akash 5619
tropical 5617
hostel 5615
demons 5614
Den@@ 5614
lin 5614
revelation 5612
Hospitals 5611
Palestinian 5611
maj@@ 5610
Governors 5610
aving 5608
Grievances 5608
upheld 5607
publishing 5606
IM 5605
Colossians 5604
aman 5604
Priya 5604
ayan 5603
Net@@ 5602
para 5600
ova 5600
Sit@@ 5600
Wait 5599
traveled 5597
Travel 5596
waiver 5594
Exp@@ 5593
Wat@@ 5593
championship 5590
Deuteronomy 5590
Jack 5590
Pow@@ 5590
Wales 5589
Bod@@ 5589
worldly 5588
tolerate 5588
Gavaskar 5588
wouldn 5588
Bap@@ 5587
Whose 5587
Future 5587
du 5587
Rab@@ 5586
Degree 5586
Pari@@ 5585
beg@@ 5585
Root 5584
hes@@ 5583
Chemicals 5583
sanctuary 5582
Move 5581
Already 5580
shoes 5580
whis@@ 5578
developmental 5577
controversies 5577
dynamic 5576
bothered 5576
Amar 5576
fting 5574
Antony 5573
Guest 5571
Religion 5569
experiencing 5569
outlook 5568
embassy 5568
Sidd@@ 5567
fluid 5567
Sustainable 5566
Adv@@ 5565
chemistry 5565
Pink 5565
finely 5564
petroleum 5563
hitting 5562
Hearing 5562
guess 5561
Navdeep 5560
Prithviraj 5559
incredible 5558
Highlights 5557
Kann@@ 5557
doub@@ 5556
V.@@ 5556
Liber@@ 5556
Pujara 5556
delivering 5555
exchanges 5554
ods 5552
Part 5551
Sarkar 5551
Alo 5551
revoked 5550
washing 5550
Processing 5549
BJP-led 5549
lovely 5548
Ranjit 5548
batch 5548
Stat@@ 5547
Bar 5547
Baj@@ 5545
immoral 5545
onda 5545
hails 5543
retaliated 5543
Angeles 5543
Kajal 5542
17th 5541
Sk@@ 5540
convenient 5540
Moh@@ 5540
Inv@@ 5538
alled 5537
argue 5536
ome 5535
posting 5535
touching 5535
Balakrishnan 5534
Oberoi 5532
ich 5532
preparedness 5531
array 5530
screened 5530
Strong 5529
wani 5529
ownership 5529
marine 5528
Es@@ 5527
adoption 5526
jam 5524
De 5524
ote 5521
Afridi 5521
wan@@ 5519
damages 5519
Kad@@ 5519
stopping 5518
sis 5518
Sanju 5518
invested 5517
aud@@ 5517
Mark@@ 5517
disorder 5516
necessarily 5516
Lar@@ 5516
twin 5515
urg@@ 5515
show@@ 5513
eded 5512
feedback 5512
Pas@@ 5511
decides 5511
attributed 5511
tops 5510
rolling 5507
citing 5507
width 5506
Complex 5506
Prot@@ 5506
Telecom 5506
alistic 5503
emi@@ 5503
bleeding 5501
belt 5501
southwest 5500
eva 5500
fic@@ 5499
mounted 5499
it-@@ 5499
bath 5497
Launched 5497
30th 5496
ired 5495
dried 5495
Rajapaksa 5495
popul@@ 5493
kindly 5492
wooden 5491
ION 5490
expresses 5489
finest 5489
Nana 5489
arising 5488
mac@@ 5488
Rah@@ 5488
Grover 5488
provinces 5487
ze@@ 5486
Hindutva 5486
empower 5483
kms 5483
chlor@@ 5483
desirable 5482
sorts 5482
crown 5482
showcase 5482
fire@@ 5482
Qur 5482
flu 5479
fur@@ 5478
Xiaomi 5478
ect@@ 5477
livestock 5477
Edition 5475
Exercise 5475
mourning 5473
Classes 5473
engaging 5473
targeting 5471
guru 5470
akk@@ 5469
refuses 5469
asc@@ 5469
itor 5469
bacteria 5469
Ecclesiastes 5467
Metropolitan 5467
osis 5467
bombs 5466
conductor 5464
hus@@ 5464
Ray@@ 5464
Prothom 5464
dro@@ 5463
confined 5463
ca 5463
Shilpa 5463
Colin 5463
outs 5462
Institutes 5461
Anniversary 5460
OD@@ 5460
Religious 5458
yo@@ 5458
nationalism 5455
errors 5455
recompense 5455
EE@@ 5455
ero 5454
Shoaib 5453
queen 5452
Summer 5452
inst@@ 5450
expectation 5450
Nanda 5450
Pokhriyal 5449
considerably 5447
briefed 5447
unclean 5446
controlling 5445
cri@@ 5445
exclusively 5445
dness 5443
eye@@ 5443
satellites 5442
worshipers 5441
Fo@@ 5440
meantime 5440
murders 5439
ions 5438
Vigilance 5438
Water@@ 5438
Command@@ 5438
Bot@@ 5438
bh@@ 5438
INX 5438
semi-final 5437
ML 5436
Shekhar 5436
forum 5434
Lakhs 5434
119 5433
Minor 5433
well-known 5433
Upazila 5432
assembled 5431
Photos 5430
overseers 5429
roc@@ 5429
Raipur 5428
ait 5427
Uni@@ 5425
elite 5424
tia 5424
holder 5424
eous 5423
swearing-in 5423
arity 5422
Ministerial 5421
Atomic 5421
Laughter 5421
akes 5420
healing 5420
cast@@ 5420
exceptional 5420
T20Is 5420
enmity 5419
ck@@ 5418
par 5417
cave 5416
trav@@ 5416
pap@@ 5415
Congress-@@ 5415
grey 5414
Jonathan 5413
progressive 5412
obligation 5412
Victoria 5410
UNESCO 5409
Beh@@ 5409
pel@@ 5408
realistic 5407
goddess 5407
Experts 5407
satisfying 5406
tis@@ 5406
perception 5406
5000 5406
magnetic 5406
Cauvery 5406
YSRCP 5404
chapters 5403
-day 5403
authorized 5401
prot@@ 5401
ck 5400
entary 5400
uding 5399
Det@@ 5395
configuration 5394
victorious 5394
loose 5392
ples 5390
inclined 5389
Phone 5389
smell 5388
Scotland 5388
Awareness 5387
sequence 5387
assassination 5386
Northeast 5385
naval 5385
1,0@@ 5384
sex@@ 5384
Buttler 5384
earmarked 5383
Mr.@@ 5383
insti@@ 5382
Rai@@ 5382
hang@@ 5381
Yash 5381
switch 5380
Truly 5380
hard@@ 5380
ied 5379
muscles 5378
Ayushmann 5378
viol@@ 5376
aqu@@ 5376
assisted 5376
ble@@ 5375
contempt 5374
Turmeric 5372
cel@@ 5372
rated 5370
insult 5368
Seeing 5366
Years 5366
mainstream 5366
legislator 5366
collections 5365
ministries 5364
Morgan 5364
extr@@ 5363
corn 5363
Sid@@ 5363
conversion 5361
economically 5361
migration 5361
Growth 5359
Excise 5359
Pramod 5358
NPR 5358
multitude 5358
Vijayawada 5358
Ind@@ 5356
zer 5356
hoo@@ 5356
opponents 5356
conversations 5353
preventive 5353
Governance 5352
pli@@ 5350
ad-@@ 5350
Shops 5349
ancing 5348
appeals 5347
Current 5345
thirty 5345
ician 5345
honours 5345
admonition 5344
losers 5343
cluster 5341
neighbourhood 5341
superintendent 5341
tract 5340
osing 5339
Ancient 5339
generating 5339
Biden 5339
KPCC 5339
founding 5338
Gil@@ 5338
pac@@ 5338
prince 5338
landmark 5338
Sibal 5337
wronged 5337
Hour 5336
pot@@ 5336
oor 5335
graduation 5334
decent 5333
Madh@@ 5331
Short 5331
rewarded 5329
pit 5329
eled 5328
BE 5328
marriages 5327
Passengers 5327
Run 5326
visual 5326
virtue 5326
Ward 5326
wickedness 5324
fs 5324
havoc 5324
Saint 5323
Boys 5322
ar-@@ 5322
TP 5321
Deli@@ 5321
Surya 5321
unemployed 5321
nan@@ 5321
killings 5320
en-@@ 5319
three-day 5318
interface 5315
Whenever 5315
assess 5315
Anupam 5315
CO 5314
garnered 5313
sanc@@ 5312
1980 5312
1986 5311
Judges 5311
intensity 5311
shire 5310
ury 5309
l-@@ 5309
Pompeo 5309
Consu@@ 5309
symbol@@ 5307
lover 5306
operators 5305
Sugar 5305
oom 5304
Exodus 5304
disposed 5304
viewers 5304
Kuwait 5303
.in 5302
decisive 5301
temptation 5300
ogy 5300
elevated 5299
ruined 5299
ub 5299
complain 5299
Renewable 5298
proteins 5298
Persons 5297
bles 5297
taluk 5296
gutted 5295
nutrients 5294
gy 5294
tiv@@ 5293
gam 5293
interpretation 5292
Sh 5292
Kid@@ 5292
Birla 5292
ed-@@ 5291
Kus@@ 5291
showcased 5290
resorted 5290
pipeline 5289
eer 5289
unlikely 5288
direc@@ 5288
Haque 5287
Alexander 5287
Onion 5287
joyful 5286
chased 5286
Langdon 5286
fications 5285
immorality 5285
nas@@ 5284
replacement 5283
ential 5282
Nawazuddin 5282
strain 5281
courageous 5280
ump@@ 5280
reck@@ 5280
dressed 5280
linking 5279
secretaries 5279
wounds 5278
stal@@ 5277
Advocate 5277
worsened 5275
adultery 5274
devastated 5274
booking 5274
Rice 5273
Crores 5273
prec@@ 5272
Mall@@ 5272
Superstar 5272
residing 5271
conventions 5270
Rhea 5269
Virender 5269
Dalits 5268
ort 5267
grandson 5266
Chiranjeevi 5266
PPP 5265
indefinite 5264
MB 5264
fier 5263
ninth 5263
benefitted 5263
diagnosed 5262
mond 5262
paths 5261
roughly 5261
clo@@ 5260
Battle 5259
IB@@ 5259
Singhs 5259
DY 5257
Self-@@ 5257
density 5257
accord 5256
IA 5256
Gurdaspur 5256
Rup@@ 5255
striking 5254
theirs 5254
Supporting 5254
Hafiz 5253
eliminated 5252
considers 5252
insects 5252
disbelieved 5250
Bajwa 5249
depressed 5248
Kish@@ 5248
Stone 5247
essentially 5247
disc 5244
Economy 5243
immensely 5243
comeback 5243
incl@@ 5241
itch@@ 5241
Amir 5241
soap 5241
persecuted 5239
define 5238
him. 5238
Patt@@ 5237
trends 5236
spe@@ 5234
dition 5234
incorporated 5234
demonetisation 5234
nom@@ 5233
Himalayan 5233
Better 5233
but@@ 5233
Cost 5233
Judicial 5233
alise 5232
mines 5232
donation 5232
-19 5232
Vodafone 5231
idol 5230
menace 5230
preventing 5228
lending 5227
stu@@ 5227
Embassy 5227
ton@@ 5227
Ci@@ 5227
Mahal 5227
s- 5226
mount 5224
nat@@ 5224
wondered 5223
treaty 5223
mill 5223
Asaduddin 5223
Yog@@ 5222
parti@@ 5221
raj@@ 5221
Texas 5221
KK 5221
Jackie 5221
decorated 5219
tunnel 5218
esti@@ 5217
Reg@@ 5216
lunar 5216
araj 5216
originated 5215
Corps 5215
stra@@ 5213
contents 5211
lessly 5211
Emirates 5211
techn@@ 5210
fiction 5209
instant 5207
essence 5207
lic 5207
Bon@@ 5207
Mangalore 5206
hil 5205
clearance 5205
India-China 5204
oper@@ 5203
PG 5202
werent 5202
partially 5201
oun@@ 5201
nut 5199
disappointment 5198
luxury 5198
Sudhir 5198
bit@@ 5197
fts 5197
Range 5197
15.@@ 5196
surrender 5194
fal@@ 5193
Popular 5193
Gad@@ 5192
forcing 5191
short-@@ 5189
submerged 5189
ger@@ 5189
controls 5187
rog@@ 5186
apati 5185
northwest 5183
insisted 5182
empowered 5182
deployment 5182
genetic 5182
tab@@ 5179
dal 5179
intensive 5178
transmitted 5176
Co 5175
turmoil 5175
oh 5174
iconic 5174
D-@@ 5173
Aligarh 5173
screenplay 5172
Dixit 5171
zy 5171
Cities 5170
forgot 5169
eclipse 5169
flooding 5168
endeavour 5167
vacancies 5167
PF@@ 5166
PF 5166
befitting 5165
favorable 5165
modest 5163
proc@@ 5163
incurred 5163
silk 5163
cut@@ 5162
unlimited 5162
Sexual 5161
falsehood 5161
stops 5161
Delhis 5161
southeast 5161
drops 5160
blood@@ 5159
willingly 5159
pour 5159
Conc@@ 5159
revol@@ 5156
2030 5156
Mauritius 5156
Darshan 5156
comprised 5155
RTI 5155
fi 5154
Lokesh 5154
rul 5154
IV 5153
udes 5152
merger 5152
Yusuf 5152
2014-15 5151
Radhakrishnan 5149
transition 5149
vid@@ 5148
Venkat@@ 5148
Galatians 5147
civic 5147
Madhuri 5147
vaccines 5147
radiation 5147
nan 5147
Musa 5146
hadnt 5145
awake 5144
destroying 5144
Schemes 5143
Vilas 5142
pillar 5141
Yatra 5141
sim@@ 5141
mosques 5141
coun@@ 5140
carrier 5139
Jobs 5138
nish 5138
indication 5137
mess 5137
uma 5136
Lords 5135
prone 5133
desktop 5132
Dance 5130
Fer@@ 5129
narrated 5127
Sitaram 5127
Standing 5126
petitioner 5125
hang 5125
pics 5125
ration@@ 5124
boil 5122
bun@@ 5121
Capitals 5120
Vadodara 5119
centr@@ 5119
dengue 5118
DI@@ 5118
-17 5117
Together 5117
Kabul 5117
Guntur 5117
accusing 5116
pleasing 5115
riya 5115
IB 5115
departure 5114
accommodation 5114
mens 5113
gal 5113
Poly@@ 5113
outcomes 5112
hardships 5111
Preparations 5111
themes 5110
Gate 5110
Khan@@ 5109
kno@@ 5109
Ashwini 5109
cruel 5107
--@@ 5107
declaring 5107
sentiment 5106
Unnao 5106
inherit 5105
installation 5104
Acc@@ 5104
everyones 5103
mat 5103
civil@@ 5102
zealous 5102
twe@@ 5102
Palakkad 5102
Sanitation 5101
vigilant 5100
Bazar 5100
Seva 5100
tom 5099
dedicate 5098
sharply 5097
Rajkummar 5097
tiger 5097
Game 5096
Prof. 5096
Manu 5095
acceptance 5094
Often 5093
miracles 5093
Abe 5093
hire 5092
Swar@@ 5091
Protesters 5091
wrapped 5091
Laxman 5091
Rijiju 5089
rao 5089
Basic 5089
Dom@@ 5089
circles 5088
babies 5088
wary 5087
wind@@ 5087
bottles 5087
ener@@ 5086
novels 5084
exercising 5082
ester 5082
refuted 5082
sey 5082
anas 5081
hearted 5080
Gor@@ 5080
rin@@ 5080
Gand@@ 5079
dom@@ 5076
continent 5076
Groups 5076
som@@ 5076
Gurugram 5076
Infosys 5076
psych@@ 5075
Starc 5075
1983 5074
El 5073
cake 5072
spirits 5071
hurry 5071
Point 5071
Direc@@ 5066
Focus 5066
lightning 5066
anim@@ 5065
smiling 5065
grievous 5064
unhappy 5064
Sub 5064
safer 5063
Pap@@ 5062
Property 5060
locate 5059
viz 5058
mega 5058
looted 5057
cin@@ 5056
ouse 5054
packed 5054
Shiromani 5052
Pollution 5051
50-@@ 5051
commandment 5050
Between 5050
Trumps 5049
harder 5048
rang 5048
ues 5048
CL@@ 5048
TH 5048
Ev@@ 5047
ware 5047
Problems 5047
oven 5047
divorced 5046
Ramachandran 5046
nia 5045
Hanuman 5044
Pharisees 5043
bottle 5043
ABVP 5043
revolutionary 5043
lif@@ 5043
humanitarian 5042
patterns 5042
abode 5042
uli 5041
Ashish 5041
corporations 5041
interventions 5040
compassionate 5038
captains 5038
bullets 5037
umes 5036
dig 5036
asses 5036
Wid@@ 5035
plo@@ 5035
oa 5034
grandmother 5034
iny 5033
Hardeep 5032
1970 5032
thief 5031
road@@ 5030
showers 5030
Madhav 5030
tolerance 5029
tonight 5029
unt 5028
Gopi 5028
Kajol 5028
maturity 5027
rail@@ 5027
Dear 5027
Rathore 5027
Software 5026
BO@@ 5024
workplace 5024
prevail 5023
199@@ 5022
Mighty 5022
Radhika 5022
Nine 5021
Sudan 5021
CP 5020
Acting 5020
shr@@ 5019
Glenn 5019
visions 5018
seal 5018
Head@@ 5018
Deb@@ 5016
Mahmood 5016
KSRTC 5016
disk 5015
1987 5015
1962 5015
obstacles 5013
tran@@ 5010
ply 5010
Inter-@@ 5009
deed 5009
graced 5009
execute 5008
CID 5008
enses 5007
possessions 5006
wet 5006
ots 5005
ion@@ 5005
ashi 5005
Maxwell 5004
Cash 5004
of-@@ 5004
semi-finals 5004
Max 5003
Puja 5002
alizing 5002
Parkash 5002
observing 5001
ac 5001
Surendran 5001
itu@@ 4999
N.@@ 4999
Davids 4998
eric@@ 4998
amped 4998
hana 4998
Male 4998
fitting 4996
shell 4996
Devotees 4994
Commissioners 4994
competent 4993
lesser 4993
Zimbabwe 4991
tag 4991
Gopal@@ 4991
oud 4991
artisans 4990
verification 4987
eni 4987
fond 4987
sits 4987
apple 4987
hail 4986
Hur@@ 4986
Taluk 4986
browser 4985
monetary 4985
illustrate 4984
Supply 4984
smuggling 4984
12,@@ 4984
Co-@@ 4983
magnificent 4982
Aar@@ 4982
instantly 4981
enacted 4980
Goel 4980
MG@@ 4980
drinks 4977
remind 4976
Worship 4976
brethren 4976
oured 4975
neighbour 4973
Field 4973
teenager 4973
Bhup@@ 4973
13th 4973
waited 4972
nic@@ 4972
choosing 4971
rpm 4971
colonial 4968
rela@@ 4966
Producer 4965
Regulation 4964
Shimla 4964
agu@@ 4962
Badminton 4961
supportive 4960
beast 4960
athan 4959
mist@@ 4959
comprise 4959
mirror 4958
hosting 4958
emphasised 4958
fruitage 4957
1956 4957
UDF 4957
accountable 4956
KM 4956
pressures 4955
lecture 4955
Day@@ 4955
kan@@ 4954
sty@@ 4954
Ease 4953
Fishermen 4953
Player 4952
Late 4952
Cor 4951
Send 4949
fruitful 4949
princes 4948
Shardul 4948
fights 4947
IJ 4947
Gurdwara 4947
greets 4945
san 4945
sciences 4945
Wife 4945
G.@@ 4944
briefing 4944
AK@@ 4942
dramatic 4941
lifting 4941
cav@@ 4941
Competition 4940
40,000 4940
SD 4940
Entry 4938
aths 4937
landslide 4937
lodge 4937
Chil@@ 4936
chang@@ 4935
holidays 4934
initiate 4934
chand 4934
saints 4934
NF@@ 4933
locally 4932
consistently 4932
perfectly 4931
1975 4931
iling 4930
clubs 4930
avan 4928
locks 4928
Garcha 4928
jailed 4927
designer 4927
ache 4926
Meet 4925
slowdown 4925
vibrant 4924
ken 4923
1985 4923
ept 4922
mun@@ 4922
recommend 4922
pond 4921
chaos 4921
olog@@ 4920
tre@@ 4920
ailments 4918
pat 4918
vely 4917
pursuit 4917
rey 4917
Divisional 4916
itan 4916
Thi@@ 4915
bu 4915
acre 4914
time@@ 4913
Cher@@ 4913
RCB 4912
Sem@@ 4911
Navratri 4909
prospects 4908
Sah@@ 4908
wicket-keeper 4908
ices 4907
Ruth 4906
Jose 4906
faithfully 4904
Shortly 4904
high@@ 4903
adventure 4903
hs 4902
pen 4902
Hold 4900
automobile 4900
itated 4899
blaze 4897
18.@@ 4897
Sengar 4897
voltage 4897
Page 4896
happ@@ 4896
Leg@@ 4896
lok 4896
winder 4896
Bid@@ 4895
kal 4895
Bad 4893
ib@@ 4893
Prayer 4891
Maha 4891
missiles 4890
bus@@ 4889
explo@@ 4889
Hus@@ 4888
Entrepreneurship 4888
Mallikarjun 4887
adjourned 4887
Senate 4887
ria 4886
indi@@ 4884
crowds 4884
Nokia 4884
Hay@@ 4882
weaker 4880
vice-@@ 4880
SR 4880
marital 4879
NCC 4879
exemption 4879
authors 4879
Levites 4877
anced 4876
vac@@ 4876
sugarcane 4876
Disease 4874
invisible 4873
proceeded 4873
lasted 4871
mobility 4871
Tej@@ 4870
eller 4870
polluted 4869
Masters 4868
Warning 4867
Female 4867
ailed 4867
book@@ 4866
Kri@@ 4865
hop@@ 4865
accusations 4865
boyfriend 4864
Wikipedia 4862
recipient 4862
spin 4861
mutually 4860
innovations 4860
tabernacle 4859
pole 4859
wider 4859
AIMIM 4859
JDS 4857
declining 4856
decree 4855
exemplary 4854
Factory 4853
ho 4853
Dehradun 4853
Murali 4852
dawn 4851
bon 4851
Contin@@ 4851
Firefox 4850
attempting 4850
er. 4850
EVMs 4850
sanction 4850
Idukki 4850
altogether 4849
hardware 4848
tin@@ 4848
miscreants 4848
unaware 4847
Ear@@ 4847
grievances 4847
1982 4846
patiently 4846
scalped 4846
Hills 4845
liberation 4844
graphic 4844
Baroda 4842
inherited 4840
biological 4840
sac@@ 4840
Ross 4840
Os@@ 4839
mechanical 4839
Jaish-e-Mohammed 4835
muscle 4835
Download 4834
1948 4834
God. 4834
responds 4834
incumbent 4833
kle 4833
500@@ 4833
lu 4832
disc@@ 4831
Compare 4831
debit 4831
Amb@@ 4830
Maharaja 4830
evidently 4829
Backward 4829
responses 4828
thrust 4827
But@@ 4827
exchanged 4827
collecting 4827
ABS 4827
castes 4826
mani 4824
snake 4822
financially 4821
ased 4820
colors 4820
Performance 4819
Return 4818
deities 4818
Maz@@ 4818
Preet 4818
aught 4816
Iraqi 4816
prog@@ 4815
Vid@@ 4815
directory 4814
tum@@ 4814
apologised 4814
preet 4814
regul@@ 4811
tain@@ 4810
Dead 4809
organizing 4809
yal@@ 4809
Maximum 4808
Jeevan 4808
tenth 4807
scar@@ 4807
Zafar 4807
frequency 4806
sal 4805
SW@@ 4805
distr@@ 4803
preceding 4803
logging 4802
tured 4802
defeating 4801
Bluetooth 4800
aw 4800
16.@@ 4800
merit 4799
understands 4798
ule 4797
Srikanth 4797
Must 4796
accountability 4796
Vol@@ 4794
landslides 4792
Kor@@ 4792
Sandhu 4792
internationally 4792
Jun@@ 4790
modern@@ 4790
debris 4790
Melbourne 4788
accidental 4787
Committees 4787
Keerthy 4786
icians 4785
CB 4785
organising 4785
modified 4784
Palestine 4784
fatal 4783
inspected 4781
Chak@@ 4781
tabled 4781
taxpayers 4781
Share 4779
am-@@ 4779
steadfast 4778
asts 4778
parade 4776
April-@@ 4776
Ful@@ 4775
Down 4775
C-@@ 4775
tin 4775
Das@@ 4775
laboratories 4774
idi@@ 4774
abused 4773
casts 4773
propag@@ 4771
Dhanush 4771
Qualcomm 4770
violate 4769
elevation 4769
Dera 4768
ordinance 4767
marking 4766
quota 4765
chron@@ 4765
unrest 4765
Wuhan 4764
Fol@@ 4763
spaces 4762
semi-@@ 4762
48@@ 4761
Path 4760
trafficking 4760
inger 4759
ulated 4758
foot@@ 4758
psychological 4758
was@@ 4758
Vad@@ 4758
revive 4758
adversely 4757
lag@@ 4756
Norway 4756
readily 4755
agg@@ 4754
elev@@ 4753
freight 4753
Domestic 4753
Aff@@ 4753
ops 4753
enterprise 4753
odd 4753
uel 4751
Too 4751
Chandrachud 4751
IMF 4750
elephant 4749
Farmer 4749
congratulates 4748
Sir@@ 4748
Shan@@ 4747
Jai@@ 4747
Patani 4746
Actors 4746
Increase 4745
shook 4745
adia 4744
shan 4744
advisor 4743
tem@@ 4743
protective 4742
amazed 4742
entation 4741
rocks 4741
congratulations 4741
erate 4741
Serve 4741
Advanced 4741
fog 4741
bride 4740
Loc@@ 4740
evolved 4740
Buddhism 4739
masters 4739
sky@@ 4739
resid@@ 4739
subscribers 4739
Singh@@ 4739
Florida 4739
Goswami 4737
thermal 4736
Hostel 4736
Gon@@ 4735
Jana 4735
quantum 4734
imprisoned 4734
ull 4733
Organ@@ 4731
storms 4731
enrolled 4731
Yechury 4731
Fil@@ 4730
underground 4730
Main@@ 4730
sizes 4729
Lebanon 4727
650 4727
Shane 4727
Begum 4726
impression 4726
speeding 4725
advertising 4725
rough 4724
honesty 4723
Soci@@ 4723
demonstrations 4723
Gh@@ 4721
shore 4720
saf@@ 4720
EPFO 4719
slogan 4719
joke 4718
clos@@ 4717
audit 4717
eldest 4716
CSK 4716
Rajamouli 4716
incorrect 4715
hib@@ 4715
Judgment 4715
providers 4715
6-speed 4715
framed 4713
bacterial 4713
worrying 4712
neutral 4712
impacted 4712
doubled 4711
shattered 4711
Sus@@ 4710
identifying 4709
praises 4709
Dab@@ 4709
Sport 4708
Shooting 4706
Bhupinder 4706
despair 4705
Cold 4704
'an 4703
chal 4702
Dhabi 4701
Brown 4701
reasoning 4700
investing 4700
Translation 4700
swept 4699
GO@@ 4698
ru 4698
anguish 4697
Girish 4697
yed 4697
stre@@ 4696
maternal 4696
recited 4695
RC 4695
Siva 4695
impe@@ 4693
Mines 4692
ght-@@ 4692
rested 4690
implications 4686
abandon 4686
creature 4685
deepen 4685
anticipated 4685
slated 4685
Boris 4683
Chandy 4682
drove 4681
mud 4680
desperate 4680
bed@@ 4680
sponsored 4680
Allah. 4680
Parv@@ 4680
proceeding 4678
dues 4677
Literature 4677
Bharati 4677
Task 4676
prophecies 4675
mineral 4675
hypo@@ 4674
Textiles 4674
lav@@ 4673
YOU 4673
Sylhet 4673
striving 4672
liness 4672
sub 4671
unfair 4671
congestion 4671
Ravinder 4671
Access 4670
Atlantic 4668
tual 4668
resting 4667
Drugs 4667
medication 4667
promotes 4666
time-@@ 4665
Neil 4665
19.@@ 4665
Sush@@ 4665
signature 4664
afflicted 4664
warfare 4664
illicit 4663
tivity 4663
burg 4663
uted 4662
correctly 4662
minded 4662
Kod@@ 4662
DM 4662
Emperor 4661
awar@@ 4661
Tribes 4660
illegally 4660
apartment 4659
Enable 4658
orbit 4658
Roo@@ 4657
tale 4656
left-@@ 4655
lap@@ 4655
fortunate 4655
tendency 4654
Mangaluru 4654
Southeast 4653
Worlds 4653
Simon 4653
stunned 4652
gall@@ 4651
ground@@ 4651
loads 4650
Samson 4649
sincerely 4648
shield 4646
ense 4646
Poonam 4646
LL@@ 4645
Cameron 4645
iy@@ 4645
nursing 4644
lane 4644
sedition 4643
partial 4642
Fun@@ 4642
judged 4641
Colleges 4641
tolerated 4640
sym@@ 4640
CL 4639
rah 4639
curfew 4639
21-@@ 4638
harvesting 4637
doc@@ 4636
sink 4636
I. 4636
Morcha 4636
grand@@ 4635
facto 4634
Adviser 4634
vice-captain 4634
dangers 4633
grabbed 4633
Crude 4632
legitimate 4631
deadline 4631
CMs 4630
magnesium 4628
unconstitutional 4627
Swedish 4627
remembrance 4626
lac@@ 4626
1961 4625
foolish 4625
Ezekiel 4624
bribe 4623
industri@@ 4623
suicides 4623
IE@@ 4622
adviser 4622
consul@@ 4621
inaugurates 4621
U.@@ 4620
Christendom 4619
happily 4618
thrilled 4618
Kriti 4618
Suhana 4618
Tej 4618
Chow@@ 4617
selfies 4617
5-speed 4616
aer@@ 4615
Fathers 4614
rift 4614
aar 4614
yn@@ 4613
umped 4613
leaked 4613
Surendra 4613
warriors 4611
contracts 4610
connects 4609
asser@@ 4609
chart 4609
tablespoons 4607
ests 4607
promptly 4606
ex 4606
talents 4605
documentary 4605
Chahar 4605
haul 4604
procured 4604
Kes@@ 4604
Rupee 4604
impl@@ 4603
100@@ 4603
Multi@@ 4602
Panchayati 4602
Shaikh 4601
Weather 4600
BMC 4600
Pillai 4600
TVS 4600
introducing 4599
shit 4599
stupid 4598
Cong 4598
renewed 4597
knee 4597
symbolic 4596
Abd@@ 4596
cared 4594
pioneering 4594
brutal 4594
cardiac 4594
puja 4594
bin@@ 4594
Tas@@ 4594
discover 4593
oma 4593
modes 4593
exploration 4590
finger 4589
motivate 4589
appointments 4589
ATM 4589
keepers 4588
utation 4588
Settings 4587
lacking 4587
fewer 4587
micro 4587
OBC 4584
Bhat 4584
ML@@ 4583
rot@@ 4583
dict 4583
emia 4582
Ken@@ 4582
labourer 4582
Karti 4582
regardless 4580
milit@@ 4580
Savarkar 4580
Sovereign 4579
bite 4579
Leh 4579
torn 4578
Incl@@ 4578
pin@@ 4578
commemorate 4578
neglected 4576
pairs 4576
Display 4575
nec@@ 4575
Bodies 4575
kit 4575
iri 4574
grim 4574
excitement 4573
Welcome 4572
lens 4571
Vic@@ 4571
Window 4570
successive 4570
drives 4570
ghee 4570
halls 4569
forensic 4569
Monsoon 4569
ector 4568
rebels 4567
dances 4567
acqu@@ 4567
convict 4567
Jha 4567
unanimously 4566
Balan 4566
Starting 4565
governmental 4565
enjoys 4565
liqu@@ 4565
knees 4565
prey 4564
Bobby 4564
ASI 4561
itha 4561
Ashraf 4560
backdrop 4560
counsel@@ 4558
fodder 4557
FOR 4556
panchayats 4556
feast 4555
oration 4555
cable 4554
Liv@@ 4554
ern 4554
Kedar 4554
necessity 4553
Version 4553
ouring 4552
rein@@ 4551
aon 4550
Fair 4550
first-class 4550
downloaded 4549
casting 4548
aggression 4548
stem 4547
Netaji 4547
Season 4547
Brazilian 4547
Reuters 4547
1500 4546
Ratan 4546
formats 4546
eu@@ 4546
unfortunately 4546
Atul 4545
issuing 4544
bounty 4544
cease 4543
Path@@ 4543
Balakot 4542
ideals 4541
rish 4541
six-@@ 4540
10-@@ 4540
Happiness 4539
ison 4539
Villiers 4539
hab 4538
viewing 4538
cm 4538
Neeraj 4538
velocity 4538
flies 4537
Transfer 4537
digestion 4537
Khalid 4537
agiri 4537
3.5 4536
evaluation 4536
antha 4536
fool 4534
DO 4534
proclaimed 4534
snowfall 4534
Dhan 4533
tariff 4532
Lower 4531
Susp@@ 4530
Kak@@ 4530
lakes 4530
fingers 4529
fast@@ 4526
Mandi 4526
Deve 4526
Tou@@ 4525
Meena 4524
colleague 4524
BJP-@@ 4522
intake 4522
affidavit 4522
chairs 4521
Ky@@ 4520
ette 4520
exempted 4520
disrup@@ 4520
comply 4519
coaching 4519
agrees 4518
composition 4518
leaf 4517
provincial 4517
Va@@ 4516
north-@@ 4516
exceptions 4516
pets 4514
tanks 4514
Zia 4514
17.@@ 4514
ship@@ 4513
doubling 4513
ushes 4513
transported 4513
shouting 4511
chamber 4511
wrongdoers 4511
Environmental 4510
chains 4510
gged 4510
25-@@ 4509
earnings 4509
Babri 4509
bands 4508
intervened 4506
complainant 4506
equation 4505
Rape 4505
Cro@@ 4504
Trent 4504
Finland 4504
Shanghai 4504
Arms 4502
observations 4500
intensify 4500
Guidelines 4500
projected 4500
inga 4499
Tem@@ 4498
transg@@ 4498
tant 4497
Campaign 4496
Gaza 4496
1945 4496
suffers 4495
cumulative 4495
Tabu 4495
informal 4494
employers 4493
Josh 4493
Squad 4493
scholarship 4492
Channel 4492
Nation@@ 4492
Sonu 4492
seize 4491
packages 4489
tier 4489
famine 4488
expects 4488
Sas@@ 4487
encourages 4486
successor 4486
positively 4486
wrongdoing 4486
xi@@ 4485
Giving 4485
Syn@@ 4485
condemns 4485
cell@@ 4485
thers 4483
undeserved 4483
Daw@@ 4483
Narmada 4482
Bhat@@ 4482
deteriorating 4481
proportion 4481
portrayed 4481
sustenance 4481
ISI 4481
Chandrakant 4481
ost 4480
Vijaya 4480
troubles 4479
Aziz 4479
1960 4477
Talks 4477
eshwari 4477
Sharing 4476
Rising 4475
imagined 4474
rant 4474
lung 4473
filming 4473
kk@@ 4473
kidnapping 4472
enders 4472
shoulders 4471
trac@@ 4471
figured 4470
geographical 4470
exceed 4470
tations 4470
tomb 4469
inated 4468
surrendered 4468
15-@@ 4468
invites 4467
uity 4466
prop@@ 4466
accompanying 4465
pup@@ 4465
hali 4465
laun@@ 4464
IG 4464
Shweta 4464
cadre 4463
ession 4463
achi@@ 4463
dy@@ 4463
dil@@ 4462
vir@@ 4462
goo@@ 4459
Taj 4459
Resp@@ 4458
cks 4458
practiced 4458
Orissa 4458
precautionary 4458
Beach 4457
Kush@@ 4457
Aut@@ 4456
commendable 4456
Jar@@ 4456
ility 4455
mic@@ 4454
fla@@ 4453
Speak 4453
Lau@@ 4453
Sach@@ 4453
Shaw 4453
Salem 4452
doctrine 4452
Defense 4452
Taimur 4452
deliberately 4451
Swiss 4451
declares 4451
advancement 4451
crowded 4451
overturned 4451
Israels 4450
Wildlife 4450
Course 4450
holistic 4449
Luc@@ 4449
Background 4448
implic@@ 4448
guilt 4448
nath 4447
Cars 4447
utt@@ 4446
hall@@ 4446
physician 4446
recoveries 4446
attitudes 4445
fe 4445
info 4443
abled 4443
shepherds 4442
shipping 4442
Theatre 4442
sinned 4441
Payment 4441
amidst 4441
Raje 4441
cation 4440
apped 4440
clue 4440
gic 4440
FY 4439
erated 4439
tious 4439
MHA 4439
Salim 4439
epidemic 4438
eves 4438
blogger 4438
medicinal 4437
aba 4437
treasures 4436
aver@@ 4434
frustrated 4433
Krishan 4432
Universal 4431
activ@@ 4430
Narayana 4430
Hear@@ 4429
Flag 4429
subsidiary 4429
essors 4429
phrase 4428
Kulbhushan 4427
Baby 4427
barrier 4426
ston 4426
itra 4425
agarh 4425
inducted 4424
38@@ 4424
fabric@@ 4423
izes 4422
Sl@@ 4422
accepts 4421
Chatterjee 4421
Oper@@ 4421
wealthy 4420
doused 4420
sta@@ 4419
Chapter 4419
plains 4419
wom@@ 4419
abl@@ 4418
NS 4417
175 4417
deserves 4415
pouring 4415
Ashutosh 4415
distribute 4414
wasted 4412
Doctor 4410
Wasim 4410
Const@@ 4410
cancellation 4410
Causes 4410
Conservation 4408
vomiting 4408
drain 4408
Sahu 4408
variable 4407
indic@@ 4407
aki 4407
Teach 4406
1965 4405
afterward 4405
relax 4405
stalled 4405
symbols 4403
predominantly 4403
assures 4403
separ@@ 4403
widows 4403
worn 4403
forty 4402
Internal 4402
junction 4402
Sonali 4402
diagnosis 4401
reflection 4400
Bhattacharya 4400
Impact 4399
Pensions 4399
ml 4397
eel 4396
Ped@@ 4396
Sindh 4396
imal 4395
gur@@ 4395
defending 4393
commuters 4393
Attorney 4393
NC 4392
Mohit 4392
ou 4391
Physics 4390
Yamuna 4390
strengthens 4390
Turn 4390
rob@@ 4390
ook 4389
garment 4389
Reforms 4389
hir 4389
Marcus 4389
mentions 4388
Jagannath 4388
saffron 4388
Vidy@@ 4387
cancel 4387
allo@@ 4387
topped 4387
KC 4386
must@@ 4385
march 4384
accommodate 4384
utors 4384
fir@@ 4383
Jaff@@ 4383
Mass 4382
Mittal 4382
Accounts 4381
revision 4381
Alappuzha 4381
Gurpreet 4381
rider 4380
goats 4380
retire 4380
oj@@ 4380
liberty 4379
adorable 4379
Poor 4378
Chawla 4378
night@@ 4377
Products 4377
perpetrators 4377
logistics 4376
spices 4376
Jud@@ 4375
elephants 4375
satisfy 4374
Lun@@ 4374
lows 4373
Rakul 4373
Value 4372
delicious 4372
thunder@@ 4371
mantra 4371
Holi 4371
Kashi 4371
organs 4370
bhai 4370
Georgia 4370
BS6 4370
Deep 4369
oppression 4369
Gita 4369
ases 4368
Motor@@ 4367
step@@ 4367
thrashed 4366
8-megapixel 4366
portfolio 4365
grieve 4365
Gov@@ 4363
ew 4363
atrocities 4363
emic 4363
ignorance 4362
Govind 4362
key@@ 4361
occasionally 4361
wrestling 4361
Rohingya 4361
fle@@ 4360
travellers 4360
ez@@ 4359
anj@@ 4359
India@@ 4358
vinder 4358
approve 4357
Sessions 4357
thro@@ 4357
pushing 4357
excuse 4357
BSE 4357
devastating 4356
hacked 4355
Surinder 4355
CI 4354
interrogating 4354
een 4353
agon 4353
schooling 4353
flags 4352
flav@@ 4352
Basu 4352
Excellence 4351
Units 4351
UGC 4351
Khurrana 4351
Vice-President 4350
reside 4349
Nishank 4349
Desam 4349
utilised 4348
calculated 4347
Doc@@ 4347
rai@@ 4347
neglect 4346
waterlogging 4346
Knower 4346
favorite 4345
Electoral 4345
Zi@@ 4344
CSIR 4344
hypocrites 4343
Attack 4343
Aurangabad 4343
LS 4342
swift 4342
poles 4342
aided 4341
Dipak 4341
letting 4340
stabil@@ 4340
FM 4340
Amar@@ 4340
Record 4339
weaknesses 4339
Role 4338
wrong@@ 4338
Rol@@ 4337
specify 4337
170 4337
big@@ 4336
112 4335
agon@@ 4335
jar 4335
Grand@@ 4335
module 4334
adjacent 4334
Kids 4334
upgraded 4333
CJI 4333
ight 4332
sensation 4331
revival 4331
Ach@@ 4330
Philip 4329
Garg 4328
ure@@ 4328
uproar 4328
water-@@ 4328
Shir@@ 4328
occup@@ 4327
Table 4326
Gener@@ 4325
xes 4325
processed 4325
din@@ 4325
web@@ 4324
ager 4324
underwent 4323
prophetic 4322
narrative 4322
imagination 4321
ph 4321
RRB 4321
wholesome 4320
Tiruv@@ 4320
fatalities 4320
Net 4320
tracking 4319
Il@@ 4319
Oscar 4319
Indonesian 4319
contracted 4318
label 4318
protects 4317
surgical 4317
thy@@ 4317
teaspoons 4317
smashed 4317
lowly 4316
sat@@ 4316
lear@@ 4316
influences 4315
Voices 4314
conver@@ 4314
critic 4313
varies 4312
consultations 4312
somehow 4312
inviting 4311
O. 4310
inmates 4310
astro@@ 4309
polic@@ 4309
dual-@@ 4309
gal@@ 4308
Tru@@ 4306
unacceptable 4306
Cour@@ 4305
interference 4304
ensued 4304
hik@@ 4303
meditate 4302
watch@@ 4302
inging 4302
adha@@ 4302
cher@@ 4301
Srivastava 4301
deleg@@ 4300
obligations 4300
Sahitya 4300
andan 4300
recovering 4299
glorify 4298
prevents 4296
sized 4296
detection 4296
bes 4296
ackers 4295
speculation 4294
Orange 4294
Adil 4294
Say@@ 4293
slept 4292
angi 4291
distressed 4290
surroundings 4289
collectively 4289
uz@@ 4289
sticks 4289
Sony 4289
asan 4289
objections 4288
Haw@@ 4288
Traditional 4287
gers 4286
fted 4286
Allahs 4286
binding 4285
ires 4285
Wall 4285
fulness 4284
pas@@ 4284
intentions 4284
recalls 4284
calories 4284
poison 4284
Census 4284
dirty 4283
Cristiano 4283
Sre@@ 4283
relaxed 4282
terr@@ 4281
Neha 4281
payable 4281
discouraged 4280
remnant 4279
ounds 4279
bling 4279
Swift 4279
Suicide 4278
kins 4278
pornography 4277
sively 4277
closest 4276
interviews 4275
exhorted 4275
dings 4275
prevalent 4273
Develop@@ 4273
organisms 4273
-e-@@ 4273
Payments 4272
killers 4272
ound 4271
killer 4271
1974 4270
0s 4270
triumph 4269
Sign 4268
willingness 4268
over-@@ 4267
MK 4267
acharya 4266
utility 4265
aint 4265
brutally 4265
festive 4265
Khadi 4264
bility 4264
breathe 4264
Manufacturing 4264
clashed 4264
kind@@ 4262
endeavor 4261
misuse 4261
oul@@ 4261
aller 4259
fif@@ 4259
bott@@ 4259
Iron 4259
timing 4257
-1 4257
Tension 4257
gri@@ 4257
anian 4256
credible 4255
Stuart 4254
1979 4253
employer 4253
Bhatia 4253
Sriram 4253
Nuclear 4251
migrated 4250
umar 4249
anch@@ 4249
quest 4248
poets 4248
Munde 4248
perish 4247
verified 4247
tism 4246
kal@@ 4246
reader 4245
Ball@@ 4245
sidelines 4244
cumin 4244
Saurashtra 4243
right-@@ 4242
logic 4242
Netanyahu 4242
ories 4242
Made 4242
cru@@ 4242
Hemant 4242
serial 4241
e.g. 4241
ATION 4241
rests 4240
Harvard 4240
Tollywood 4240
Analy@@ 4239
categor@@ 4238
bases 4238
Nu@@ 4238
tend@@ 4238
CM@@ 4238
statutory 4237
disorders 4237
deep@@ 4237
bab@@ 4236
lays 4236
Rawal 4236
bulk 4236
blown 4236
Chandr@@ 4236
prompt 4235
bla@@ 4234
fel@@ 4234
Author 4232
13,@@ 4232
rainy 4231
Ananya 4231
tun@@ 4230
landscape 4230
0,000 4230
nav@@ 4230
Jonah 4229
lined 4228
arri@@ 4227
Mumbai-@@ 4226
promising 4226
furniture 4226
knocked 4226
Tre@@ 4225
Cov@@ 4225
clusters 4225
LMT 4225
Statement 4224
evol@@ 4224
harassed 4224
administrator 4223
Rub@@ 4223
classification 4223
authorised 4223
consist 4222
Nissan 4221
Wi-Fi 4220
FA 4220
jury 4220
conceal 4219
Praise 4219
Kunal 4219
zes 4218
Hir@@ 4218
provoked 4218
Tahir 4218
perceived 4217
sovereign 4217
plague 4216
struggled 4215
mic 4215
Madhu 4215
Mach@@ 4215
30-@@ 4215
Kaul 4215
Kazakhstan 4215
uality 4214
Teams 4214
command@@ 4213
scorer 4213
elect 4212
Rains 4212
20.@@ 4211
proofs 4211
exalted 4209
evidences 4209
Elizabeth 4208
advances 4208
tment 4208
interactions 4207
IST 4207
avo@@ 4206
Dol@@ 4206
guardian 4205
Kab@@ 4205
socio-economic 4204
Youll 4204
Studios 4203
west@@ 4203
san@@ 4203
Dig@@ 4202
Kel@@ 4202
erts 4201
Bhav@@ 4201
Above 4200
1919 4200
veness 4200
ry@@ 4200
Khe@@ 4200
invented 4200
Hai 4200
Lalit 4200
repay 4199
frag@@ 4199
dging 4198
excluded 4198
levied 4198
veer 4197
rever@@ 4197
isha 4197
gear 4196
apur@@ 4195
Shel@@ 4195
grid 4194
ubs 4194
intend 4193
dic 4193
lev@@ 4193
Manjrekar 4193
seated 4191
Mohamed 4191
1952 4191
opt 4191
dat@@ 4190
LC 4190
Six@@ 4189
assemblies 4189
donate 4189
get@@ 4188
willed 4188
iles 4187
disbelief 4185
24.@@ 4185
shake 4184
workshops 4184
Veer@@ 4184
permanently 4183
HU@@ 4183
kot 4183
ament 4182
mang@@ 4182
Jersey 4181
plantation 4181
delete 4181
Gates 4181
akh@@ 4181
Base 4180
ation. 4180
Irrigation 4180
Rapid 4179
entrepreneurship 4179
coc@@ 4179
experiments 4178
Jha@@ 4178
Ekta 4177
Houston 4177
Land@@ 4176
NG 4176
numbered 4176
anand 4176
Micro@@ 4176
chur@@ 4176
heal 4175
complaining 4175
lic@@ 4175
CT@@ 4175
sentences 4175
eem 4175
a.@@ 4174
stamp 4174
webinar 4174
graph 4173
Medi@@ 4173
pref@@ 4173
1,4@@ 4173
Declaration 4172
spoon 4172
Written 4171
Laksh@@ 4171
Stand 4171
container 4171
ende@@ 4170
Ple@@ 4170
privileged 4169
AY@@ 4169
alla 4168
tax@@ 4168
1973 4168
Asha 4168
infl@@ 4167
Throughout 4167
utilized 4167
rings 4167
sheets 4167
3000 4167
slip 4167
hatchback 4167
Vo@@ 4166
145 4164
assignments 4163
contributes 4163
eted 4163
age-@@ 4162
son-in-law 4162
omed 4160
south-@@ 4159
son@@ 4158
denying 4157
King@@ 4157
Amid 4155
unlike 4155
query 4155
incentives 4155
dense 4155
chronic 4155
PhD 4154
North-East 4154
Tit@@ 4154
ii 4153
sounded 4153
ques 4153
foremost 4153
ayan@@ 4153
Lankesh 4153
-15 4152
headache 4151
Recovery 4150
tens 4149
Believe 4149
Minist@@ 4149
Prizes 4149
Standards 4149
Mental 4148
beneficiary 4147
graduates 4147
crashes 4147
preside 4145
Rad@@ 4145
networking 4144
fisheries 4144
Yediyurappa 4144
Pathan 4143
1.5-litre 4143
brochure 4142
PSUs 4142
warner 4142
observes 4141
Deaths 4141
Sections 4141
restraint 4140
facilitating 4140
Uzbekistan 4139
aved 4139
Bish@@ 4139
thes@@ 4138
bell 4137
Was@@ 4136
partnerships 4136
hid@@ 4136
Imam 4136
Bak@@ 4135
cement 4135
ranges 4135
tallest 4134
expense 4134
Spe@@ 4134
helicopters 4134
Mohali 4134
Mosaic 4133
Cham@@ 4131
Lewis 4131
1981 4131
Sood 4131
guiding 4130
nationalist 4130
sensi@@ 4129
arer 4128
references 4128
pper 4128
emperor 4128
Faz@@ 4127
Mandal 4126
asi@@ 4125
enjoyment 4125
Geor@@ 4125
alleges 4125
curriculum 4124
no-@@ 4124
Question 4123
flame 4122
organize 4121
SAARC 4121
navigation 4120
Ker@@ 4120
adopting 4119
revenge 4118
behave 4118
act@@ 4118
ulu 4118
reas@@ 4117
cheated 4117
LE 4116
bamboo 4116
floors 4116
Upper 4115
Challenge 4115
Nikhil 4115
Category 4114
allowance 4114
Sunni 4114
Bhumi 4113
visas 4112
discourse 4112
substantially 4112
Shyam 4112
stry 4111
ceiling 4111
Nirbhaya 4111
Jyoti 4110
Kanhaiya 4110
manpower 4109
arrange 4109
Shu@@ 4109
separation 4108
Interior 4108
Gom@@ 4108
viewpoint 4107
shower 4107
Pos@@ 4106
liar 4106
Karisma 4106
yl 4106
Kochhar 4106
extinguished 4105
7,000 4104
scre@@ 4103
altitude 4103
Socialist 4103
tian 4103
Gam@@ 4102
pain@@ 4102
focuses 4101
strengths 4101
measuring 4101
eal@@ 4101
Researchers 4101
steal 4100
Saxena 4100
Hello 4099
Surender 4099
dead@@ 4098
Massive 4098
antry 4098
Anantapur 4097
adu 4097
refrain 4096
Situation 4096
Anjali 4096
akkal 4096
UR 4095
Trav@@ 4093
Grant 4092
convened 4092
granting 4092
osp@@ 4091
requesting 4091
lorry 4091
Ron@@ 4091
mortal 4090
sibly 4090
attained 4090
AFP 4090
cred@@ 4090
waterlogged 4090
ibn 4090
cultivated 4089
Pic@@ 4089
39@@ 4089
Pak@@ 4088
erup@@ 4087
Electrical 4087
1.0@@ 4087
Nagarjuna 4087
offline 4086
Sain@@ 4086
appro@@ 4086
orous 4086
Cir@@ 4086
Kulkarni 4086
KKR 4086
full-@@ 4085
Padmavati 4085
Woe 4085
escalated 4085
ample 4084
adju@@ 4084
batt@@ 4084
Arjuna 4084
Philistines 4083
1978 4083
rist 4083
Nov@@ 4082
acle 4082
arians 4082
cooled 4082
103 4082
ious 4081
organ 4081
eld 4080
minim@@ 4080
uncertainty 4080
indirect 4080
tol@@ 4079
father@@ 4079
decor@@ 4079
eing 4079
Commun@@ 4079
Singer 4079
Kevin 4079
sowing 4078
Born 4078
Vallabhbhai 4078
kidnapped 4077
nurse 4076
Mata 4076
ott@@ 4076
Khaleda 4076
Aaryan 4076
slaughter 4075
abi 4075
Dy@@ 4075
mini 4072
turnover 4072
self-reliant 4071
impounded 4071
Malay@@ 4071
know@@ 4070
MM 4070
mile 4069
Monitoring 4069
Bij@@ 4069
User 4068
boiling 4068
Lav@@ 4068
Sew@@ 4068
There@@ 4067
boosting 4066
mechanisms 4065
Sap@@ 4065
briefly 4064
civilization 4064
characteristic 4063
kes 4063
run-@@ 4063
Tamilnadu 4063
Rajshahi 4063
Boil 4062
DD 4062
yn 4062
Expressway 4062
DST 4062
Justin 4061
Meerut 4061
Autom@@ 4060
climb 4060
businessmen 4060
wire 4060
traditionally 4060
Louis 4059
bagh 4059
develops 4058
Drama 4058
Quar@@ 4058
Pragya 4058
utterly 4057
ancestors 4057
pump 4056
Portal 4056
possessed 4055
event@@ 4055
bids 4055
screens 4055
so-called 4055
faithfulness 4054
rat@@ 4054
1,500 4054
TikTok 4054
Nim@@ 4053
iest 4053
repaired 4052
deliberate 4052
dha 4052
agar@@ 4052
restriction 4051
bicycle 4051
clip 4050
GT@@ 4050
Low 4049
ady 4049
Sadly 4048
immigration 4048
spectacular 4048
1977 4048
FIRs 4048
ather 4047
Columbia 4047
Kendra 4046
vaccination 4046
Saraswati 4045
beef 4045
versus 4045
Applications 4044
wil@@ 4044
Rampur 4043
aja 4043
Cyclone 4043
vin 4042
undoubtedly 4041
Reading 4040
Howrah 4040
advertisements 4038
brands 4038
Fr 4038
Lat@@ 4037
disciplinary 4037
Cyber 4037
dams 4037
puram 4037
By@@ 4036
Jaish-e-Mohammad 4035
Chemical 4035
Dabangg 4035
1,7@@ 4034
slipped 4034
awe 4033
ket@@ 4033
mast@@ 4033
colon@@ 4033
respite 4033
east@@ 4032
displaying 4031
operation@@ 4031
volumes 4031
func@@ 4031
e-commerce 4030
iser 4030
1969 4030
photography 4029
Believers 4028
debates 4028
Coconut 4028
Celebr@@ 4027
Flight 4027
Os 4027
Bern@@ 4027
Ramakrishna 4026
Inaugur@@ 4026
erable 4026
ution 4025
Colonel 4025
gorgeous 4024
specifications 4024
cle 4022
grasp 4021
fortune 4021
centric 4021
paragraph 4021
Kos@@ 4021
repentant 4020
taxi 4020
leather 4019
Robin 4019
paint 4018
ICT 4018
ax 4018
Isn 4017
Mela 4017
Below 4017
headlines 4017
SDM 4017
rewards 4016
climbed 4016
bir@@ 4016
fielding 4016
Muzaffarpur 4016
governed 4015
ladies 4014
nt 4014
es-@@ 4014
aired 4014
VAT 4014
inches 4012
recru@@ 4012
warming 4011
wisely 4011
Guinea 4011
UV@@ 4011
saniti@@ 4010
Driver 4010
Mammootty 4010
Kant 4009
Steven 4009
PM-@@ 4008
Conf@@ 4008
amounting 4008
paramilitary 4008
electronics 4008
Mode 4007
urging 4007
Saha 4007
SSC 4007
twitter 4004
coordinated 4003
consisted 4003
ethical 4003
advertisement 4003
endor@@ 4003
county 4003
lions 4002
ressing 4001
Moo@@ 4001
rubber 4001
rocket 4001
UA@@ 4000
1976 4000
Mut@@ 4000
Bangabandhu 4000
partly 3998
Sank@@ 3998
medieval 3998
MLC 3998
rations 3997
unchanged 3997
cane 3997
RD 3997
minist@@ 3995
Chowk 3995
shy 3994
fertilizers 3994
Overall 3993
will@@ 3992
West@@ 3992
Austria 3992
unseen 3992
Jacqueline 3992
concepts 3991
populations 3991
wells 3991
Vellore 3991
spy 3990
tain 3989
anag@@ 3989
CS 3988
earth@@ 3988
imag@@ 3988
English@@ 3988
Biblical 3987
Francisco 3987
MI 3987
pious 3986
violates 3986
drone 3986
Enjoy 3986
Mukul 3986
fron@@ 3985
CF@@ 3985
throwing 3983
emissions 3983
Demand 3983
irrit@@ 3982
aces 3982
outlay 3982
Cheteshwar 3982
asw@@ 3981
Movies 3980
wipe 3979
login 3978
operator 3978
Fat@@ 3977
spreads 3977
nick@@ 3977
aswamy 3977
overwhelmed 3976
fornication 3976
endured 3976
Regulatory 3976
Rum@@ 3976
toxic 3975
Israelite 3974
iss 3973
TI 3973
mented 3972
strip 3972
air-@@ 3971
bers 3971
Continue 3970
satisfactory 3970
vis 3970
AW@@ 3970
Cambridge 3970
Chandrashekhar 3970
keyboard 3969
aned 3969
e-up 3969
diamond 3969
villain 3969
concentrate 3968
quantities 3968
dire 3966
Chal@@ 3966
das 3966
inevitable 3966
Basket 3966
Sut@@ 3966
scor@@ 3965
resolutions 3965
Teh@@ 3965
shor@@ 3964
SHO 3963
revenues 3962
Dikshit 3962
Success 3961
slapped 3961
masala 3961
Ordinance 3961
clarify 3960
MA@@ 3960
bury 3959
Wedding 3959
Far 3958
theories 3958
alarming 3958
rebellious 3957
tively 3957
singers 3957
reap 3956
intimate 3956
mid 3956
ordained 3955
first-ever 3955
regulated 3954
hated 3953
tial 3953
dom 3952
greed 3952
directive 3952
riot 3952
proposes 3951
Jit@@ 3951
lip@@ 3951
inge 3950
refund 3950
robbed 3949
dancer 3949
spell 3948
Joy 3948
rolls 3947
akar@@ 3947
3D 3947
Taxes 3946
met@@ 3946
pur-@@ 3946
Kem@@ 3946
helpless 3945
plac@@ 3945
freed 3945
unconscious 3945
Bin 3945
ede 3944
acclaimed 3944
i. 3944
tor-@@ 3944
deduction 3944
carved 3943
PPE 3942
rak@@ 3941
beefed 3941
Dat@@ 3941
Phil@@ 3940
humbly 3940
semifinals 3940
enly 3939
thin@@ 3939
onboard 3939
Dubey 3939
newborn 3938
gra 3938
Tap@@ 3938
bare 3938
NGO 3936
BB@@ 3936
gatherings 3935
Paresh 3934
notion 3934
booths 3933
300@@ 3933
rati@@ 3932
discern 3932
pity 3932
merchant 3932
Youve 3932
purity 3931
boss 3931
URL 3930
regist@@ 3930
2011-12 3930
Location 3929
turing 3928
equi@@ 3928
NG@@ 3928
irrespective 3928
eswar 3928
Bhaskar 3928
Expressing 3928
gran@@ 3928
alis 3928
upgrade 3927
ida 3927
outlets 3927
cali@@ 3926
Expenditure 3926
Laws 3924
gir@@ 3923
hind@@ 3923
undergone 3923
capacities 3922
courtesy 3922
staff@@ 3922
ulam 3921
nur@@ 3921
Mathura 3921
tham 3921
gol@@ 3921
Overseas 3921
anticipatory 3921
diversi@@ 3920
-related 3919
hya 3919
ounce 3919
Fight 3919
34@@ 3919
gesture 3918
Maoists 3918
Thiruv@@ 3918
posi@@ 3917
Govern@@ 3917
fatigue 3917
Kom@@ 3917
Jhansi 3916
sphere 3915
Status 3915
apura 3915
corrected 3914
Cru@@ 3914
und 3914
hired 3914
Micah 3913
exercised 3913
jected 3913
obtaining 3913
curious 3913
106 3912
Usman 3912
Narayanan 3912
instituted 3911
delivers 3911
motivation 3910
LY 3910
absconded 3910
painted 3909
meas@@ 3909
biology 3909
lessness 3909
tsunami 3909
itations 3908
plight 3908
gov.in 3908
dium 3908
wl 3907
Ara@@ 3907
arrogant 3904
Tejashwi 3904
dimensions 3903
Estate 3902
marvelous 3902
whomever 3902
osh 3902
aling 3901
publisher 3901
preservation 3899
initi@@ 3899
applicants 3899
115 3899
hunting 3898
compact 3898
Thanjavur 3896
174 3896
akers 3895
imperative 3895
upli@@ 3895
Prov 3895
Mahila 3895
territorial 3894
capped 3894
tion. 3893
beans 3893
Warrier 3892
Raghuram 3892
accounting 3891
Heads 3891
Ginger 3890
consol@@ 3889
fix@@ 3889
Kota 3889
worries 3888
uncertain 3887
preference 3886
bid@@ 3886
urb@@ 3885
Van 3885
isha@@ 3884
Fuel 3884
check@@ 3883
Risk 3883
depart 3883
vicinity 3883
Allow 3882
layers 3882
Kutch 3882
barred 3881
aran 3881
journalism 3880
Blessed 3879
SL 3879
airspace 3879
ve-@@ 3879
Patekar 3879
BJP-Shiv 3879
reddy 3879
displays 3878
Saaho 3877
Link 3876
sympathy 3876
Pash@@ 3876
bearers 3875
Merkel 3875
Philipp@@ 3875
fixing 3875
Ek 3875
ballot 3875
Law@@ 3874
Face 3874
Rinse 3874
bidding 3873
Noble 3873
Sag@@ 3872
Gram@@ 3872
hati 3871
Duke 3871
surplus 3871
workforce 3871
slavery 3870
epic 3870
Yellow 3870
adap@@ 3869
desp@@ 3869
NTPC 3869
perceive 3868
Cambodia 3868
4G 3868
pleas 3868
under-@@ 3867
mir@@ 3866
enduring 3866
Scott 3866
invalid 3865
Statue 3865
relieve 3865
Creations 3865
shoots 3864
Digvijaya 3863
Mega 3863
asp@@ 3863
tube 3863
Tibet 3862
102 3861
devo@@ 3860
fore 3860
Ye 3860
Bairstow 3860
accounted 3859
Inc 3858
Ramayana 3858
Tennis 3858
wound 3857
ody 3857
sne@@ 3857
sedan 3857
profitable 3855
1,5@@ 3855
plat@@ 3854
heres 3854
mills 3854
Tat@@ 3854
acquainted 3853
Laboratory 3853
Initiative 3853
1967 3853
studio 3853
Mahar@@ 3853
Discussions 3852
adh@@ 3852
ski 3852
slew 3852
Rampal 3852
improvements 3851
offenders 3851
Accused 3851
ille 3850
Regular 3850
cand@@ 3850
1951 3850
rams 3849
Maritime 3849
Mug@@ 3848
transit 3848
cute 3848
CNG 3848
rod 3847
indicating 3847
Countries 3847
fingerprint 3846
poultry 3846
coloured 3846
disbursed 3845
Sig@@ 3844
Form 3844
Jim 3844
Gen. 3844
kingdoms 3843
Import 3843
com 3843
disturbing 3843
Gurgaon 3843
Ajith 3843
asted 3842
admits 3842
main@@ 3842
MlA 3842
ski@@ 3840
Keshav 3840
survivors 3839
tissue 3837
sel 3837
org 3836
lamps 3836
-off 3836
Kom 3836
advise 3836
Fashion 3836
Color 3835
naked 3835
Tea 3835
Kiren 3834
pad 3834
uls 3834
erous 3833
1957 3833
retaliation 3833
Jay 3833
rooted 3832
iter 3832
jo 3832
Hil@@ 3831
quick@@ 3829
Dan 3829
certification 3829
Bhand@@ 3829
mo 3828
publish 3827
Tandon 3827
PI 3827
ven 3826
nodal 3826
mem@@ 3826
validity 3825
fa 3825
Protocol 3824
Neh@@ 3824
Hopefully 3824
awaits 3823
Thessalonians 3823
VS 3823
boarding 3823
Dharma 3822
2-megapixel 3822
open@@ 3821
vendors 3821
Domin@@ 3821
Ut@@ 3821
Kay@@ 3820
ral 3819
Chhatrapati 3819
Gok@@ 3819
taluka 3819
calf 3818
Race 3818
frustration 3817
nutritious 3817
wad 3817
evangeli@@ 3815
Kaz@@ 3815
PCB 3815
sacked 3814
textile 3814
Psych@@ 3814
Stri@@ 3813
haz@@ 3813
Dark 3813
exploitation 3812
describing 3812
Ret@@ 3812
lean 3811
captive 3810
ez 3810
che 3810
Mujahideen 3810
depend@@ 3809
enary 3809
Lyon 3809
How@@ 3808
concludes 3808
concluding 3808
accelerate 3808
boxes 3807
Dun@@ 3807
ill-@@ 3807
fool@@ 3807
107 3807
dispersed 3807
bits 3806
Gri@@ 3806
lied 3806
Million 3806
uno@@ 3805
Haj 3805
kars 3805
aine 3804
uk 3804
resemb@@ 3803
Rejuvenation 3801
solving 3801
Chile 3801
billions 3800
Hows 3800
les@@ 3800
stra 3800
CWC 3800
underlined 3800
availed 3799
educate 3799
MNS 3798
elle 3798
Bay@@ 3798
emotion 3797
itches 3797
ature 3796
Peel 3796
fam@@ 3795
deliveries 3795
quarrel 3795
ex-showroom 3795
all-new 3795
threaten 3794
Present 3794
disability 3794
22@@ 3794
off-@@ 3793
36@@ 3792
pin 3792
adjust 3791
prompted 3791
utor 3791
earth. 3791
Coastal 3791
smo@@ 3790
arch 3790
mouse 3789
acks 3789
Prak@@ 3789
VK 3788
retrieved 3788
MM@@ 3788
Prof@@ 3788
Holder 3788
Package 3787
Sakshi 3787
shapes 3786
stit@@ 3786
compelled 3785
barriers 3785
specialist 3785
Responding 3785
uth@@ 3785
glasses 3785
disastrous 3784
Gag@@ 3784
Sanj@@ 3784
ini@@ 3784
Arya 3784
Lemon 3783
Arthur 3783
deliberations 3782
zzle 3782
testify 3781
secretly 3781
portions 3780
erring 3780
8,000 3780
Isa 3780
Satya 3780
rub 3780
eri@@ 3780
client 3779
F-16 3779
twist 3779
popularly 3779
Kia 3779
Roc@@ 3777
accompany 3777
hanged 3777
requ@@ 3777
Cape 3777
anese 3777
Kotak 3777
Log@@ 3776
Mrs. 3776
FT 3775
tization 3775
definite 3775
aids 3774
gentle 3774
addiction 3774
plates 3774
fet@@ 3773
Green@@ 3773
Bhan@@ 3773
Bun@@ 3772
arg@@ 3772
aerial 3771
raging 3770
remarked 3770
miserable 3770
Broad 3770
seasonal 3770
cheese 3770
Palaniswami 3770
Expl@@ 3769
deepest 3769
HR@@ 3769
floral 3768
assed 3768
Hydro@@ 3767
crush 3767
Screen 3767
clarification 3767
tur 3767
prosper 3766
celebrity 3766
perfection 3765
floating 3765
Karunanidhi 3765
Treaty 3764
detect 3764
Multiple 3764
JK 3763
swung 3762
shaken 3761
000@@ 3761
acids 3760
enic 3759
Users 3759
Cuttack 3759
Maurya 3758
vari@@ 3758
sunlight 3757
transform@@ 3756
permits 3755
hic 3755
1955 3754
Arch@@ 3754
Fee 3754
fried 3754
Clear 3753
puri@@ 3753
competing 3753
nourish@@ 3752
incense 3752
wed 3752
lime 3752
Tushar 3752
Drive 3751
persec@@ 3751
Interview 3750
furious 3750
manife@@ 3749
misled 3749
shouldn 3749
wai@@ 3748
Constable 3748
vocal 3747
Than@@ 3747
Mans@@ 3747
Loan 3747
Divine 3746
assuming 3746
Given 3746
stipulated 3746
Watson 3746
Chun@@ 3745
Waqf 3745
Post@@ 3744
fabric 3743
5G 3743
saint 3743
here@@ 3743
rampant 3743
Sorry 3742
21@@ 3742
prolonged 3742
cia 3742
cit@@ 3742
Players 3742
Boult 3742
reminds 3741
tail@@ 3741
arily 3740
holes 3740
particles 3740
debated 3739
nest 3738
liberal 3738
Deverakonda 3738
fleet 3737
prisoner 3737
Prabhakar 3736
H.@@ 3736
maintains 3736
tag@@ 3736
planets 3736
KTM 3736
convenience 3736
Thak@@ 3736
motives 3734
character@@ 3734
rest@@ 3734
Viol@@ 3734
VC 3734
descent 3734
hima 3734
ishers 3733
Rehman 3733
setback 3733
blockade 3732
mislead 3731
Healthcare 3731
isa 3731
radical 3731
101 3731
Camp 3730
NDPS 3730
Laxmi 3730
Write 3729
itable 3729
Hans 3729
Numbers 3728
strangers 3728
tip 3728
Promo@@ 3727
tide 3727
occurrence 3727
breeding 3727
230 3726
Audi 3726
Cast 3725
bedroom 3725
captivity 3724
PT 3724
Hav@@ 3723
Cain 3723
Hen@@ 3723
tanker 3722
tionary 3722
Cause 3722
regrets 3722
fraternity 3722
boycott 3721
strongest 3718
tightened 3718
monument 3717
Idea 3717
vandalised 3717
proclaim 3716
din 3716
KDE 3716
pop 3716
state-@@ 3716
Amy 3716
Coming 3715
athlete 3715
Uganda 3715
conceived 3714
refin@@ 3714
Megh@@ 3714
Morocco 3712
pore 3712
Usually 3711
suits 3711
Offices 3710
amba 3710
rejection 3710
Vice-@@ 3710
Pvt 3710
pointing 3709
PRO@@ 3709
begotten 3709
companys 3709
Ok@@ 3709
1940 3709
Zero 3709
GNOME 3708
itive 3708
anic 3708
irregularities 3708
Pednekar 3708
Manik@@ 3708
Prev@@ 3707
monuments 3706
Compl@@ 3706
alternate 3706
Jyotiraditya 3706
sia 3705
USB 3704
you@@ 3704
MBA 3704
emission 3703
denial 3703
Hezekiah 3703
picking 3703
RK 3703
Hitler 3702
spinners 3702
axis 3701
Anything 3701
Hillary 3701
Samantha 3701
Square 3700
Egyptians 3700
altercation 3700
Bank@@ 3700
anam 3700
Tehran 3700
Panda 3699
disobedience 3699
Circle 3699
pig@@ 3699
MBBS 3699
dioxide 3699
human@@ 3699
by-@@ 3698
Polish 3698
forgiven 3697
scary 3697
scandal 3696
lookout 3696
Black@@ 3696
pensioners 3696
shad 3696
trou@@ 3695
potentially 3695
Pennsylvania 3695
boiled 3695
2013-14 3695
postal 3695
conquered 3694
Shaheen 3694
LoC 3694
disruption 3692
sist@@ 3692
horror 3692
ounced 3691
bombing 3691
flew 3691
Ep@@ 3690
era@@ 3690
Maneka 3689
ity-@@ 3689
weighed 3689
ention 3689
dismisses 3689
Khulna 3689
Nashik 3689
coupled 3688
commemor@@ 3687
anne 3687
HD@@ 3687
supervis@@ 3686
avoiding 3686
countless 3686
stly 3686
embrace 3686
Gha@@ 3686
scripture 3685
Celebrations 3685
1946 3685
Vidarbha 3685
Renault 3685
Fore@@ 3684
rib@@ 3684
Kut@@ 3684
nings 3684
explaining 3684
Rom 3684
Pannu 3684
Nep@@ 3683
sadness 3683
Dharam@@ 3683
romance 3681
donations 3681
trag@@ 3681
dest@@ 3681
Uma 3681
90@@ 3681
essay 3680
Ol@@ 3680
TCS 3679
blu@@ 3678
oppressed 3677
25th 3677
FE@@ 3677
urt 3677
placing 3676
Jac@@ 3676
utting 3676
Pathankot 3676
Archer 3676
Inst@@ 3675
23.@@ 3675
Play@@ 3675
Bharat@@ 3675
hydrogen 3675
dowry 3674
certified 3673
seas 3673
omes 3673
authored 3673
conducts 3673
Prithvi 3673
memorable 3672
comforting 3672
ecture 3672
vian 3672
recite 3672
Reacting 3671
Rock 3671
slide 3671
jun@@ 3671
foster 3670
Dad@@ 3669
Kashmiris 3669
Tirunelveli 3668
mitting 3668
til@@ 3667
Darbar 3667
hostile 3666
hia 3666
cheque 3665
interc@@ 3664
peti@@ 3664
memorandum 3664
secrets 3664
progressed 3664
Notification 3663
dishes 3663
ceremonies 3663
Bos@@ 3662
Fish 3662
Framework 3661
Pope 3661
burns 3661
Choksi 3661
Volume 3660
Sukhdev 3660
brass 3659
alpur 3659
bloggers 3659
publicity 3658
behavi@@ 3657
Cat@@ 3656
invasion 3656
ype 3655
rented 3655
tter 3654
announcing 3654
Caribbean 3654
Ton@@ 3654
lawmakers 3654
stimul@@ 3653
prejudice 3653
Czech 3653
-free 3653
downpour 3652
appearances 3652
urs 3652
requisite 3652
Rac@@ 3652
Childrens 3652
rulership 3651
continually 3651
teenagers 3651
Petition 3651
Skoda 3651
apo@@ 3650
faction 3650
gha 3650
Nazi 3649
2,500 3649
enced 3649
bow@@ 3647
1,8@@ 3647
krishna 3647
screen@@ 3646
Rap@@ 3646
NA 3646
Half 3645
Traders 3645
investor 3645
Twenty20 3645
Release 3644
Rag@@ 3644
Qaeda 3644
brac@@ 3644
Melania 3643
Gau@@ 3643
life-@@ 3643
ressed 3643
multilateral 3643
Fig@@ 3643
Speech 3642
Saheb 3641
tit@@ 3641
abducted 3641
Room 3641
Hind 3641
evolving 3640
spac@@ 3639
gated 3639
portrait 3639
marginal 3636
acking 3636
beli@@ 3635
Kurnool 3635
ided 3634
nit@@ 3634
survivor 3634
gn@@ 3633
Mukhtar 3633
formulated 3633
beer 3633
eral 3632
DCP 3632
instruc@@ 3631
Registrar 3631
Kasaragod 3631
inning 3630
northeastern 3630
ritual 3630
tables 3629
far@@ 3629
cross@@ 3628
http 3627
NCR 3627
Motion 3626
DoNER 3625
Jones 3625
Gurmeet 3625
pray@@ 3624
Got 3624
Reduce 3624
Sons 3624
stretched 3623
PH@@ 3623
convince 3623
raw@@ 3623
anthem 3623
pocket 3623
tongues 3622
Vasundhara 3622
IITs 3622
Richardson 3622
Sound 3621
arpur 3621
continuation 3620
resh 3620
comb@@ 3620
translations 3620
SONGS 3620
graphy 3619
Macron 3618
flu@@ 3618
JeM 3617
PG@@ 3617
1949 3617
Kund@@ 3617
el-@@ 3617
Bhatt@@ 3617
itory 3616
1,6@@ 3616
autom@@ 3616
earthquakes 3615
Nepali 3615
Colombia 3614
Societies 3614
Broad@@ 3612
exile 3611
Danish 3611
Irfan 3611
Stre@@ 3610
Malaysian 3610
Trees 3610
Venezuela 3610
medallist 3609
eleven 3609
weighs 3607
bio-@@ 3607
wav@@ 3606
Nur@@ 3606
Hand 3606
zi 3606
Secret 3605
signals 3605
disciplines 3605
sensors 3605
duly 3604
V-@@ 3604
Tour 3604
etic 3604
Sajid 3604
Rashmika 3604
compatible 3603
cum-@@ 3603
baking 3603
proves 3603
compliant 3603
corners 3602
IV@@ 3602
brick 3602
Gop@@ 3602
Amarnath 3602
5-megapixel 3602
protocols 3601
Aryan 3601
inte@@ 3600
emotionally 3600
compe@@ 3600
Slov@@ 3600
Rane 3599
battles 3598
Appreci@@ 3598
ville 3598
Unemployment 3598
Poverty 3597
CR 3597
real@@ 3597
ague 3597
oting 3597
sodium 3597
keted 3596
360 3596
constructing 3595
jute 3595
Prominent 3595
underlying 3594
quits 3594
springs 3594
sprin@@ 3593
communicated 3593
waived 3593
Faridabad 3592
31.@@ 3592
meg@@ 3591
Jimmy 3590
Rest@@ 3588
Teaching 3588
Chang@@ 3588
Product 3588
wrestler 3588
archi@@ 3587
X-@@ 3587
Fal@@ 3587
oxide 3587
summons 3586
27.@@ 3586
Pet@@ 3586
CG@@ 3585
Farm 3585
filmmakers 3584
refugee 3584
man-@@ 3584
ood 3584
mediate 3583
teenage 3583
prestige 3583
attacker 3583
val 3583
Aus@@ 3583
architectural 3583
MR 3583
Maratha 3583
megapixel 3583
Words 3582
slight 3582
Kamala 3582
Thoughts 3581
anding 3580
uphold 3580
enforced 3579
occurring 3579
esan 3579
Husbandry 3578
Rath@@ 3578
jan@@ 3577
one-day 3577
forefathers 3576
esha 3576
cruise 3576
vill@@ 3575
taxation 3574
incomplete 3574
listeners 3574
ponder 3573
Mysuru 3573
farm@@ 3573
indicators 3572
aftermath 3572
1,9@@ 3572
ushed 3572
pumps 3571
aiy@@ 3571
tenders 3571
Krishnan 3571
Permanent 3570
demolished 3570
Za@@ 3570
Boeing 3570
Apostle 3570
Parineeti 3570
identical 3569
hra 3569
mildness 3568
Todays 3568
disappointing 3568
vow 3567
dragged 3566
foul 3566
MB@@ 3565
curry 3565
ayam 3565
Areas 3564
counts 3563
Antonio 3563
politic@@ 3563
Amaz@@ 3562
excise 3562
pledged 3562
Chemistry 3562
Swe@@ 3561
class@@ 3561
Sasikala 3561
Fs 3560
deth 3560
obstruc@@ 3559
Nayak 3559
creed 3559
airing 3558
ject 3558
lightly 3558
apar@@ 3558
Roh@@ 3558
Mercy 3557
CE 3557
Tensions 3556
OP 3556
hears 3556
CEOs 3555
grip 3555
odes 3555
absor@@ 3554
Fine 3553
vation 3551
Himself 3551
Wag@@ 3551
regulate 3550
Santa 3550
rammed 3550
NSS 3549
extradition 3548
Steps 3547
lash 3547
135 3547
tournaments 3547
Dim@@ 3546
antine 3546
Tony 3546
sweets 3546
defended 3545
PMC 3545
blockbuster 3545
architect 3544
Faisal 3544
life@@ 3543
Shr@@ 3543
Sleep 3543
thar@@ 3543
stairs 3543
bes@@ 3542
hrs 3542
merchants 3541
intends 3541
Sto@@ 3541
Gir@@ 3541
Praveen 3541
Writing 3540
shooter 3540
askar 3540
Garlic 3540
64@@ 3540
astic 3540
impetus 3539
cater 3539
accommod@@ 3539
jac@@ 3539
predict 3538
abolished 3538
uro@@ 3538
VI 3538
1930 3537
Fle@@ 3537
Vel@@ 3537
demonstrators 3537
ign 3536
firstborn 3536
Akademi 3536
bay 3536
Bansal 3536
IU@@ 3535
Jagdish 3535
Hema 3535
aic 3534
eze 3534
ignorant 3534
conve@@ 3533
tom@@ 3533
Ma 3533
sewage 3533
sided 3532
,5@@ 3532
Images 3532
chancellor 3532
Archi@@ 3531
leak 3531
liability 3531
u-@@ 3530
distinguish 3530
Kolhapur 3530
Rose 3530
viable 3528
Cyprus 3528
Thai 3528
Majority 3528
INDIA 3528
Murder 3528
vigil 3527
enter@@ 3527
Aware 3526
akh 3526
uch 3525
proj@@ 3525
GPS 3525
Aud@@ 3524
dialogues 3523
titular 3523
22.@@ 3523
Edit 3522
Mothers 3522
helmet 3522
poorest 3522
rivalry 3521
Khur@@ 3521
Lou@@ 3521
pricing 3520
raided 3520
noon 3519
Boxing 3518
READ 3518
uds 3518
Ramana 3518
,7@@ 3517
tel 3517
Venkatesh 3517
Naga 3516
Jos@@ 3516
2025 3516
Procedure 3516
gaz@@ 3515
itate 3515
Guardian 3515
Mars 3515
Obviously 3514
28.@@ 3514
Islam@@ 3514
Jonny 3514
SK 3514
carto@@ 3513
Dialogue 3513
valu@@ 3513
Amma 3512
ership 3512
fascinating 3512
mysterious 3512
1958 3512
Satellite 3511
Nom@@ 3511
historians 3511
Yas@@ 3511
saves 3510
precisely 3510
plic@@ 3510
Coach 3510
interpre@@ 3509
Aditi 3509
Integr@@ 3508
scarcity 3508
Ath@@ 3508
flagged 3508
Vari@@ 3508
arti@@ 3508
PO 3508
praising 3507
firefighters 3507
Blair 3507
Creation 3506
bec@@ 3506
publ@@ 3506
incidence 3506
heal@@ 3505
righ@@ 3505
upgradation 3504
PoK 3504
evel@@ 3504
4.5 3504
three-member 3504
beasts 3503
Rot@@ 3503
gotten 3503
1968 3503
Sita 3503
endless 3502
Jab@@ 3502
oding 3501
Agencies 3501
Chamber 3501
teth 3501
Ow@@ 3500
senses 3500
tortured 3500
trips 3500
basin 3500
Brooklyn 3500
122 3500
complications 3500
displaced 3499
judgments 3499
GOD 3499
bull 3499
Zechariah 3498
Sheila 3498
Yam@@ 3496
Estimates 3496
Anantnag 3496
Irish 3496
icity 3496
Victory 3495
aun 3495
quali@@ 3494
ete 3494
dharna 3493
entries 3493
MU@@ 3493
devil 3493
Tah@@ 3493
Len@@ 3493
Marsh 3493
Mira 3493
damaging 3492
avenues 3492
pleases 3491
practicing 3491
all-time 3491
Wilson 3491
LTTE 3491
respectful 3490
109 3490
Technologies 3489
abduction 3489
Samiti 3489
1964 3489
talaq 3488
rites 3488
uts 3488
Enfield 3488
Nehemiah 3487
certainty 3487
Funds 3487
capit@@ 3487
wilt 3487
refusing 3486
attractions 3486
precise 3485
solely 3484
seven@@ 3484
full-time 3484
dishon@@ 3483
Institution 3483
Miller 3483
itted 3482
pagan 3482
tible 3481
anism 3481
destiny 3481
Emmanuel 3481
forged 3481
ro-@@ 3480
guaranteed 3480
eight-@@ 3479
textiles 3479
absent 3478
enjoyable 3478
EV 3478
Cr 3478
Moeen 3478
usi@@ 3477
drag@@ 3477
LD 3477
subcontinent 3477
whe@@ 3477
Villagers 3477
owe 3476
hurled 3476
Mediterranean 3476
deficiency 3475
purchasing 3475
cinematography 3475
je 3475
Shramik 3475
vel@@ 3474
mit 3474
chocolate 3474
prob@@ 3474
fia 3474
essed 3473
boxing 3473
Editor 3472
relaxation 3472
rit 3472
idd@@ 3471
Gabriel 3471
Glo@@ 3471
Ank@@ 3471
captaincy 3471
polytheists 3471
azi 3470
agram 3470
Delete 3469
affliction 3469
uation 3469
pleas@@ 3469
collided 3469
Tol@@ 3468
et-@@ 3468
khar 3468
bearer 3468
excav@@ 3468
Securities 3467
Huge 3467
Lakshadweep 3466
ington 3466
them@@ 3466
Wood 3466
RT@@ 3465
enny 3465
Kham@@ 3464
Kall@@ 3464
LRB 3464
24-@@ 3463
Spend 3463
Nadal 3463
Shashank 3463
Gow@@ 3462
Speed 3461
maxim@@ 3461
Peru 3461
guarded 3460
forec@@ 3460
Anwar 3460
spot@@ 3459
frontline 3459
Earthquake 3458
umin@@ 3458
fast-@@ 3458
eria 3458
healed 3457
Ls 3457
Tibetan 3457
Baal 3456
quarre@@ 3456
persist 3456
encomp@@ 3456
Benefit 3455
treatments 3455
athe@@ 3454
dark@@ 3454
envisaged 3454
Delhi@@ 3454
umping 3454
ONGC 3453
physi@@ 3453
grab 3452
patt@@ 3452
appetite 3452
Pet 3452
Kabaddi 3452
Libya 3452
suppose 3451
Sacred 3451
lip 3451
ornaments 3451
PWD 3451
earths 3449
Set@@ 3448
Sana 3448
Yamaha 3448
ts@@ 3447
ectors 3447
Delhi-NCR 3447
fry 3446
banana 3446
navig@@ 3445
erti@@ 3445
Chaturvedi 3445
realm 3444
anded 3444
forefront 3444
chal@@ 3444
Gaurav 3444
ordin@@ 3443
Jubilee 3443
Gwalior 3443
arajan 3443
dle 3442
Baat 3442
Soni 3442
infra@@ 3441
ld@@ 3441
Post-@@ 3441
ologically 3441
Chronicles 3441
accuses 3441
highest-@@ 3441
agi 3441
metric 3441
composing 3440
side@@ 3439
assumption 3439
lone 3439
Diabetes 3439
gracious 3438
abha@@ 3438
Types 3437
Kr@@ 3437
Akh@@ 3436
amp 3436
illi 3436
announcements 3436
Bal 3436
ev 3436
7.5 3435
bent 3435
Rajouri 3435
Saw@@ 3434
ISA 3434
Adarsh 3434
educ@@ 3433
Maintain 3433
1963 3433
child@@ 3432
honored 3432
22-@@ 3432
Previously 3432
Indian-origin 3431
Fav@@ 3431
door@@ 3430
Spo@@ 3430
-long 3430
Tourists 3430
Vision 3429
coordinate 3429
observers 3429
encro@@ 3429
Bandra 3428
Baghdad 3427
consu@@ 3426
homeless 3426
Bachelor 3426
Constitutional 3426
Meg@@ 3426
eptive 3425
co-operation 3425
substances 3425
Rev. 3425
earnest 3424
mohan 3424
,0@@ 3424
illustrations 3423
achar@@ 3423
insul@@ 3423
Interestingly 3422
Elisha 3422
Sanjiv 3422
rickshaw 3422
Diploma 3421
dare 3421
Biju 3421
swelling 3421
eman@@ 3421
outfits 3421
mounting 3420
Chha@@ 3420
electr@@ 3420
Mohd 3420
creativity 3419
thrilling 3419
trem@@ 3419
Harsimrat 3419
sanitary 3419
ruins 3418
Godse 3418
wid@@ 3417
emon 3417
Ports 3417
ffed 3416
cries 3416
los@@ 3416
1942 3415
Spiritual 3414
pleaded 3414
Gobind 3414
programming 3414
snatched 3414
Manpreet 3414
drastically 3413
Euro@@ 3413
Subhas 3413
Sale 3413
fer 3413
await 3412
downs 3412
screaming 3412
Dream 3412
serpent 3411
Mail 3411
Activities 3410
contaminated 3410
2-1 3410
comparable 3409
repo 3409
laptop 3408
Tang@@ 3408
Warriors 3408
inter 3407
Guinness 3407
six@@ 3407
cometh 3407
tremors 3406
bour@@ 3406
nail 3405
stealing 3404
turnout 3404
tempted 3403
snow@@ 3403
Cho@@ 3403
clari@@ 3403
Geeta 3403
reviewing 3402
Ale@@ 3402
arika 3401
nie 3401
confirms 3400
termin@@ 3400
augh@@ 3400
unlawful 3399
ka@@ 3399
threatens 3398
Pav@@ 3398
PR 3398
Fourth 3398
DBT 3397
reflecting 3397
womb 3397
Anganwadi 3396
Confederation 3396
Isha 3396
deliverance 3395
SM@@ 3395
commencement 3395
Ka 3395
Long@@ 3395
114 3395
Pre-@@ 3394
Sirisena 3394
travels 3393
logo 3393
indulging 3393
infectious 3393
streaming 3393
Forests 3393
Mathematics 3392
seas@@ 3392
25.@@ 3392
3-0 3392
Morris 3392
Zuckerberg 3392
alarm 3391
Armageddon 3391
GE@@ 3391
struction 3391
tre 3391
117 3391
Bow@@ 3391
TRA@@ 3390
Changes 3389
-12 3389
ulating 3388
Upadhyay 3388
Eyes 3387
Ashram 3387
stranger 3386
pounds 3386
pora 3386
rish@@ 3385
activated 3385
Hit@@ 3385
perf@@ 3385
Amin 3385
thick@@ 3384
Raveesh 3384
artistic 3383
Accoun@@ 3383
Work@@ 3382
misery 3382
hung 3382
H. 3381
IFFI 3381
uni 3380
catches 3380
Ox@@ 3380
Fri@@ 3380
pression 3379
spect@@ 3379
gene 3379
Appeal 3379
Sivan 3379
Investors 3378
ght 3377
Kathmandu 3377
Arti@@ 3377
scrutiny 3376
11-@@ 3376
W. 3375
prostrate 3375
envoy 3375
country@@ 3374
ariya 3374
arre@@ 3374
ghs 3374
grated 3373
Pulsar 3373
directives 3372
Balochistan 3371
ograp@@ 3371
Vaj@@ 3371
Ranji 3371
bio@@ 3370
organiz@@ 3370
Pil@@ 3370
Site 3369
appealing 3369
pro 3369
,4@@ 3369
greatness 3368
Contact 3368
64GB 3368
manhunt 3367
anned 3366
esting 3365
ounc@@ 3365
FI 3364
ict 3364
planting 3363
qualifications 3363
12,000 3363
towers 3362
Engineers 3362
Jaw@@ 3362
26.@@ 3362
FT@@ 3361
Plans 3360
vide 3360
Islamia 3360
autonomy 3359
Draw 3358
tness 3358
Himalayas 3358
exceeding 3358
Taapsee 3358
ya@@ 3357
pag@@ 3357
1.2 3357
tussle 3357
Sex 3356
goat 3356
breasts 3356
RRR 3356
shoo@@ 3355
Cla@@ 3355
jinder 3355
Zion 3354
Spec@@ 3354
replacing 3354
atomic 3354
Pakistan-based 3353
Shivam 3352
LM 3351
uti@@ 3351
Paper 3351
Subram@@ 3351
Virtual 3350
Dou@@ 3350
Tai@@ 3350
neuro@@ 3349
70@@ 3349
Giriraj 3349
sect 3348
vas 3348
VA 3348
Missing 3347
RA 3347
attribute 3346
GA 3346
dissolved 3345
PIB 3345
,8@@ 3344
faithless 3344
musician 3344
depicted 3344
UIDAI 3344
Forbes 3344
Liverpool 3344
sensitivity 3343
Kashmirs 3343
steep 3343
Pho@@ 3342
Severe 3342
esp@@ 3341
indig@@ 3341
Buddhists 3341
intern@@ 3341
prosec@@ 3341
Fernandez 3341
Ramya 3341
inception 3340
faults 3340
hyper@@ 3340
Century 3339
Castes 3339
IndiGo 3339
editing 3338
Respect 3338
naught 3338
Sky 3337
harb@@ 3337
Bac@@ 3337
Lev@@ 3336
Lockdown 3336
Vill@@ 3336
credibility 3336
Smt.@@ 3336
explosives 3335
Azmi 3335
rejoicing 3335
Promised 3334
subscription 3334
Murli 3334
thered 3333
harmon@@ 3333
mann 3333
Bathinda 3333
Tanushree 3333
Kis@@ 3332
Storage 3332
Abul 3332
rents 3332
nod 3331
ling@@ 3331
cleaned 3331
302 3331
18-@@ 3331
bye 3330
Tak@@ 3330
Carlos 3330
Assamese 3329
plain@@ 3329
24th 3329
Rainfall 3329
9,000 3329
4GB 3329
Previous 3328
failures 3328
inking 3328
patrolling 3328
lob@@ 3328
tory 3327
standstill 3327
100,000 3327
dozens 3327
Youn@@ 3327
itably 3327
e.@@ 3326
dication 3326
UPSC 3326
gan 3326
slowed 3325
conceded 3325
lon 3325
Boston 3324
combating 3324
DR 3324
tariffs 3324
pharmaceutical 3323
1966 3323
qualifying 3322
Pay@@ 3322
Yash@@ 3322
stationed 3321
buil@@ 3321
ced 3320
roadside 3320
endeav@@ 3319
Jinnah 3319
Fab@@ 3319
curd 3316
colonies 3316
abbing 3314
conferences 3314
Oli 3313
belly 3313
beautifully 3313
Gab@@ 3313
cyber@@ 3313
metropolitan 3313
obeyed 3312
film@@ 3312
ware@@ 3311
HA 3311
mos@@ 3311
edi@@ 3311
atics 3310
struggles 3310
see@@ 3310
wada 3310
Adams 3309
CII 3309
Activ@@ 3309
Ill@@ 3309
Au@@ 3309
Adv. 3309
folded 3308
nor@@ 3308
Plat@@ 3308
amm@@ 3307
Near 3307
Volkswagen 3307
clergy 3306
amend 3306
colony 3306
Few 3305
Explo@@ 3305
Bell@@ 3305
terrified 3304
surviving 3304
cigarettes 3303
massacre 3302
public@@ 3302
placement 3301
sett@@ 3301
me. 3301
fur 3299
oked 3299
126 3299
Produced 3299
Konkan 3299
CSIR-@@ 3299
horrible 3298
neighborhood 3298
supersti@@ 3298
runway 3298
shu 3297
remembers 3296
purely 3296
Nin@@ 3296
verify 3295
enth 3295
Quali@@ 3295
Galilee 3293
Equ@@ 3293
impart 3293
opponent 3293
discre@@ 3292
assisting 3292
Fruits 3292
jol@@ 3291
Koth@@ 3291
panels 3290
OR 3290
inflammation 3290
brake 3290
Lack 3289
equals 3289
Cad@@ 3289
sie 3289
F. 3289
constitu@@ 3289
aph@@ 3288
Krishi 3288
Shopian 3288
Mi 3288
securing 3287
fresh@@ 3287
Shre@@ 3287
Carey 3287
Fit 3286
Artificial 3286
dwellers 3286
differenti@@ 3286
eed 3286
peac@@ 3285
exam@@ 3285
centered 3284
MT@@ 3284
ulture 3284
Triple 3284
Lin@@ 3283
Neg@@ 3283
var 3283
alls 3283
utilization 3283
Add@@ 3282
stan 3281
supplying 3281
Indian-American 3281
Dhi@@ 3281
Meth@@ 3280
Cel@@ 3280
Albert 3280
pardon 3279
Orthodox 3279
Ahuja 3279
tancy 3278
smallest 3278
Indus 3278
Sabka 3278
Chanda 3278
legends 3277
flown 3277
occupy 3276
Into 3275
interpreted 3275
cles 3275
naming 3275
Taj@@ 3275
statues 3275
chant 3275
Khawaja 3275
dialog 3274
Ca@@ 3274
appe@@ 3274
05.@@ 3274
SIM 3274
constr@@ 3274
32GB 3274
Married 3273
incentive 3273
eco-@@ 3273
ditions 3273
1939 3273
gas@@ 3273
rag@@ 3272
AA 3272
hypocrisy 3272
Mustard 3272
Sonowal 3271
Comprehensive 3271
that@@ 3271
Legislature 3271
apologize 3270
m-@@ 3269
Ramdev 3269
decreed 3268
aiming 3268
laughter 3268
lend 3268
Shik@@ 3266
Pradeshs 3266
Meenakshi 3266
dges 3265
advocates 3265
erstwhile 3265
Rus@@ 3265
bind 3264
snapped 3264
erness 3264
hybrid 3264
seven-@@ 3264
wonders 3263
deer 3263
Titus 3262
contestants 3261
classic 3261
betrayed 3261
26th 3261
allur 3261
pass@@ 3260
thal@@ 3260
Journalists 3260
illi@@ 3259
yielded 3259
pav@@ 3258
Foo@@ 3258
resp@@ 3258
RTC 3258
kicked 3257
assaulting 3257
mam@@ 3256
Ks 3256
vers@@ 3256
NSG 3256
hesitate 3255
shade 3255
anal@@ 3255
Dr.Harsh 3255
Madhavan 3255
Recruitment 3254
Lord. 3254
yang 3254
Balasaheb 3254
Lakh@@ 3253
Kanyakumari 3252
chasti@@ 3252
sauce 3252
Globe 3252
bypolls 3252
wanting 3251
itating 3251
fli@@ 3251
Haridwar 3250
cloudy 3250
unnatural 3250
startup 3249
Simple 3249
1954 3249
sement 3249
une 3248
Corn@@ 3247
lashes 3247
Jah@@ 3247
gms 3247
ean 3246
literal 3246
grow@@ 3246
rendra 3246
Balbir 3246
Diljit 3245
ocation 3245
BCM 3245
concentrated 3244
constructive 3244
Rohtak 3244
instrumental 3243
ungodly 3243
nets 3243
Pam@@ 3243
umbrella 3242
Colony 3242
Non 3241
disagree 3241
edited 3241
arh 3241
maize 3241
answering 3240
enthusiastic 3240
HP 3240
198@@ 3240
eshwara 3240
Marine 3239
cuisine 3238
ange 3237
Provid@@ 3237
cursed 3237
populated 3236
Prad@@ 3236
stepping 3236
Geneva 3236
Academic 3235
Brahmaputra 3235
Appellate 3235
dilemma 3235
Toronto 3235
ensuing 3235
dictionary 3234
awesome 3234
fitted 3234
extrem@@ 3234
apol@@ 3234
paras@@ 3234
ATMs 3234
pressu@@ 3233
U.S.A. 3233
audi@@ 3233
round@@ 3233
listing 3232
Congress-JD 3232
ually 3231
degrad@@ 3231
Mountains 3230
ity. 3230
defines 3230
sells 3230
Analysis 3229
PRESIDENT 3229
Panneerselvam 3229
gambling 3228
akrishnan 3228
swallow 3227
spoil 3227
Regulations 3227
FOR@@ 3227
Diffe@@ 3227
Singhvi 3227
Parties 3226
Americas 3226
vehicular 3226
beats 3226
Chartered 3225
Edward 3225
Fatima 3225
Abrahams 3224
CAG 3224
spake 3224
Available 3223
organise 3223
ador@@ 3223
suburban 3223
MEA 3223
arisen 3222
buzz 3222
Tejas 3222
Arbaaz 3222
Behera 3222
honestly 3221
Shruti 3221
akaran 3221
Anthony 3220
Ambala 3220
Francis 3220
[...]
