__src__en__ 49774246
. 39809517
the 31242437
, 25956139
of 16539771
and 14189672
to 13499306
in 12288970
__tgt__hi__ 10125706
a 9353976
" 9004716
__tgt__bn__ 8604580
is 8387637
The 7177337
__tgt__ml__ 5924426
__tgt__ta__ 5264867
for 5066543
__tgt__te__ 4946035
that 4432905
was 4397886
on 4311916
__tgt__kn__ 4093524
has 3844796
__tgt__mr__ 3627480
are 3565148
be 3550709
have 3217885
with 3205341
will 3092375
__tgt__gu__ 3067790
__tgt__pa__ 2980383
by 2944418
? 2892168
: 2863286
not 2834668
it 2747070
I 2746642
this 2683810
( 2600273
) 2598231
as 2592300
at 2451997
from 2431212
said 2216268
been 2209276
He 2194115
you 2085598
were 2043910
also 1982877
his 1969026
India 1908397
he 1858466
's 1735225
an 1733399
It 1537960
had 1537043
This 1397918
their 1358443
Minister 1321120
But 1314629
all 1294516
they 1259665
or 1208453
police 1200924
them 1170913
people 1144182
who 1126964
we 1122328
We 1074465
one 1065850
can 1054056
no 1024122
A 1015324
In 998609
__tgt__or__ 998228
which 947055
do 927623
' 924873
about 897306
him 889330
government 854104
Singh 836013
There 833896
there 830777
time 829286
They 827995
- 824516
against 823573
two 821190
BJP 820263
its 801312
your 800182
out 799822
What 777532
film 776452
case 774938
Indian 768682
other 767156
up 762617
our 756634
her 751191
! 741173
after 729126
would 723982
first 715614
what 713686
over 712608
but 700148
Modi 685446
Congress 664002
more 656349
so 652704
should 631637
into 623686
being 608838
state 603185
my 591580
Police 587072
us 586854
any 577614
Prime 574924
made 559189
when 556331
And 555304
under 553816
Delhi 545032
new 541283
me 540923
did 539828
God 532351
Rs 527836
country 523879
very 519630
such 516454
However 513889
then 506763
You 501379
some 497609
day 497243
many 495567
these 490653
like 485736
only 482812
than 464609
Chief 464145
incident 457179
those 456190
taken 455380
1 451991
work 446853
per 446598
She 443099
So 441908
/ 440509
if 437623
between 437387
am 431829
life 425694
take 420415
good 420346
How 415844
three 409244
know 404122
Pakistan 403615
't 400870
during 400655
world 399240
Narendra 388158
she 386682
well 385885
here 381216
2 377131
No 377009
New 371786
arrested 369774
Government 369504
Jehovah 368893
family 368843
get 367820
accused 366666
come 364460
crore 364210
... 363320
need 358784
while 357194
President 355924
through 354289
-@@ 352601
water 351762
could 350161
State 343870
hospital 342926
make 341068
injured 340265
present 337471
before 336105
too 333495
place 332652
Gandhi 330704
way 330051
s 329953
how 326381
last 326314
number 325343
may 323651
That 323538
years 321511
man 319319
party 317606
% 316158
children 315740
minister 312321
court 311649
most 310837
just 308991
His 308533
meeting 305866
shall 304895
district 303621
registered 303341
All 302886
chief 302172
took 300755
year 300609
Kumar 300149
say 299956
As 298760
help 298672
go 296240
Pradesh 295738
media 295274
Shri 295185
given 295165
even 294750
both 293536
Khan 293513
Its 292863
social 291421
For 290830
Court 290785
10 288757
where 286090
going 285255
does 285191
lakh 284523
Why 283410
3 283306
If 281906
others 280235
un@@ 280212
same 279992
part 276771
death 275641
down 274012
back 271650
matter 271124
today 270084
On 269541
yet 269146
see 268291
Jesus 268067
including 266425
women 266413
among 265894
students 265502
killed 264370
Union 264030
B@@ 263626
& 263320
National 262570
S@@ 261783
days 261398
home 258798
died 257948
5 257646
spot 256805
later 255277
dont 255177
want 255089
must 255029
US 253466
PM 253386
Rs@@ 253370
Mumbai 252683
much 252234
former 251643
used 249452
D@@ 248563
each 248556
president 247856
won 245301
cases 243064
started 242872
team 242832
held 242390
set 242210
Allah 241961
done 240081
movie 239032
different 238876
son 237440
body 236816
4 236725
right 235647
leader 234953
says 234425
After 234292
K@@ 234233
action 234215
every 233536
When 233140
never 232542
love 232004
cent 231274
due 230104
now 230086
second 229827
Rahul 229015
next 227564
came 226130
found 225542
things 225360
because 224732
Sabha 223862
important 222875
i 221907
T@@ 221742
four 221378
[ 220959
] 220877
Ministry 220542
name 220465
far 220243
off 219753
power 219250
members 217856
away 217694
Punjab 217492
area 216826
G@@ 216608
another 216515
situation 215861
several 214866
use 214834
health 212155
got 212112
called 212005
Bible 211830
P@@ 211661
still 211479
A@@ 210501
One 210465
soon 209971
Tamil 209949
city 209857
decision 209212
long 208665
sent 208477
Kashmir 208092
Sharma 207679
wife 207041
issue 205736
occasion 204697
leaders 203985
give 203467
various 202788
asked 202380
great 201895
Then 201160
few 200618
persons 199556
around 199126
video 198811
further 198414
order 198330
6 198243
investigation 198184
World 197377
These 196922
house 196331
development 195481
seen 195363
o 194852
M@@ 194618
k@@ 193879
become 193421
H@@ 193198
L@@ 192971
own 192700
fire 192362
men 191133
Shah 190831
role 189587
information 189206
C@@ 189060
re@@ 188344
support 188225
father 188055
15 187097
attack 186154
At 185958
told 185487
elections 184836
already 184693
person 183950
again 183922
in@@ 183863
across 183605
countries 181329
Lord 181269
Maharashtra 181007
able 180803
farmers 180679
why 180645
20 180624
however 178532
political 178445
went 178066
public 177951
12 177917
known 177284
high 176819
five 176446
end 176443
regard 176369
Do 176101
8 175379
along 175188
complaint 174814
F@@ 174320
er 174244
Bank 174213
land 172843
lot 172669
Many 172441
money 172337
security 171713
To 171416
7 170610
woman 170310
available 169896
law 169852
since 169244
reported 168945
ers 168863
think 168307
Two 168154
states 168115
times 167367
added 167261
Is 167124
cannot 166501
N@@ 166375
happened 165976
China 165797
officials 165111
lead 164847
together 164388
Kapoor 164237
Act 163985
People 163576
best 163311
p@@ 162841
led 162779
d@@ 161493
My 161109
report 160568
system 160169
news 160133
u 159992
received 159411
Who 159388
Some 158727
seats 157878
R@@ 157650
al 157507
total 157119
Lok 157045
mother 156947
b@@ 156634
special 156519
actor 156247
official 156214
Gujarat 155821
s@@ 155650
Bangladesh 155612
filed 155504
areas 155350
Supreme 154920
treatment 154836
look 154611
West 154459
E@@ 154356
J@@ 154014
reached 152858
announced 152344
y@@ 152242
Gods 151581
age 151476
problem 151151
national 151016
released 150850
without 150844
ing 150516
9 150211
school 150180
W@@ 150069
put 149674
South 149612
following 148973
upon 148676
es 148615
n@@ 148594
Thats 148137
working 148019
Both 147709
Kerala 147031
t@@ 146897
High 146657
11 146503
directed 146434
food 145645
doing 145050
change 144992
dead 144971
informed 144750
Day 144557
question 144534
left 144186
road 143917
making 143586
true 143525
nothing 143195
win 143178
local 143036
village 142660
accident 142643
m@@ 142161
always 142093
University 141933
based 141866
States 141786
parents 141673
Bollywood 141554
__tgt__as__ 141227
50 141091
large 140606
Jehovahs 140500
3@@ 140400
an@@ 140384
visit 139891
Party 139773
earth 139426
30 139132
month 139076
Our 138917
event 138810
currently 137951
series 137485
ar 136875
Secretary 136814
e@@ 136556
Jammu 136489
Central 136229
Karnataka 136020
O@@ 135975
Ram 134710
election 134463
According 134188
daughter 133997
lost 133964
al@@ 133447
believe 133237
match 132798
4@@ 132745
include 132664
taking 132578
anything 132386
g@@ 132302
show 131692
let 131591
Bengal 131544
became 131048
didnt 130983
better 130829
S 130699
An 130212
MP 130168
face 130007
films 129973
find 129277
14 129219
hand 129162
saying 129072
e 128961
100 128885
child 128840
third 128817
keep 128473
human 128077
education 128057
t 128019
result 127753
ar@@ 127747
process 127297
25 126991
General 126852
car 126720
provide 126717
play 126672
level 126243
United 126234
example 126219
company 126184
service 126180
girl 126163
thing 126150
Health 125730
Home 125673
big 125625
launched 125595
With 125576
continue 125503
issued 124953
major 124904
Indias 124774
V@@ 124761
needs 124246
5@@ 123646
statement 123419
comes 123379
immediately 123193
ation 123090
played 122941
Trump 122931
shared 122714
Assembly 122547
en@@ 122521
station 122515
reason 122427
top 122209
brought 122193
might 122127
phone 121791
heart 121772
h@@ 121726
cricket 121655
ed 121411
2020 121036
workers 120970
6@@ 120899
CBI 120865
form 120810
problems 120797
13 120759
war 120704
runs 120670
Department 120406
Not 120355
Test 120184
period 120087
cause 120019
Amit 119999
possible 119885
really 119571
senior 119500
services 119289
Nadu 119228
ate 119011
increase 118653
price 118345
Kohli 118340
business 118122
free 118093
Australia 117589
post 117410
future 117241
coming 117201
small 117114
f@@ 117103
international 117044
truth 116819
l@@ 116511
O 116505
live 116397
control 116044
happy 116016
don 115918
group 115894
project 115851
lives 115730
i@@ 115631
night 115205
Development 115034
gave 115018
provided 114984
v@@ 114676
am@@ 114158
issues 113978
rushed 113582
list 113241
old 113079
till 113007
book 112816
connection 112564
24 112530
Justice 112165
U@@ 112132
7@@ 112049
market 111951
within 111754
District 111553
16 111511
member 111376
something 111300
decided 111273
attended 110814
office 110742
er@@ 110740
bring 110708
sector 110603
towards 110424
admitted 110172
full 109999
written 109889
less 109872
account 109471
entire 109430
young 109249
y 109127
murder 108907
head 108901
recently 108798
means 108747
cost 108701
expected 108515
w@@ 108404
final 108359
history 108296
nation 108106
prices 108022
side 108021
18 107635
Rajasthan 107172
earlier 107087
Former 106863
Haryana 106858
Commission 106746
ever 106743
words 106585
International 106334
six 106302
Sri 106234
faith 106234
Centre 106183
private 105977
medical 105738
likely 105700
week 105691
r@@ 105493
million 105491
k 105487
c@@ 105417
start 105372
condition 105215
story 105102
meet 104884
Uttar 104779
months 104562
During 104545
17 104405
general 104204
ones 104148
I@@ 103964
release 103861
temple 103766
himself 103699
husband 103670
clear 103664
parties 103410
began 103380
u@@ 103212
j@@ 103119
Army 102945
getting 102643
rate 102638
having 102629
peace 102530
o@@ 102431
2@@ 102409
open 102336
friends 102328
viral 102263
gone 102109
details 102028
behind 101968
Hospital 101777
study 101567
past 101549
near 100973
CM 100689
a@@ 100415
Bihar 100283
2019 100280
m 100202
date 100136
hit 100046
ating 100014
mind 99990
C 99973
king 99903
works 99895
field 99394
happen 99063
though 98952
director 98931
oil 98912
parts 98782
feel 98668
close 98625
as@@ 98609
understand 98388
read 98236
K 98216
ated 98023
Hindi 97986
view 97878
ts 97796
driver 97636
fight 97524
st@@ 97346
ad@@ 97293
region 97266
wrote 97182
8@@ 97142
economic 97007
growth 96922
places 96912
often 96877
stars 96618
secretary 96607
captain 96475
Affairs 96375
efforts 96344
building 96206
19 96054
Yadav 95726
course 95665
wrong 95509
interest 95455
candidates 95379
Twitter 95311
questions 95041
dis@@ 94802
declared 94600
England 94596
Cabinet 94588
produced 94488
music 94370
serious 94266
th@@ 94219
Director 94131
40 94122
strong 94104
care 94086
Dont 94075
married 93897
results 93667
fear 93659
programme 93646
Christian 93640
College 93407
answer 93183
financial 93177
Ali 93156
Parliament 93120
investigating 93088
COVID-19 92866
little 92795
ag@@ 92754
e-@@ 92665
Paul 92660
Three 92565
politics 92320
run 92154
main 92142
increased 92076
Virat 91972
districts 91934
remain 91598
While 91498
created 91487
using 91472
Hyderabad 91305
Finance 91152
21 91087
data 91008
point 90982
protest 90981
Meanwhile 90937
suicide 90902
lodged 90578
May 90404
language 90045
least 90011
b 89977
Of 89917
spirit 89853
recovered 89668
brother 89481
ha@@ 89374
Israel 89366
Committee 89247
whom 89142
scheme 89073
word 89008
en 88983
call 88829
Chennai 88683
More 88647
hope 88582
gold 88312
industry 88188
22 88120
front 88074
officers 87965
alleged 87955
huge 87885
Air 87807
features 87727
ab@@ 87537
Sena 87401
ch@@ 87162
light 87146
Let 87061
2018 86942
once 86935
anyone 86817
global 86815
game 86791
early 86771
largest 86765
living 86744
Cup 86675
job 86543
on@@ 86418
move 86344
Dr 86247
9@@ 86186
unto 86137
ya 86105
expressed 86102
R 86093
North 86044
B 86004
camera 85972
whole 85953
di@@ 85849
needed 85755
poor 85737
claimed 85733
z@@ 85709
P 85608
Im 85567
School 85525
Council 85441
bank 85183
return 85043
it@@ 85003
stated 84991
everyone 84934
Most 84867
nor 84779
hard 84741
Y@@ 84503
Board 84464
blood 84421
Z@@ 84416
conducted 84315
ani 84285
related 84184
committee 84105
at@@ 84069
ways 84060
coronavirus 83924
de@@ 83914
Where 83874
passed 83863
share 83774
Kingdom 83748
society 83624
ensure 83623
raised 83584
met 83526
basis 83449
response 83449
Later 83385
fact 83346
identified 83248
forces 83226
according 83165
themselves 83134
knowledge 83103
Christians 83097
Your 82992
test 82937
officer 82684
bus 82513
allowed 82414
youth 82385
common 82352
kind 82306
Medical 82293
or@@ 82216
respect 82196
reports 82168
everything 82119
Here 82101
experience 81960
families 81953
difficult 81930
candidate 81916
Witnesses 81900
Her 81897
Are 81848
playing 81733
success 81680
rain 81567
Andhra 81562
air 81549
Education 81346
pay 81286
tell 81275
talk 81199
Also 81186
thought 81151
March 80994
trying 80839
activities 80664
ti@@ 80659
amount 80623
benefit 80612
production 80576
crores 80524
named 80403
g 80400
heavy 80249
until 80207
.@@ 80132
line 80083
plan 80020
18@@ 79982
responsibility 79966
schools 79902
easy 79892
key 79814
ting 79780
affected 79713
central 79571
points 79535
changed 79369
involved 79241
economy 79107
Telugu 79031
injuries 78908
n 78891
relationship 78744
leave 78646
required 78567
ana 78500
English 78353
position 78322
single 78223
Mr 78106
capital 78084
seven 78084
community 77987
teams 77889
assembly 77846
positive 77830
projects 77746
spread 77736
personal 77670
Rohit 77646
demanded 77587
Vijay 77443
worked 77422
patients 77421
percent 77397
MLA 77351
Re@@ 77349
loss 77229
policy 77197
tax 77107
above 77063
Several 77039
morning 77009
probe 76920
D 76875
hands 76866
technology 76774
Africa 76716
Their 76671
el@@ 76657
M 76617
vehicles 76542
ask 76372
roles 76245
Yes 76212
actress 76168
stop 76165
personnel 76125
ye 76125
David 76022
ant 76020
April 76013
energy 75821
appointed 75817
bad 75757
Now 75745
population 75745
followed 75717
ans 75712
cant 75547
underway 75495
paid 75455
violence 75361
ready 75338
Madhya 75288
Salman 75218
An@@ 75200
'@@ 75031
Shiv 75004
foreign 74992
joined 74870
century 74787
brothers 74648
eyes 74638
train 74513
training 74477
2017 74463
d 74440
saw 74377
marriage 74370
Theres 74287
real 74278
Reddy 74253
address 74218
doctors 73998
completed 73990
current 73867
ur 73824
Those 73820
higher 73665
In@@ 73621
By 73512
necessary 73482
hold 73454
reasons 73295
turn 73289
Deputy 73221
June 73129
deal 73049
act 72997
religious 72929
speak 72887
shot 72867
either 72841
ak@@ 72760
online 72584
red 72524
force 72394
23 72370
included 72149
participated 72046
heard 71804
ministry 71792
Christ 71741
charge 71478
ates 71477
letter 71433
wickets 71418
disease 71386
spiritual 71336
wanted 71263
John 71191
forward 71060
born 71034
authorities 71033
sons 71030
caused 70998
town 70760
looking 70755
stand 70744
research 70510
houses 70495
ac@@ 70461
regarding 70400
rights 70209
Defence 70116
Telangana 70088
steps 70083
From 70017
Hindu 69958
T 69762
department 69757
progress 69624
Will 69535
certain 69443
km 69348
passengers 69342
East 69329
ap@@ 69293
trade 69273
polls 69244
seat 69208
message 69198
whether 69106
L 69103
Kolkata 69079
IPL 69034
Whats 68969
opportunity 68960
es@@ 68913
Everyone 68893
popular 68851
companies 68845
Even 68826
doesnt 68792
Facebook 68769
learn 68751
ro@@ 68723
ri@@ 68699
late 68695
quite 68687
is@@ 68592
July 68527
September 68443
quality 68398
60 68349
500 68321
construction 68287
active 68249
December 68180
$ 68155
h 68076
rest 68056
outside 68008
ra 67992
located 67970
House 67867
ly 67820
bodies 67759
function 67744
similar 67611
Al@@ 67610
cooperation 67568
record 67530
Students 67506
28 67448
ad 67443
Rs.@@ 67351
Muslim 67288
religion 67137
200 67026
Women 66758
rise 66711
Following 66688
highest 66679
hours 66358
Institute 66241
pur 66229
alone 66199
military 66198
leading 66121
p 66084
demand 66069
stay 65927
ahead 65921
else 65839
als 65829
picture 65760
MLAs 65691
le@@ 65672
committed 65589
November 65588
26 65557
etc 65532
follow 65495
class 65439
opposition 65301
increasing 65233
kept 65215
makes 65150
vehicle 65087
try 65072
couple 65014
revealed 64964
fine 64940
includes 64805
purpose 64792
Chinese 64791
Since 64747
Commissioner 64695
October 64684
non-@@ 64603
moved 64512
sh@@ 64512
turned 64491
especially 64448
cities 64411
'm 64372
l 64350
prime 64333
citizens 64315
Bharat 64314
seized 64288
January 64251
failed 64226
ago 64213
takes 64125
governments 64052
arrest 64010
income 64006
season 63997
formed 63959
fans 63938
reach 63934
term 63925
First 63918
're 63909
Earlier 63814
be@@ 63788
measures 63663
Ministers 63637
recent 63627
Public 63423
Indians 63409
considered 63381
im@@ 63368
Other 63335
search 63105
ent 63051
ah 63032
ministers 62930
birth 62928
knows 62896
Best 62865
board 62833
administration 62764
August 62758
li@@ 62715
Governor 62548
TV 62498
value 62450
congregation 62404
Ar@@ 62372
il@@ 62353
American 62207
employees 62178
Patel 62172
Sanjay 62159
Special 62149
gets 62115
Priyanka 62114
daily 62046
changes 62011
giving 61995
page 61938
Par@@ 61882
half 61861
Read 61816
ground 61803
mobile 61773
offer 61709
hearing 61706
developed 61657
ul@@ 61652
traffic 61624
deceased 61563
2016 61446
enough 61415
continued 61222
denied 61207
Har@@ 61172
Sha@@ 61170
roads 61118
effect 61085
pressure 60987
sources 60949
management 60813
players 60797
em@@ 60763
operation 60652
campaign 60612
Am@@ 60515
Besides 60515
spoke 60501
2014 60483
E 60457
shifted 60448
Rajya 60443
worth 60370
custody 60290
evidence 60199
student 60113
tried 59968
Agriculture 59884
rejected 59858
ai 59842
27 59839
eat 59789
award 59693
built 59627
Such 59584
banks 59574
low 59562
Rao 59556
ur@@ 59548
published 59519
indeed 59515
handed 59511
application 59507
conference 59489
British 59484
worship 59460
successful 59445
storage 59412
launch 59359
Bill 59340
teachers 59315
Raj 59251
diesel 59239
Man@@ 59234
section 59167
complete 59138
Ch@@ 58927
groups 58863
create 58837
attention 58829
Mar@@ 58817
1.@@ 58809
movement 58793
wants 58707
ha 58641
ala 58494
Sh@@ 58446
upcoming 58438
Another 58437
examination 58411
tweeted 58311
Constitution 58300
closed 58287
sure 58240
supply 58235
Only 58208
rule 58194
Pakistani 58149
recorded 58129
deep 58072
um 57906
border 57869
con@@ 57840
shooting 57814
ine 57780
Can 57633
products 57617
facilities 57592
returned 57475
friend 57473
fully 57452
Asia 57448
victory 57430
Lanka 57421
over@@ 57410
Prasad 57391
freedom 57333
carried 57325
ol@@ 57324
deaths 57290
didn 57183
short 57108
constituency 57103
concerned 56982
Hence 56963
Security 56802
culture 56777
ic@@ 56771
serve 56769
31 56746
City 56726
c 56725
approved 56699
Donald 56686
therefore 56583
space 56464
investment 56442
below 56404
inside 56395
session 56372
rich 56361
step 56285
press 56281
pictures 56141
river 56126
ji 56112
Election 56078
eight 56061
capacity 56035
Con@@ 56006
confirmed 55958
sp@@ 55930
jail 55903
card 55878
Corporation 55845
hi@@ 55822
justice 55815
rules 55775
Cricket 55756
N 55737
star 55692
Muslims 55661
strength 55624
plays 55622
February 55517
song 55502
elected 55456
charges 55425
discussed 55403
opened 55346
simple 55274
felt 55271
performance 55203
evening 55165
rural 55097
Nobody 55060
thou 54990
Zealand 54886
Ram@@ 54857
addition 54843
Today 54757
80 54753
fast 54753
29 54747
rains 54710
goes 54630
Russia 54625
hear 54611
se@@ 54530
z 54486
70 54464
ka 54385
alliance 54373
institutions 54370
Bengaluru 54277
petrol 54254
legal 54213
die 54184
Technology 54162
established 54096
mean 54045
fall 53996
Sonia 53995
talks 53969
Senior 53959
majority 53955
Raj@@ 53939
scored 53934
served 53895
nations 53857
crime 53827
Ad@@ 53800
infrastructure 53791
organised 53772
whose 53751
Dr. 53707
Dhoni 53703
Yet 53701
si@@ 53679
website 53674
petition 53613
conditions 53608
x 53586
G 53585
he@@ 53454
ia 53426
college 53402
ally 53369
Water 53359
benefits 53344
ing@@ 53343
Four 53341
suffered 53329
natural 53316
remember 53316
offered 53285
Kejriwal 53282
room 53269
stopped 53244
presented 53234
Therefore 53222
books 53076
Chairman 53075
hi 53072
Research 53065
Opposition 53052
Instagram 53030
Un@@ 53025
soldiers 53025
terms 52994
site 52966
Road 52940
GST 52926
critical 52851
ted 52845
relations 52837
2015 52821
file 52810
army 52770
isnt 52746
Have 52743
Group 52679
Japan 52662
Assam 52657
fell 52628
previous 52627
le 52625
happening 52574
remained 52573
consider 52559
Over 52558
allow 52520
av@@ 52508
Vice 52474
facing 52474
tions 52456
ic 52438
Sam@@ 52424
black 52396
ex@@ 52371
trust 52357
bail 52270
receive 52235
suffering 52202
kar 52175
el 52151
staff 52109
om@@ 52072
NCP 52044
Force 52039
Him 52022
girls 52019
gives 51959
names 51950
opportunities 51874
itself 51831
Thus 51814
sought 51755
ordered 51673
matches 51662
moment 51622
35 51521
-- 51516
Law 51502
Award 51495
languages 51484
Be 51372
Kar@@ 51368
allegations 51364
accepted 51332
ul 51329
V 51318
th 51304
helped 51221
article 51191
Under 51145
fourth 51129
pl@@ 51081
et 51065
additional 51043
ings 51020
rape 50989
cultural 50975
visited 50967
Railways 50952
Iran 50945
actually 50940
inquiry 50818
cut 50812
refused 50806
safety 50755
attend 50751
est 50707
ma 50700
vote 50684
Anil 50643
thats 50619
laws 50587
posted 50548
accept 50509
ceremony 50481
direction 50415
Railway 50411
prepared 50408
sister 50392
providing 50361
responsible 50271
risk 50262
os@@ 50246
League 50229
improve 50218
x@@ 50201
railway 50200
mentioned 50164
biggest 50138
shows 50069
doctor 50066
ous 50039
up@@ 49990
completely 49972
almost 49891
stage 49878
thus 49842
arrived 49839
join 49749
environment 49713
Rajnath 49666
sea 49660
King 49627
someone 49621
sides 49599
te@@ 49479
save 49377
contest 49375
speech 49354
enter 49333
victim 49319
source 49308
impact 49200
se 49191
us@@ 49154
Farmers 49076
helps 48974
seriously 48933
and@@ 48888
Science 48848
operations 48840
continues 48735
growing 48728
remains 48661
travel 48658
rally 48579
safe 48561
ak 48553
Sar@@ 48529
assistance 48514
de 48509
seeking 48487
Bachchan 48439
boy 48434
votes 48386
speaking 48385
add 48376
model 48365
ay@@ 48290
healthy 48285
SP 48283
art 48235
yourself 48226
focus 48202
Mo@@ 48200
bench 48198
Add 48136
Afghanistan 48123
tr@@ 48106
Civil 48097
except 48085
status 48061
Association 48026
holy 48012
career 47971
Because 47957
ir@@ 47934
_ 47908
X@@ 47868
female 47859
ties 47812
Every 47799
notice 47789
employment 47757
events 47746
chairman 47720
ite 47623
cash 47620
leadership 47572
ations 47569
democracy 47524
matters 47516
Apart 47455
U 47437
um@@ 47428
ons 47410
avoid 47327
2.@@ 47263
meetings 47259
Moses 47241
apply 47208
pe@@ 47201
signed 47153
airport 47057
conduct 47036
Monday 47005
mark 46980
Don 46979
celebrated 46940
clean 46755
Kaur 46691
London 46683
+ 46668
looked 46653
France 46624
ability 46603
terrorists 46603
Actor 46562
Goa 46546
begin 46534
6.@@ 46458
modern 46457
beautiful 46417
discussion 46397
ra@@ 46386
lower 46346
De@@ 46342
Bar@@ 46335
Family 46316
presence 46291
relief 46269
10@@ 46260
wasnt 46251
Ra@@ 46239
ks 46235
UP 46176
door 46157
plans 46155
ended 46134
dies 46073
har@@ 46028
terror 46017
32 45985
pain 45964
challenge 45960
Mr. 45936
300 45912
budget 45886
engine 45882
Friday 45837
protests 45829
via 45829
evil 45826
phase 45825
knew 45813
op@@ 45801
happens 45790
Take 45778
sc@@ 45757
lockdown 45701
idea 45693
centre 45683
Foreign 45668
hospitals 45666
virus 45643
watch 45622
neither 45575
announcement 45540
Odisha 45516
crisis 45501
villages 45457
1@@ 45452
han 45450
ran 45357
esh 45356
Office 45343
innings 45307
Article 45303
attacks 45291
et@@ 45291
numbers 45285
BCCI 45240
Father 45229
thy 45201
billion 45164
cast 45158
thinking 45104
claim 45030
sports 45028
ara 44997
Word 44960
significant 44943
Cha@@ 44941
na 44873
festival 44848
truck 44837
end@@ 44831
Peter 44817
urged 44809
importance 44733
gas 44732
certainly 44728
damaged 44688
access 44647
fled 44615
90 44598
ter 44554
detained 44527
plea 44497
Nath 44474
About 44451
running 44398
nature 44298
sub@@ 44288
victims 44165
5.@@ 44117
America 44110
la 44103
users 44095
defence 44055
id@@ 44030
od@@ 44010
actors 43972
surely 43959
ec@@ 43954
primary 43894
rates 43883
extremely 43876
trains 43870
Arvind 43862
GB 43855
strike 43847
effective 43836
occurred 43802
Film 43800
science 43772
corruption 43756
joint 43737
Just 43706
Among 43704
judge 43692
Tata 43668
pandemic 43644
ODI 43585
agreed 43552
s. 43531
15@@ 43494
throughout 43467
FIR 43464
thousand 43460
confidence 43447
sense 43415
Information 43414
photo 43336
extended 43321
seek 43273
physical 43245
75 43241
effort 43241
a-@@ 43218
average 43214
terrorism 43199
subject 43182
note 43165
Chandigarh 43147
talking 43147
review 43128
anti-@@ 43126
servants 43110
Sunday 43109
ten 43109
20@@ 43067
lo@@ 43051
suspended 43029
residents 43027
accounts 43010
check 42978
mis@@ 42964
3.@@ 42932
0.@@ 42920
respectively 42913
CCTV 42907
wedding 42896
Gur@@ 42895
punishment 42895
0@@ 42880
Bal@@ 42867
45 42864
agriculture 42864
'll 42843
degree 42815
har 42779
F 42730
unit 42723
believed 42679
treated 42649
Ma@@ 42645
greater 42618
domestic 42575
voice 42569
receiving 42531
tournament 42502
speed 42491
duty 42490
pass 42482
normal 42458
Q@@ 42453
opening 42430
acting 42345
Krishna 42341
Or 42341
allegedly 42329
Arjun 42327
beginning 42327
south 42285
me@@ 42283
daughters 42277
provides 42252
essential 42245
Su@@ 42240
reply 42227
decisions 42166
Services 42140
loved 42131
Arun 42077
headed 42028
manner 42024
display 42013
sign 42001
exercise 41992
build 41974
Republic 41944
Section 41937
false 41935
ne@@ 41914
Banerjee 41904
Akshay 41890
Naidu 41878
maintain 41878
challenges 41876
proposed 41867
ed@@ 41838
Service 41821
par@@ 41795
4.@@ 41785
verdict 41765
placed 41761
winning 41671
funds 41657
York 41605
north 41595
Welfare 41589
none 41547
Ahmed 41541
Kal@@ 41536
no@@ 41522
implemented 41515
Janata 41492
ban 41475
ang@@ 41473
green 41393
ling 41391
nearby 41381
granted 41370
kg 41362
milk 41341
ancient 41303
7.@@ 41292
prevent 41289
options 41202
chaired 41191
nearly 41154
os 41133
smartphone 41115
trial 41059
begun 41048
submitted 41004
St@@ 40981
apostle 40981
approval 40963
LORD 40956
Deepika 40952
individual 40929
ors 40922
white 40920
bill 40896
player 40880
concern 40871
Tuesday 40868
Life 40852
War 40841
aware 40837
rainfall 40822
civil 40812
path 40769
Children 40761
weight 40754
silver 40744
ud@@ 40705
Nepal 40695
Man 40680
difference 40655
range 40641
deployed 40621
wish 40562
material 40551
la@@ 40541
jobs 40526
protect 40490
qu@@ 40489
17@@ 40475
undergoing 40452
lies 40426
Power 40402
Asian 40349
happiness 40347
competition 40343
Food 40337
property 40314
Se@@ 40248
particular 40222
joy 40221
Islam 40193
Officer 40166
H 40164
ICC 40158
send 40121
coach 40110
sisters 40108
approach 40095
journey 40077
Thursday 40073
ens 40063
feet 40046
maximum 40009
thee 39998
Wednesday 39988
ist 39964
SC 39952
solution 39925
pro@@ 39919
type 39908
sin 39904
33 39871
regular 39861
vs 39839
kill 39828
feature 39781
French 39773
Ramesh 39764
kids 39734
Gupta 39699
r 39674
co@@ 39659
Chopra 39643
battle 39638
Good 39633
introduced 39620
missing 39619
temperature 39616
referred 39614
levels 39613
ut@@ 39598
produce 39573
humans 39550
goal 39515
destroyed 39501
Sa@@ 39497
Scheme 39491
Germany 39486
appeared 39471
latest 39452
carry 39416
incidents 39412
request 39401
shown 39349
Th@@ 39347
ball 39318
Nagar 39289
skin 39278
movies 39270
broke 39267
debut 39250
ve 39241
oc@@ 39240
spent 39235
ch 39159
Malayalam 39150
implementation 39117
era 39094
killing 39078
Five 39065
agency 39063
initiated 39053
credit 39037
colour 39013
strengthen 38956
've 38918
Imran 38911
direct 38908
sitting 38853
soul 38843
aircraft 38837
Prakash 38835
becomes 38833
proposal 38814
wise 38798
fighting 38796
Saturday 38777
enjoy 38772
Social 38767
severe 38754
stone 38744
sleep 38721
faithful 38706
rescue 38686
schemes 38664
target 38644
calls 38632
reality 38619
stations 38600
compared 38589
spokesperson 38586
Further 38572
See 38569
ri 38542
2013 38530
Nothing 38499
Mission 38493
prayer 38466
separate 38443
cancer 38421
proper 38417
develop 38365
ent@@ 38354
units 38339
testing 38321
Di@@ 38311
reduce 38283
heavens 38262
awarded 38221
authority 38215
sexual 38195
invited 38177
f 38172
ruling 38143
Amendment 38141
Did 38139
appeal 38103
generation 38095
J 38072
waiting 38067
bit 38065
scheduled 38044
carrying 38038
longer 38034
beat 38022
UK 38014
wont 38012
out@@ 37992
selected 37937
per@@ 37934
programmes 37925
Ex@@ 37922
bi@@ 37895
offers 37878
Additional 37876
Pawar 37873
RBI 37855
attacked 37852
Indeed 37836
ment 37817
image 37791
write 37773
res@@ 37768
anniversary 37688
t-@@ 37673
potential 37650
supported 37642
equal 37641
forth 37626
resources 37620
Satan 37590
loan 37583
dispute 37568
hearts 37541
San@@ 37532
ari 37530
Ashok 37527
firm 37514
games 37508
immediate 37498
Ravi 37496
Chhattisgarh 37476
-year-old 37458
16@@ 37449
faced 37432
rec@@ 37428
ry 37420
Team 37411
witness 37387
toll 37383
ev@@ 37382
doubt 37364
ish 37334
hurt 37327
Jag@@ 37319
orders 37304
learning 37281
plant 37274
Be@@ 37241
Youth 37225
to@@ 37225
1,@@ 37222
European 37204
for@@ 37192
proud 37175
Bangalore 37171
ir 37153
Y 37152
character 37126
existing 37122
Jharkhand 37121
ator 37111
practice 37097
caught 37087
damage 37083
rather 37069
Sunil 37053
Say 37019
ism 37007
19@@ 37001
Ahmedabad 36996
whatever 36985
UN 36982
Suresh 36955
cover 36930
Each 36915
AAP 36912
Rukh 36880
markets 36872
fellow 36857
signs 36853
Europe 36821
weeks 36819
al-@@ 36814
Anushka 36803
Dhaka 36773
songs 36771
entered 36761
Fire 36751
uk@@ 36744
Book 36739
Kannada 36730
ou@@ 36690
salt 36679
Open 36658
terrorist 36656
protection 36652
round 36635
Although 36627
su@@ 36616
ance 36603
teacher 36603
estimated 36598
promote 36597
pre@@ 36596
acted 36595
seems 36556
Thiruvananthapuram 36549
ness 36505
title 36500
ence 36468
reportedly 36454
Heavy 36445
box 36443
agreement 36441
Mohan 36340
En@@ 36334
vision 36331
network 36316
desire 36288
provisions 36257
break 36200
y-@@ 36169
Amitabh 36156
man@@ 36156
ering 36148
individuals 36145
accompanied 36126
bilateral 36123
app 36120
thousands 36120
keeping 36118
sha@@ 36069
removed 36058
| 36037
criminal 36026
Well 36011
Mal@@ 36003
Speaking 35984
Ajay 35939
mon@@ 35909
er-@@ 35867
Rajiv 35846
besides 35841
sugar 35818
claims 35815
urban 35805
lived 35776
Sports 35770
toward 35766
IT 35764
becoming 35750
Muhammad 35716
Manmohan 35701
instead 35680
ys 35654
External 35648
rising 35635
discuss 35608
marks 35602
table 35593
Management 35582
basic 35581
News 35572
war@@ 35551
Sachin 35547
Saudi 35544
dream 35534
contact 35520
decide 35503
Mamata 35491
powerful 35486
remaining 35473
massive 35468
internal 35459
baby 35458
studies 35418
2012 35402
Please 35390
writing 35389
serving 35384
worlds 35314
Pune 35302
screen 35295
ina 35291
transport 35278
managed 35263
Ltd 35247
specific 35214
noted 35192
goods 35188
interview 35182
Super 35172
cricketer 35171
post-mortem 35166
aid 35156
Bi@@ 35104
ds 35096
wait 35096
particularly 35094
ents 35055
ongoing 35036
reading 35030
drink 35006
listen 34945
couldnt 34943
initiative 34936
laid 34875
ity 34842
br@@ 34837
Mohammad 34819
ies 34815
ED 34797
systems 34768
Korea 34753
buy 34727
Make 34710
program 34689
ai@@ 34686
spoken 34684
heaven 34675
12@@ 34645
Mohammed 34636
setting 34625
university 34625
36 34614
birthday 34611
tree 34606
standing 34593
ang 34573
Thackeray 34567
actions 34566
showed 34555
stood 34545
Google 34532
homes 34487
posts 34486
34 34485
attempt 34475
achieve 34462
Jerusalem 34448
2011 34414
audience 34410
Ab@@ 34405
holds 34402
facility 34385
associated 34341
annual 34340
aw@@ 34301
documents 34288
animals 34279
understanding 34274
Sinha 34238
Le@@ 34191
stands 34180
lakhs 34176
scene 34175
myself 34121
wide 34099
famous 34090
Russian 34079
ren@@ 34044
Matthew 34021
welfare 33993
fresh 33987
score 33975
base 33974
creation 33972
ant@@ 33971
lack 33895
Time 33865
walk 33844
design 33837
Yogi 33826
finally 33804
wicket 33795
ig@@ 33792
category 33786
holding 33785
activity 33777
lose 33771
hair 33763
Control 33728
afraid 33726
sold 33724
addressed 33702
Principal 33698
II 33692
promise 33687
grow 33672
# 33671
judicial 33627
forget 33624
photos 33617
Economic 33586
firing 33514
directly 33507
forms 33485
teaching 33477
digital 33461
minor 33458
Indies 33450
described 33375
nine 33370
usually 33356
8.@@ 33340
despite 33340
ked 33338
fl@@ 33313
drinking 33296
Lal 33293
arrangements 33289
Sushant 33272
X 33265
65 33257
television 33231
abroad 33229
mar@@ 33216
14@@ 33212
les 33211
debate 33201
ath@@ 33194
sale 33186
option 33181
platform 33180
400 33164
mankind 33159
sharing 33158
tic 33136
tested 33135
writer 33134
ari@@ 33118
demands 33107
sustained 33091
flight 33084
trees 33050
James 33047
multiple 33011
@ 33006
permission 33005
Everything 33000
Does 32995
beyond 32994
self 32982
ful 32974
offering 32959
ep@@ 32957
electricity 32946
exam 32927
Islamic 32919
comments 32898
all@@ 32879
Gold 32869
inaugurated 32828
payment 32823
ise 32813
Himachal 32790
unique 32790
version 32771
pm 32766
comment 32763
protesters 32744
provision 32719
af@@ 32704
RAM 32701
dedicated 32688
Jaitley 32675
contribution 32670
Shankar 32669
Fadnavis 32644
gr@@ 32637
awards 32635
investigations 32634
injury 32631
id 32628
0 32616
honour 32588
loving 32573
MPs 32569
tweet 32556
Authority 32555
bl@@ 32547
Love 32539
ourselves 32511
Budget 32496
bo@@ 32492
colleges 32488
Dis@@ 32433
causes 32418
Yahweh 32382
S. 32381
sometimes 32377
imposed 32332
Bha@@ 32302
disciples 32296
believers 32294
Keep 32285
9.@@ 32264
Guru 32263
weather 32254
bat 32242
150 32208
ath 32154
moving 32140
37 32135
ind@@ 32132
Bharatiya 32109
ship 32106
negative 32072
taught 32050
planning 32033
Sitharaman 32032
organisation 32013
IN@@ 32002
Temple 32000
cold 31996
begins 31965
appear 31951
composed 31951
Kovind 31919
forest 31919
examples 31907
sections 31907
Last 31901
co-@@ 31897
divided 31840
Com@@ 31836
guilty 31833
finance 31815
righteous 31812
performed 31811
powder 31784
370 31732
AN@@ 31728
minimum 31718
il 31691
defeat 31679
Sub@@ 31674
Dhawan 31667
relatives 31663
Kamal 31660
bed 31653
wisdom 31651
independent 31631
Mahatma 31626
ty 31603
limited 31601
v 31599
views 31592
ta 31579
ants 31574
Limited 31566
appropriate 31554
skipper 31551
Na@@ 31536
reduced 31533
sing 31509
gh@@ 31505
Coronavirus 31487
chance 31469
promised 31462
camp 31456
doesn 31449
Ive 31428
bear 31414
assured 31398
re-@@ 31387
tests 31355
Thakur 31337
Fund 31331
Photo 31320
ary 31318
resolution 31306
learned 31298
Rajput 31297
rear 31296
MoU 31286
ending 31284
24@@ 31271
anger 31267
circumstances 31258
diseases 31246
union 31241
Transport 31187
deputy 31181
mo@@ 31153
preaching 31152
booked 31106
Anand 31084
opposed 31019
CO@@ 31018
locals 31016
inder 31007
ub@@ 30976
pray 30975
Ranveer 30964
agree 30956
mental 30955
worry 30955
counsel 30954
exchange 30954
meaning 30952
ying 30927
threat 30907
cancelled 30891
looks 30885
ars 30881
Psalm 30879
Abraham 30816
choice 30792
res 30789
hath 30776
MS 30756
ves 30748
participate 30720
Lets 30714
River 30708
commercial 30699
ends 30675
Before 30666
organized 30657
controversy 30651
Due 30639
videos 30629
gain 30627
do@@ 30596
please 30577
simply 30571
partnership 30554
Devendra 30549
Business 30519
choose 30515
Nirmala 30493
developing 30467
drive 30444
proved 30418
asking 30416
centres 30413
Kings 30408
El@@ 30376
respond 30371
CEO 30370
Pro@@ 30352
device 30337
sectors 30331
Internet 30324
W 30310
Tax 30307
encounter 30306
42 30299
prove 30256
IC@@ 30255
patient 30249
48 30242
residence 30240
55 30237
internet 30236
size 30227
IS@@ 30206
Which 30204
lie 30202
drug 30195
alert 30187
ni@@ 30170
Sal@@ 30169
observed 30160
Son 30158
loans 30135
German 30125
ators 30090
e. 30080
Station 30069
ites 30037
medal 30037
99 30014
charged 29989
organization 29972
quickly 29972
j 29963
dismissed 29956
mercy 29953
defeated 29939
species 29927
ins 29888
wishes 29859
Adityanath 29836
values 29830
Though 29828
opinion 29812
Games 29792
notification 29789
costs 29786
Speaker 29782
Dev@@ 29778
awareness 29776
east 29763
BSP 29761
Mishra 29760
types 29750
Human 29727
cinema 29727
manufacturing 29724
lines 29700
command 29699
interests 29675
cr@@ 29673
infection 29670
hundred 29668
guidance 29658
affairs 29653
shares 29647
overs 29644
batsman 29627
aj@@ 29626
ot@@ 29595
Car@@ 29593
questioned 29570
Uttarakhand 29563
advice 29543
ay 29540
K. 29512
touch 29458
original 29446
discussions 29443
cars 29436
13@@ 29421
under@@ 29419
Rai 29415
ali@@ 29375
ding 29374
feeling 29373
illegal 29365
draw 29345
spend 29327
vi@@ 29313
Out 29308
ging 29307
As@@ 29303
ical 29293
influence 29275
Similarly 29274
AR@@ 29257
survived 29229
communication 29222
squad 29220
welcome 29217
flow 29212
symptoms 29203
host 29186
Rahman 29172
entry 29162
ash 29160
vegetables 29128
PTI 29114
double 29113
militants 29092
self-@@ 29091
Watch 29073
technical 29053
ali 29052
Bengali 29038
Joseph 29031
Roy 29023
Ajit 29008
els 28972
inter@@ 28946
Global 28945
mission 28938
leaves 28934
Like 28930
foundation 28894
Ne@@ 28889
TDP 28888
blast 28888
Bhatt 28877
ja 28830
regional 28822
text 28808
Red 28794
RSS 28782
Kapil 28764
agencies 28761
route 28751
judgment 28746
Swaraj 28732
Express 28714
tour 28714
Hindus 28661
phones 28648
ab 28646
Padukone 28609
investigated 28579
Karan 28569
ice 28569
raise 28568
Go 28557
standards 28552
Yoga 28551
Conference 28544
perfect 28532
prominent 28528
Washington 28512
sad 28507
Once 28498
Rural 28493
ative 28480
fee 28476
achieved 28469
Action 28468
Governments 28426
sound 28422
stories 28393
congratulated 28380
link 28371
resignation 28369
Mah@@ 28368
ard 28357
paper 28351
pending 28336
scale 28320
items 28311
ists 28308
prayers 28297
38 28277
dangerous 28260
changing 28258
busy 28246
ker 28245
partner 28226
customers 28220
peoples 28218
mishap 28212
ian 28194
ton 28192
-based 28191
educational 28185
planned 28166
44 28155
worried 28144
govt 28139
priority 28134
fuel 28123
wal 28114
warned 28112
truly 28110
warning 28105
electric 28100
traditional 28087
covered 28069
highly 28038
easily 28026
leads 28004
ages 27992
Nations 27990
followers 27969
Abdul 27963
behalf 27950
litre 27938
cor@@ 27921
subsequently 27909
principles 27899
struggle 27894
hour 27878
resigned 27877
Around 27867
aim 27862
delivered 27857
2010 27845
Nitin 27822
Sector 27821
po@@ 27816
sl@@ 27814
Pan@@ 27795
saved 27792
Mad@@ 27766
youths 27758
Android 27738
distance 27730
nobody 27730
Canada 27728
Mon@@ 27720
Great 27711
limit 27709
degrees 27708
agricultural 27689
computer 27687
der 27687
ology 27664
fifth 27651
cabinet 27638
Tendulkar 27631
literature 27621
fields 27613
tion 27613
acts 27612
clearly 27604
ered 27594
Project 27593
eye 27590
fish 27571
cha@@ 27559
requested 27559
organisations 27535
rivers 27535
ised 27527
guest 27524
historic 27503
producer 27503
Mahesh 27499
resolve 27496
4,@@ 27476
wins 27460
Jan@@ 27452
ats 27415
rescued 27414
Me@@ 27412
2009 27395
compensation 27392
Cl@@ 27379
plants 27378
reporters 27372
revenue 27369
fruits 27349
Mukherjee 27322
constructed 27320
Babu 27310
troops 27309
sacrifice 27297
uses 27297
attitude 27292
connected 27273
Patil 27265
BJPs 27260
Pradhan 27251
contains 27233
seeing 27213
Industry 27212
insurance 27195
ash@@ 27182
initiatives 27181
leaving 27175
the@@ 27161
expect 27152
structure 27134
contesting 27128
fair 27127
Friends 27104
goals 27099
Airport 27080
ph@@ 27076
Pat@@ 27065
advised 27063
user 27058
ke 27054
Devi 27051
ru@@ 27050
style 27035
ob@@ 27034
Were 27009
drugs 26993
fixed 26969
twice 26968
Chandra 26967
au@@ 26952
Chidambaram 26948
regularly 26901
boys 26895
calling 26870
interested 26869
Currently 26855
track 26855
Hes 26852
warm 26849
fund 26831
notes 26824
Amarinder 26808
courts 26796
ill 26786
Kareena 26784
heat 26776
creating 26771
unknown 26766
toss 26759
demanding 26739
waste 26737
\ 26729
ore 26723
Moreover 26714
promises 26712
Look 26690
6-@@ 26683
ter@@ 26675
Sheikh 26671
powers 26671
Captain 26665
Manohar 26662
policemen 26647
Aadhaar 26615
seem 26612
responded 26605
reward 26601
emergency 26599
Kan@@ 26598
broken 26584
careful 26574
Citizenship 26554
falls 26553
strongly 26528
ters 26523
west 26521
clash 26515
numerous 26503
Dal 26493
football 26479
JD 26477
Pandey 26464
opposite 26455
Thank 26447
industrial 26447
stock 26436
ruled 26426
bringing 26415
Egypt 26409
polling 26405
banned 26404
Per@@ 26394
2008 26389
poll 26387
representatives 26382
sed 26360
Greek 26347
wicked 26347
passing 26336
bar@@ 26331
remarks 26330
Australian 26318
commitment 26299
guidelines 26295
gar@@ 26271
00 26267
Ranbir 26267
interesting 26262
shops 26256
Alia 26255
eth 26253
cl@@ 26236
deeds 26231
ute 26229
CPI 26227
headquarters 26217
inspired 26214
og@@ 26210
millions 26207
Ayodhya 26194
standard 26178
addressing 26161
Shetty 26157
Navy 26144
Actress 26140
identity 26133
grant 26101
NDA 26061
tive 26058
pollution 26054
sw@@ 26054
IT@@ 26041
elders 26036
ada 26031
hasnt 25992
Nitish 25987
association 25987
raped 25987
engaged 25979
pal 25968
Kha@@ 25963
crops 25962
air@@ 25958
constituencies 25953
39 25952
jit 25944
Eastern 25920
scared 25915
car@@ 25913
RE@@ 25909
Srinagar 25899
follows 25898
havent 25888
ery 25887
dance 25881
Jews 25875
complex 25865
journalist 25849
DC 25838
product 25817
crowd 25814
filled 25809
atmosphere 25797
flights 25791
stress 25777
Awards 25774
Govt 25773
experts 25764
thoughts 25760
favour 25740
climate 25731
affect 25717
battery 25717
rupees 25690
Commerce 25677
greatest 25663
approached 25659
apart 25638
ho@@ 25625
apex 25616
winners 25608
ita 25607
ram@@ 25607
trouble 25603
att@@ 25597
sts 25594
territory 25587
Maruti 25565
White 25558
plane 25547
q@@ 25541
starting 25536
driving 25533
explained 25529
arms 25522
sky 25511
strict 25503
answers 25462
Post 25453
villagers 25446
nuclear 25442
confident 25441
ms 25438
Society 25428
so@@ 25416
boost 25414
resolved 25400
distributed 25396
principal 25393
alive 25389
surprised 25384
devotees 25379
task 25360
content 25358
forced 25353
Kuldeep 25335
perhaps 25326
answered 25319
Company 25307
ches 25306
thank 25306
male 25298
express 25291
WhatsApp 25289
branch 25288
teach 25275
Joint 25274
policies 25264
Sur@@ 25260
tough 25252
shut 25246
suffer 25213
younger 25196
executive 25190
fun 25180
faces 25165
cup 25147
conducting 25128
Academy 25127
complaints 25112
4-@@ 25111
remove 25092
Royal 25064
designed 25062
helping 25061
bridge 25056
hand@@ 25055
rice 25050
centuries 25049
race 25047
commission 25030
pre-@@ 25030
welcomed 25029
Come 25022
weapons 25013
determined 25004
correct 24992
gi@@ 24992
ver@@ 24989
Scriptures 24981
middle 24975
scientists 24949
prison 24947
successfully 24924
47 24922
scientific 24919
Labour 24904
constituted 24894
postmortem 24893
trailer 24884
Indira 24883
Others 24880
ini 24879
ST@@ 24877
sales 24877
crucial 24874
sex 24874
window 24830
ov@@ 24828
kingdom 24820
43 24814
widely 24793
transferred 24784
gu@@ 24781
lands 24779
proof 24775
memory 24764
forever 24760
resulted 24759
Recently 24757
vital 24748
accidents 24728
secret 24727
Badal 24725
Tourism 24720
ug@@ 24709
worldwide 24707
location 24699
Qu@@ 24696
Despite 24692
Im@@ 24692
survey 24653
tomorrow 24638
ge@@ 24629
Western 24616
cur@@ 24601
Mahindra 24585
Show 24580
balls 24577
anti@@ 24555
files 24552
Aamir 24540
Ro@@ 24536
Kam@@ 24531
Li@@ 24530
animal 24529
Nehru 24528
Sushma 24528
ideas 24513
Times 24509
Smith 24508
concerns 24507
wealth 24496
hot 24477
praise 24469
panel 24463
com@@ 24460
participation 24458
feelings 24452
finished 24433
equipment 24431
Tr@@ 24426
Dev 24408
distribution 24407
lawyer 24406
ement 24393
Energy 24390
Singapore 24386
28@@ 24369
da 24367
def@@ 24364
instance 24364
Class 24362
AT@@ 24353
resident 24347
tor@@ 24338
applications 24335
Still 24326
Media 24321
showing 24318
sight 24306
ann@@ 24289
Investigation 24288
gift 24287
Soon 24276
sort 24272
supporting 24271
Urban 24259
fruit 24254
row 24248
tourism 24234
highway 24227
ST 24221
Gadkari 24219
gathered 24219
1-@@ 24207
dry 24196
Rajesh 24194
tradition 24184
Music 24162
Si@@ 24162
re 24146
fulfilled 24137
Municipal 24133
rose 24133
HD 24132
ach@@ 24128
.. 24118
IPC 24116
countrys 24116
SBI 24099
identify 24092
activists 24071
Park 24063
Policy 24062
Yojana 24059
unity 24055
Bas@@ 24041
Covid-19 24039
Nar@@ 24036
Joshi 24026
grief 24014
independence 24012
ses 24007
thereafter 23984
stable 23967
NEW 23951
27@@ 23936
departments 23934
PM@@ 23922
ast@@ 23921
NC@@ 23894
wonderful 23894
Pur@@ 23885
advantage 23882
offices 23881
effects 23872
older 23871
Shahid 23870
ma@@ 23855
objective 23855
blessings 23838
Financial 23836
appreciated 23834
transfer 23830
records 23827
overall 23826
regions 23821
Pawan 23819
witnessed 23803
ps 23799
recovery 23790
net 23778
voters 23766
ines 23762
balance 23759
Arabia 23731
bu@@ 23727
priced 23723
Earth 23717
Local 23710
floor 23705
professional 23702
ati@@ 23697
Modis 23692
exist 23692
Mary 23689
2000 23682
sets 23659
in-@@ 23658
aspects 23656
eventually 23655
decades 23648
collection 23630
practices 23624
appealed 23622
theres 23616
Child 23613
oath 23613
yesterday 23604
Sharad 23599
,@@ 23585
passes 23576
3-@@ 23570
sit 23560
Sikh 23540
cards 23513
Vi@@ 23493
division 23487
registration 23483
Pal@@ 23468
Happy 23463
ale 23463
fi@@ 23460
fought 23458
Note 23412
Mother 23409
System 23408
Goyal 23401
Pulwama 23385
Adam 23374
perform 23373
buses 23351
prepare 23343
starts 23342
1st 23338
49 23316
Sahib 23303
street 23291
minutes 23280
ade 23273
Raja 23257
requires 23255
Sea 23239
measure 23194
chosen 23180
angry 23176
wind 23173
ble 23166
Code 23153
dr@@ 23145
Reliance 23142
dec@@ 23126
footage 23123
aya 23117
enable 23114
Industries 23113
te 23110
appears 23103
armed 23103
41 23078
sur@@ 23077
failure 23051
friendly 23051
angels 23046
az@@ 23046
handle 23045
poverty 23043
Gu@@ 23030
5-@@ 23000
Thousands 22997
submit 22993
singer 22991
skills 22983
95 22971
Programme 22949
Nav@@ 22940
formation 22933
shocked 22924
picked 22889
celebrations 22860
tw@@ 22859
learnt 22853
encourage 22846
tha 22834
Diwali 22833
brings 22833
Lucknow 22820
respective 22805
garh 22801
Use 22797
eating 22784
pan 22769
5,@@ 22763
fathers 22758
declined 22752
wall 22748
suggested 22740
ram 22738
bar 22736
owned 22731
exactly 22723
communities 22720
conflict 22718
Very 22715
250 22712
improved 22711
farm 22681
pan@@ 22678
un 22662
Engineering 22656
DELHI 22649
Subsequently 22643
st 22641
Mark 22639
Co@@ 22634
occur 22623
64 22619
Japanese 22611
experienced 22603
Work 22586
Bo@@ 22581
Total 22580
For@@ 22573
Apple 22571
quit 22565
error 22564
THE 22562
lying 22556
anointed 22550
powered 22549
Suzuki 22537
port 22531
peaceful 22525
AS@@ 22518
western 22512
farmer 22496
buildings 22476
detailed 22458
Thereafter 22455
hundreds 22437
inch 22431
min@@ 22428
Uddhav 22427
Doctors 22424
block 22424
challenging 22419
permanent 22414
oo@@ 22397
belongs 22395
25@@ 22386
cell 22369
linked 22367
str@@ 22361
context 22334
anywhere 22331
unable 22330
85 22325
willing 22325
seed 22324
ank@@ 22317
Shi@@ 22309
earned 22308
Brazil 22304
Black 22286
Sp@@ 22282
industries 22281
eastern 22272
visiting 22272
Acts 22265
watching 22265
Main 22250
strategy 22250
Sharif 22249
studied 22241
CRPF 22233
Reserve 22225
mat@@ 22223
ti 22222
possession 22220
Manoj 22212
HC 22210
surface 22206
studying 22204
10,000 22200
length 22193
threatened 22191
situated 22181
connectivity 22169
Assistant 22153
although 22135
Proverbs 22127
collected 22124
600 22123
citizen 22118
Oil 22112
Division 22108
profit 22106
Pre@@ 22105
statements 22079
possibility 22072
stayed 22070
parliamentary 22065
our@@ 22053
secure 22052
30@@ 22046
Isaiah 22039
Abhishek 22030
mass 22023
mouth 22023
Go@@ 22022
danger 22019
courage 22018
establish 22006
mode 22004
Heres 22001
ments 22001
adi 21996
IS 21984
anybody 21973
proceedings 21964
escape 21956
god 21940
Six 21938
travelling 21931
-1@@ 21927
50@@ 21922
honoured 21914
monitoring 21901
emerged 21889
meant 21887
SE@@ 21881
Check 21879
2,@@ 21873
facts 21866
ics 21857
Job 21821
slogans 21817
Foundation 21811
COVID 21808
Des@@ 21799
batting 21782
ah@@ 21764
figure 21759
condemned 21753
ge 21753
26@@ 21749
properties 21744
medicines 21738
52 21735
soil 21717
cameras 21713
producing 21710
tu@@ 21710
NRC 21702
core 21699
extent 21697
mainly 21669
ously 21661
recommended 21654
flood 21648
2007 21635
Al 21615
Italy 21611
Bombay 21594
guide 21578
owner 21572
talked 21562
Petrol 21561
Nag@@ 21559
P. 21558
ki 21558
ish@@ 21556
deliver 21555
discharged 21546
46 21544
Price 21540
hal@@ 21520
Ac@@ 21513
wear 21511
installed 21510
51 21500
tourists 21499
Boss 21487
Major 21487
glory 21473
Das 21469
Ambani 21467
aged 21466
Pro 21462
Training 21462
ational 21458
Tom 21456
lay 21456
Mukesh 21450
ving 21428
concerning 21426
Stadium 21404
sal@@ 21402
motorcycle 21395
listed 21387
2021 21385
yes 21380
are@@ 21375
approves 21363
ticket 21359
reforms 21355
Mor@@ 21345
worse 21336
Ni@@ 21334
crop 21333
harmony 21333
Member 21324
AI@@ 21310
straight 21295
selection 21281
gathering 21276
fired 21266
AM@@ 21260
Ps 21259
Woman 21258
closely 21253
IP@@ 21246
Chandrababu 21240
Malik 21219
sentence 21219
code 21217
wi@@ 21187
engineering 21185
righteousness 21185
passenger 21182
dropped 21178
seeds 21173
Saif 21164
quarter 21157
Patna 21147
ill@@ 21146
heads 21141
servant 21141
Forest 21131
6,@@ 21118
expression 21115
ely 21110
SA@@ 21109
ba 21106
solar 21105
African 21096
historical 21090
can@@ 21089
Cor@@ 21088
Second 21063
ie 21054
She@@ 21049
replied 21047
iPhone 21046
Ak@@ 21036
Trade 21033
explain 21032
Verma 21029
Click 21014
contain 21014
delegation 21012
Ri@@ 21003
U.S. 21003
increases 21000
bound 20985
operating 20981
mistake 20969
Abdullah 20948
storm 20939
fe@@ 20933
inc@@ 20929
1,000 20921
Iraq 20921
excellent 20921
factors 20911
Candidates 20905
Sometimes 20899
onion 20897
classes 20893
northern 20893
church 20891
rail 20891
conversation 20890
differences 20877
garlic 20875
Mahendra 20868
extend 20864
shi@@ 20857
judges 20856
panic 20854
Mantri 20853
sun 20853
der@@ 20835
alongside 20829
democratic 20822
comprising 20813
ow@@ 20807
Year 20799
India-@@ 20798
Pa@@ 20798
probably 20779
starred 20767
citizenship 20761
CPM 20758
scam 20754
emb@@ 20732
Ladakh 20722
eg@@ 20719
temples 20719
require 20717
purchase 20715
* 20704
maintained 20701
belong 20689
Get 20681
fake 20681
samples 20668
Kochi 20660
causing 20658
blue 20654
ner 20654
suspect 20652
Katrina 20651
Summit 20647
argument 20637
guard 20622
Manipur 20616
ena 20606
relevant 20601
ls 20592
celebrate 20583
murdered 20575
ist@@ 20572
tea 20568
ot 20563
channel 20552
Kalyan 20537
mi@@ 20531
Sandeep 20525
Leader 20513
History 20512
es. 20509
Manish 20498
Metro 20486
generally 20463
birds 20460
prophet 20459
pace 20453
Ganga 20450
gl@@ 20428
mostly 20425
bowl 20421
purposes 20417
trading 20410
schedule 20409
Panchayat 20399
ising 20362
vice 20337
drama 20335
Israelites 20326
Space 20322
promoting 20310
suspected 20308
Would 20300
method 20296
sheep 20296
5,000 20288
condolences 20287
Sidhu 20275
Thomas 20274
Olympic 20271
Luke 20256
Te@@ 20255
quoted 20251
adopted 20250
appointment 20250
DMK 20249
Judge 20249
expenditure 20238
Deepak 20220
None 20217
ama 20206
thanked 20197
brand 20193
understood 20193
Bigg 20189
banking 20188
household 20187
Pranab 20182
southern 20179
adding 20175
Us 20174
represented 20174
ft 20173
Legislative 20172
Br@@ 20170
torque 20169
sensor 20168
visible 20166
Ban@@ 20161
Independence 20143
province 20143
strengthening 20141
labour 20138
ched 20137
coal 20135
Mi@@ 20130
amongst 20115
Shar@@ 20113
Varanasi 20111
prize 20110
kindness 20109
.- 20085
ded 20085
assets 20083
tic@@ 20083
continuing 20082
reaching 20080
vaccine 20072
sell 20068
ati 20061
penalty 20061
voting 20060
collaboration 20054
54 20046
Elections 20027
Sindhu 20011
author 20010
van 20010
80@@ 20003
improving 20001
captured 19997
losing 19994
marry 19992
mm 19978
shoot 19977
ships 19976
hits 19966
administrative 19965
wearing 19956
partners 19945
assault 19943
Bureau 19940
larger 19914
software 19914
newspaper 19908
,999 19891
Corinthians 19883
variety 19883
presided 19878
mutual 19876
tri@@ 19870
enhance 19860
magazine 19856
pointed 19855
heavenly 19854
jointly 19843
struck 19841
tension 19815
tells 19814
Organisation 19798
Parents 19798
mine 19796
Premier 19778
infected 19772
Environment 19763
Myanmar 19763
Ranjan 19762
Pr@@ 19743
deeply 19743
contribute 19740
wa 19739
moon 19734
Oh 19732
Parliamentary 19724
requirements 19723
medicine 19714
trained 19714
Pl@@ 19705
grew 19703
absconding 19699
Timothy 19695
He@@ 19694
harm 19692
taste 19685
floods 19679
searching 19668
800 19665
Consider 19665
bike 19663
consideration 19657
on-@@ 19650
caste 19643
enemies 19640
super@@ 19633
Messenger 19623
returns 19621
everywhere 19613
titled 19613
ret@@ 19609
elements 19592
fication 19592
om 19588
USA 19584
Surely 19580
store 19575
Ran@@ 19561
Green 19552
delivery 19550
abad 19546
belief 19545
56 19526
Olympics 19518
hat 19513
pi@@ 19503
enjoyed 19495
medium 19492
Name 19473
Nm 19471
ening 19448
streets 19448
initial 19446
DA 19437
Punjabi 19434
debt 19434
succeed 19434
crash 19432
retired 19427
Po@@ 19423
ham@@ 19418
losses 19418
totally 19414
sub-@@ 19406
summer 19406
Vijayan 19402
participants 19402
Never 19401
Instead 19399
hotel 19397
ane 19396
mal@@ 19393
protesting 19392
Bhushan 19387
an-@@ 19368
beauty 19367
Pe@@ 19364
Hall 19349
Sat@@ 19348
enemy 19347
pages 19344
healthcare 19343
walking 19343
George 19342
Members 19334
Indonesia 19324
ours 19321
apur 19315
2-@@ 19300
tonnes 19294
fit 19285
positions 19279
Industrial 19276
Tests 19274
Amritsar 19270
island 19270
variant 19270
childhood 19268
master 19264
Shiv@@ 19258
worst 19258
Income 19243
wheat 19243
advance 19242
stones 19232
spokesman 19228
sins 19227
governor 19225
Solomon 19223
clothes 19222
exams 19222
iron 19220
200@@ 19218
Federation 19217
Avoid 19205
2006 19199
Inter@@ 19191
aries 19178
ets 19177
Executive 19175
Bhavan 19171
anda 19171
pivotal 19169
d-@@ 19164
impossible 19159
.... 19158
US@@ 19157
ened 19147
applied 19145
ste@@ 19144
Festival 19142
lets 19140
we@@ 19140
council 19138
ex-@@ 19134
asks 19129
functioning 19110
Cooperation 19097
criticism 19092
blessed 19086
ward 19086
grand 19085
ff@@ 19067
72 19065
recommendations 19058
Report 19054
Sardar 19009
beneficial 19002
encouraged 18998
friendship 18997
theme 18997
fied 18990
Dutt 18985
alism 18975
falling 18972
Any 18967
herself 18967
Private 18966
Ba@@ 18961
Tar@@ 18961
approximately 18960
relating 18960
Sara 18959
pride 18956
solve 18943
colours 18914
settled 18908
moral 18903
Dubai 18900
ci@@ 18894
ized 18882
3,@@ 18874
elder 18872
burnt 18860
eligible 18849
Memorial 18841
contract 18841
criticised 18837
2nd 18833
C. 18832
integrity 18831
locations 18829
grown 18826
fying 18823
edition 18816
Land 18810
strategic 18801
Sw@@ 18795
Traffic 18792
o-@@ 18776
est@@ 18774
AP 18772
shortly 18771
investors 18767
expectations 18751
eng@@ 18750
Plan 18749
Pandya 18746
adequate 18746
ey 18743
yan 18735
models 18726
experiences 18724
IM@@ 18722
Redmi 18720
emotional 18719
Jay@@ 18711
Press 18708
JNU 18702
List 18701
selling 18689
wake 18688
Based 18686
Cs 18684
investigate 18679
diet 18678
manager 18676
images 18675
concluded 18674
initially 18667
Sciences 18665
down@@ 18661
drawn 18657
2,000 18648
Chand@@ 18647
ut 18646
of@@ 18634
aims 18632
methods 18626
di 18623
Kh@@ 18620
ju@@ 18617
park 18606
Whether 18595
Kumaraswamy 18593
yourselves 18580
sm@@ 18578
three-@@ 18578
facilitate 18569
founder 18565
dark 18564
avail 18556
va 18551
keeps 18549
Britain 18548
iz@@ 18542
ong@@ 18539
Ganguly 18532
> 18531
ically 18529
Rajinikanth 18527
Dinesh 18523
baptized 18519
Maha@@ 18517
col@@ 18517
pretty 18516
ming 18510
stake 18510
violent 18503
Trust 18496
coalition 18495
nagar 18491
rooms 18488
Tal@@ 18487
ensuring 18487
Marathi 18476
beneficiaries 18471
Change 18468
RJD 18462
Staff 18462
all-@@ 18443
consequences 18441
fighter 18441
FC 18437
land@@ 18427
AL@@ 18423
MC 18417
ain@@ 18417
s-@@ 18417
wounded 18411
worker 18404
governance 18384
pol@@ 18384
pieces 18383
destroy 18381
allows 18375
CAA 18367
certificate 18364
skill 18364
Kaif 18360
solutions 18357
59 18346
67 18344
29@@ 18343
Democratic 18341
document 18333
existence 18316
spreading 18316
devices 18311
articles 18309
und@@ 18307
divine 18303
disaster 18301
wives 18301
Do@@ 18297
ong 18285
Vardhan 18284
exact 18280
color 18278
8,@@ 18273
Gr@@ 18267
Arunachal 18261
Samajwadi 18255
commit 18251
LED 18250
upset 18250
background 18243
Right 18227
i.e. 18226
featured 18224
Peace 18221
wan 18214
obtained 18213
40@@ 18212
waters 18212
technologies 18205
Could 18193
i-@@ 18192
So@@ 18190
qualities 18189
Star 18183
isn 18183
sites 18183
2005 18173
ni 18171
10.@@ 18168
50,000 18162
kinds 18160
No@@ 18149
premises 18149
implement 18142
Administration 18139
materials 18138
Jio 18137
institution 18136
labourers 18131
sanctioned 18127
courses 18125
Pinarayi 18124
TMC 18124
namely 18116
Pi@@ 18111
poster 18109
novel 18108
destruction 18099
everybody 18096
des@@ 18090
Digital 18089
ley 18089
feels 18087
ISRO 18080
ide 18079
outstanding 18079
li 18075
63 18064
categories 18062
questioning 18060
zing 18050
mix 18041
amazing 18038
controlled 18036
therein 18030
sk@@ 18021
connect 18013
delay 18010
Malaysia 18009
heritage 18005
silent 17999
zed 17992
sixth 17991
00@@ 17986
previously 17983
wing 17982
constitution 17979
cells 17969
ik@@ 17965
afternoon 17961
gained 17961
panchayat 17955
,9@@ 17953
surprise 17950
consecutive 17949
thanks 17948
58 17938
Ge@@ 17937
Syria 17921
ell@@ 17916
AR 17903
Celsius 17903
establishment 17893
center 17892
Finally 17890
Obama 17884
62 17875
instructions 17867
Ko@@ 17863
attending 17863
hike 17857
ises 17853
covenant 17850
Agreement 17835
Has 17826
ham 17824
mention 17821
whereas 17820
Advani 17815
ality 17785
Free 17782
ee 17782
arm 17781
ure 17780
Mat@@ 17772
Mil@@ 17772
Tripura 17771
filing 17771
Officers 17769
q 17766
definitely 17764
ster 17763
flesh 17747
Or@@ 17744
Revelation 17744
GDP 17743
kings 17736
witnesses 17736
Jaipur 17725
extra 17722
amb@@ 17721
shock 17720
uddin 17717
53 17714
7-@@ 17713
ze 17713
head@@ 17706
Bad@@ 17696
bagged 17693
char@@ 17687
putting 17685
nice 17680
package 17679
returning 17671
eli@@ 17664
gods 17663
7,@@ 17647
Mc@@ 17646
Rafale 17644
locked 17641
Pakistans 17623
constantly 17623
earthquake 17623
ten@@ 17617
66 17615
arm@@ 17613
} 17612
zone 17610
han@@ 17609
academic 17608
hal 17599
principle 17595
summit 17588
Bumrah 17587
drop 17583
medals 17583
sick 17580
ve@@ 17578
Mag@@ 17577
organizations 17575
Jam@@ 17574
im 17573
Chris 17572
Tri@@ 17572
papers 17565
sti@@ 17559
guided 17557
figures 17551
ela 17549
rem@@ 17536
RA@@ 17535
Var@@ 17530
go@@ 17524
reaction 17524
universities 17519
Rather 17518
star@@ 17510
Me 17501
Gar@@ 17497
Everybody 17487
Was 17486
prosperity 17478
ching 17466
Lo@@ 17463
Khanna 17453
Je@@ 17450
examined 17449
ently 17446
ODIs 17445
discipline 17445
Mu@@ 17442
campus 17440
tra 17440
dialogue 17439
Rights 17419
Protection 17418
ain 17418
All-@@ 17417
advanced 17414
closer 17413
enti@@ 17413
parliament 17413
investments 17403
Sir 17400
Bl@@ 17391
telling 17390
Tell 17389
statue 17387
Spain 17380
Res@@ 17379
eshwar 17375
sum 17375
Steve 17372
Jain 17366
acres 17363
mountains 17361
procedure 17357
messages 17350
difficulties 17348
000 17345
Shami 17344
hate 17344
banner 17340
Should 17336
Daniel 17332
Puri 17332
participating 17329
demise 17327
apostles 17319
comfort 17318
unless 17318
appreciation 17314
Hardik 17303
register 17299
Animal 17298
Young 17296
liquor 17294
sufficient 17294
violation 17294
Superintendent 17284
cross 17276
blocked 17270
Ravindra 17266
properly 17261
uc@@ 17251
politician 17249
specified 17249
ern@@ 17236
DE@@ 17232
Amazon 17231
Romans 17225
mer@@ 17220
pr@@ 17220
med 17217
mi 17210
Rawat 17201
regime 17199
tbsp 17199
CH@@ 17195
iting 17195
trip 17194
practical 17193
weak 17188
copy 17185
Raju 17178
trials 17178
Varun 17169
37@@ 17167
Corona 17160
multi-@@ 17158
restrictions 17157
umb@@ 17157
anta 17152
Courts 17148
Give 17146
inf@@ 17144
Valley 17143
wash 17138
KL 17136
quick 17131
concept 17117
plus 17115
Son@@ 17108
back@@ 17083
Azad 17077
imp@@ 17076
Ti@@ 17063
thi 17062
fallen 17059
Johar 17055
womens 17053
shortage 17032
intelligence 17031
Nawaz 17029
wasn 17029
believes 17025
ne 17022
useful 17019
grateful 17017
bas@@ 17015
alcohol 17014
Rakesh 17011
rapidly 17009
harassment 17008
loves 17004
sion 17000
slave 16988
Mun@@ 16985
pregnant 16982
foot 16974
Bur@@ 16973
conspiracy 16973
ease 16969
rupee 16969
two-@@ 16964
flag 16955
undertaken 16952
Ahmad 16925
innovation 16925
forgive 16920
escaped 16915
reference 16911
journalists 16903
nab 16893
factory 16888
dreams 16882
Atal 16879
abuse 16876
Judah 16872
priest 16869
Swami 16867
Fi@@ 16865
pri@@ 16855
ably 16847
circuit 16847
supporters 16843
chapter 16840
stolen 16836
club 16835
Honda 16828
ail 16828
2004 16821
ens@@ 16817
CC@@ 16815
challenged 16815
personality 16814
68 16805
Agarwal 16800
bin 16800
suggestions 16800
knowing 16799
kills 16787
Head 16785
paying 16782
app@@ 16780
ths 16780
duties 16775
advocate 16774
ICICI 16773
Roman 16773
Professor 16771
File 16770
hu@@ 16769
winter 16761
Agency 16753
leg 16744
alternative 16739
brain 16734
obey 16734
CP@@ 16724
ger 16720
Meeting 16719
availability 16717
Is@@ 16713
anc@@ 16709
ler 16705
bought 16704
Ambedkar 16703
characters 16689
functions 16678
neighbours 16678
Paris 16676
aside 16676
nomination 16662
bul@@ 16659
Video 16657
precious 16649
trend 16647
IAF 16646
native 16644
dates 16643
YouTube 16636
united 16634
nominated 16628
recognized 16626
Along 16619
belonging 16609
spotted 16608
amid 16606
beaten 16605
one-@@ 16598
treat 16597
ata 16594
mothers 16579
preparations 16578
9,@@ 16561
57 16558
actual 16555
ring 16551
absolutely 16550
ke@@ 16547
acc@@ 16541
metres 16535
Death 16534
severely 16530
ns 16525
meat 16523
OF 16520
CA@@ 16519
ited 16515
turns 16512
Motors 16505
tribal 16503
Rana 16502
Indi@@ 16494
mate 16486
ning 16486
fan 16484
bhp 16483
piece 16483
comprises 16471
Jadeja 16470
walked 16467
attempts 16462
jeet 16461
Mexico 16460
Secondary 16458
Aishwarya 16454
fundamental 16454
miles 16454
Dar@@ 16450
Line 16445
letters 16443
gate 16438
stressed 16438
wood 16436
pu@@ 16435
processing 16432
pur@@ 16428
housing 16423
ishing 16423
raising 16418
rare 16415
trans@@ 16413
Nanak 16407
outbreak 16406
meets 16403
clashes 16400
deny 16394
export 16384
completion 16382
lock 16380
tribute 16372
aspect 16361
2022 16352
TRS 16349
Number 16343
commits 16340
produces 16339
Jadhav 16336
likes 16336
Kozhikode 16335
coast 16331
Arora 16330
collapsed 16329
lots 16327
ric@@ 16313
Ed@@ 16307
Without 16301
considering 16293
replaced 16286
Center 16285
aimed 16285
ME@@ 16283
ains 16283
wards 16283
consists 16276
contributed 16273
Addressing 16266
vast 16266
commissioner 16257
appearance 16251
sentenced 16244
Directorate 16235
ass 16234
newly 16233
Crore 16232
commanded 16231
elling 16227
Gopal 16224
Petroleum 16222
capable 16220
privilege 16215
prizes 16206
honor 16205
Various 16198
ile 16191
61 16190
Big 16187
Jo@@ 16183
bro@@ 16179
A. 16177
hy@@ 16176
0-@@ 16173
depends 16171
ush@@ 16169
Revenue 16165
speaks 16159
Jewish 16154
ANI 16151
sustainable 16149
winner 16148
AC@@ 16145
joining 16138
mosque 16135
alized 16133
reveal 16131
punished 16130
Forces 16127
ascertained 16119
year-old 16116
exp@@ 16114
sacred 16113
83 16112
Baba 16111
PS 16111
aria 16106
Ji 16103
Tiwari 16097
salary 16095
carefully 16094
Michael 16084
Shiva 16084
load 16083
Perhaps 16078
whats 16076
Aditya 16056
12.@@ 16051
HDFC 16046
crossed 16045
NE@@ 16041
culprits 16041
mandatory 16041
reserved 16041
mountain 16038
Aaron 16037
everlasting 16035
temporary 16025
Political 16024
fever 16000
relation 15993
77 15992
burden 15991
bronze 15988
motion 15987
ily 15986
transmission 15986
ail@@ 15982
Shikhar 15979
overcome 15975
Creator 15971
municipal 15970
blame 15956
Fans 15953
venture 15952
Church 15938
imprisonment 15938
illness 15933
Ashwin 15928
SS 15919
achievement 15917
Gautam 15916
peak 15916
subjects 15916
USD 15910
bs 15908
Abu 15907
ES 15903
constant 15900
shape 15891
borders 15890
makers 15888
decline 15887
currency 15885
masks 15885
burning 15884
Jacob 15879
pure 15877
seemed 15877
Banks 15869
chemical 15869
stages 15866
2001 15860
Teachers 15860
ber@@ 15860
covering 15858
ff 15856
fin@@ 15856
Officials 15855
bowling 15851
Prophet 15849
Piyush 15846
shop 15838
ements 15835
mighty 15834
visits 15833
35@@ 15830
Madras 15830
merely 15827
Inspector 15824
assigned 15820
secured 15812
personally 15811
focused 15809
ization 15809
smart 15805
presently 15804
Schools 15803
3rd 15798
cal@@ 15793
T20I 15792
square 15792
R. 15789
blessing 15789
chain 15787
ass@@ 15782
du@@ 15777
74 15776
dog 15769
slow 15756
Pak 15748
Gogoi 15744
suddenly 15743
At@@ 15738
ber 15738
rap@@ 15736
700 15718
aram 15715
71 15714
pleasure 15712
sir 15711
84 15710
Ben@@ 15710
greatly 15708
humanity 15698
Auto 15695
BS 15691
situations 15675
casualties 15672
portion 15671
mixed 15668
easier 15667
Mobile 15661
wave 15646
directions 15645
Sensex 15640
Allahabad 15635
Gi@@ 15634
120 15632
8-@@ 15630
Championship 15628
hell 15628
surgery 15623
Steel 15621
Nagpur 15618
explosion 15611
applicable 15606
rent 15602
vice-president 15602
MS@@ 15598
poet 15598
atory 15592
Harsh 15590
turning 15585
improvement 15580
Money 15573
Mand@@ 15562
bowler 15559
exists 15558
Through 15556
machine 15552
otherwise 15552
Spanish 15547
fill 15546
Padma 15542
anymore 15541
secondary 15538
bur@@ 15534
co 15530
Region 15528
delayed 15525
Bhopal 15523
enc@@ 15522
fiscal 15520
Dh@@ 15516
excited 15516
glad 15511
expanded 15505
Mayor 15502
external 15502
ize 15501
ei@@ 15499
allegation 15492
arrangement 15492
ast 15489
tributes 15488
Agricultural 15486
dy 15479
ek 15479
Port 15470
web 15468
conc@@ 15466
dollar 15459
raj 15452
ures 15451
stronger 15448
fail 15447
Taliban 15445
NIA 15444
exports 15443
pen@@ 15442
Watchtower 15431
73 15426
retirement 15425
steel 15424
comm@@ 15422
patience 15418
discovered 15407
Prince 15400
Centres 15398
AC 15397
86 15396
vi 15391
Remember 15390
elderly 15390
seeks 15384
Picture 15382
bri@@ 15380
Ob@@ 15379
farming 15379
chose 15378
touched 15366
expensive 15363
plastic 15359
uri 15357
lights 15351
ok 15351
spending 15350
convicted 15344
Kangana 15341
chopped 15340
tickets 15340
Village 15323
disrupted 15321
consumption 15316
ol 15316
Ash@@ 15310
complained 15310
entering 15309
Rec@@ 15297
professor 15292
11.@@ 15288
voted 15288
involving 15283
sensitive 15283
125 15279
Independent 15276
crude 15274
her@@ 15274
upto 15271
painful 15269
appreciate 15264
IN 15261
phases 15245
pilot 15243
Vikram 15242
Sim@@ 15240
sol@@ 15236
admit 15233
sport 15229
bigger 15226
satisfied 15225
Galaxy 15221
maintaining 15208
examine 15197
ams 15195
atic 15192
tourist 15177
Verily 15172
tics 15172
Maj@@ 15168
brigade 15167
cry 15165
resurrection 15159
{ 15155
XI 15154
pleased 15154
Sab@@ 15145
theory 15145
Otherwise 15137
camps 15137
priests 15133
reflect 15130
1000 15128
EC 15114
Sun@@ 15107
Samsung 15102
promotion 15096
platforms 15093
Sonam 15090
maintenance 15087
Credit 15086
69 15084
multi@@ 15081
protestors 15080
ula 15078
plenty 15073
fraud 15071
Mehta 15069
Highways 15066
permitted 15062
thereof 15062
78 15058
Next 15056
legs 15040
officially 15036
pa 15023
electronic 15022
Top 15018
Gang@@ 15012
Hussain 15009
calm 15008
Mer@@ 15003
invest 14999
dear 14994
sa 14988
entirely 14983
charging 14982
bread 14970
97 14968
greetings 14966
requirement 14959
lesson 14957
verily 14957
crimes 14956
allocated 14951
Akhtar 14949
formal 14941
aka 14939
foods 14938
assistant 14934
uni@@ 14934
meal 14932
91 14930
UPA 14927
strikes 14925
pension 14921
Vajpayee 14919
channels 14918
Thailand 14910
diabetes 14908
norms 14895
immense 14890
band 14888
Turkey 14887
ura 14884
ek@@ 14869
controversial 14867
ila 14852
judgement 14850
desires 14848
cool 14844
Eat 14839
Mur@@ 14835
Col@@ 14834
procurement 14834
limits 14833
Directed 14825
Vikas 14823
ore@@ 14823
Gas 14821
heed 14817
taxes 14816
Holy 14815
Step 14803
survive 14801
DGP 14798
Regional 14798
esh@@ 14798
outcome 14797
represent 14796
corresponding 14789
rank 14788
generations 14786
gradually 14782
76 14776
Min@@ 14776
Warner 14773
Bharti 14770
exception 14767
offence 14765
activist 14759
Ham@@ 14755
Natural 14753
resign 14751
Tha@@ 14736
stakeholders 14729
ved 14727
favourite 14724
Higher 14723
Jitendra 14723
observe 14720
2002 14719
solved 14716
juice 14714
loyal 14712
ged 14711
Small 14708
explains 14708
suspects 14707
uri@@ 14704
transactions 14702
Grand 14691
ID 14691
Her@@ 14690
recognised 14686
performing 14684
backed 14683
stranded 14682
work@@ 14680
hari 14679
Mix 14678
Blue 14675
2003 14669
AIIMS 14663
ser@@ 14661
celebration 14655
Sanskrit 14654
hai 14651
analysis 14649
Noah 14637
chi@@ 14631
religions 14630
bomb 14628
primarily 14627
Hol@@ 14624
partys 14621
Char@@ 14619
C.E. 14617
destination 14613
agitation 14611
Ja@@ 14605
spiritually 14605
Hong 14597
height 14596
Heat 14582
empty 14581
involvement 14580
high-@@ 14576
fy 14574
BSF 14573
Know 14573
UAE 14573
comprehensive 14573
writes 14572
frequently 14568
households 14566
crying 14564
index 14561
UTs 14558
yellow 14558
constitutional 14548
dated 14545
bid 14540
alised 14533
True 14531
well-@@ 14527
smaller 14526
tur@@ 14515
Street 14508
soldier 14504
endra 14501
Jawaharlal 14496
Al-@@ 14493
select 14487
stability 14487
82 14486
Pharaoh 14479
hol@@ 14479
Bel@@ 14476
Kat@@ 14476
ads 14475
dealing 14475
occasions 14474
programs 14473
CBSE 14472
links 14472
ess 14469
hero 14466
towns 14465
listening 14464
isation 14458
Pal 14455
agar 14452
conclusion 14452
dev@@ 14452
reservation 14448
ion 14447
Hasan 14443
realize 14439
format 14436
convention 14433
staying 14431
assist 14429
processor 14423
iti@@ 14422
prior 14418
mor@@ 14414
w 14414
ace 14411
missile 14411
jan 14398
tor 14397
Ludhiana 14394
guests 14393
ING 14385
ory 14385
count 14384
Ghosh 14377
whoever 14375
Theyre 14374
98 14370
ink@@ 14370
researchers 14370
Mizoram 14365
fat 14365
Akhilesh 14359
Korean 14357
script 14356
aj 14352
Thanks 14342
ordinary 14342
doors 14338
Case 14336
operational 14336
Safety 14334
defined 14331
marked 14330
liked 14328
moves 14324
preparing 14321
presidential 14315
distress 14314
Mas@@ 14311
qualified 14308
cautious 14306
tion@@ 14305
Insurance 14301
allowing 14300
Dha@@ 14298
EC@@ 14298
collision 14297
Arab 14295
breaking 14295
ND@@ 14293
Aam 14291
consumers 14289
sessions 14288
upper 14288
suit 14281
visitors 14281
S.@@ 14279
Trophy 14279
Being 14276
Vinod 14273
hopes 14272
chairperson 14270
Aviation 14266
ender 14266
96 14265
coastal 14264
'd 14262
hor@@ 14253
object 14252
politicians 14250
La@@ 14247
minds 14243
entertainment 14238
teaspoon 14234
praised 14232
81 14219
associate 14219
arrives 14215
Rashtriya 14211
posed 14211
ingly 14210
Bh@@ 14205
significance 14201
Sang@@ 14198
92 14196
Ke@@ 14196
fil@@ 14195
Ag@@ 14194
portal 14192
ances 14185
adi@@ 14183
talent 14183
autopsy 14176
PS@@ 14173
expansion 14173
arent 14172
recognition 14172
az 14171
Survey 14168
WHO 14167
pp@@ 14166
Hundreds 14162
targeted 14162
Whos 14154
corporate 14154
ished 14153
PV 14150
absence 14146
auto 14144
effectively 14139
rel@@ 14137
Disaster 14134
strengthened 14130
notified 14124
dem@@ 14117
Dec@@ 14116
Nadda 14115
monthly 14115
Chaudhary 14113
pattern 14113
Whatever 14109
nar@@ 14108
wished 14106
ran@@ 14104
ine@@ 14102
Housing 14101
contested 14101
darkness 14091
import 14088
prayed 14084
miss 14080
forgiveness 14078
unfortunate 14076
TR@@ 14074
gains 14070
inspiration 14067
invitation 14066
Shah@@ 14064
agenda 14064
origin 14063
88 14061
disappointed 14058
feed 14054
Hebrews 14053
crew 14042
fies 14039
Genesis 14038
slowly 14031
Bri@@ 14030
Master 14022
Bhutan 14017
manage 14017
reduction 14013
em 14007
cul@@ 14006
mer 14003
Ber@@ 14001
blamed 14000
rapid 13999
Nam@@ 13994
environmental 13992
displayed 13989
Club 13988
ess@@ 13988
kar@@ 13988
valid 13986
ly@@ 13980
nabbed 13978
inv@@ 13977
reducing 13973
post-@@ 13971
lifted 13970
responsibilities 13969
den@@ 13966
duo 13966
Crime 13965
int@@ 13962
expenses 13960
rer 13960
Sridevi 13959
highlighted 13956
mistakes 13944
Technical 13939
Az@@ 13937
SO@@ 13936
ans@@ 13936
radio 13934
extension 13932
celebrities 13926
fault 13926
chances 13924
cattle 13923
ned 13923
hide 13922
batsmen 13921
ranked 13917
ell 13916
kin 13916
reviewed 13910
gun 13909
arrival 13907
variants 13901
Nifty 13892
cas@@ 13892
acy 13891
Haasan 13888
Hebrew 13888
businesses 13885
download 13883
rumours 13877
symbol 13877
clause 13873
2018-19 13872
che@@ 13870
imagine 13870
BC 13868
factor 13867
bag 13864
Mus@@ 13859
ver 13849
pioneer 13842
Pri@@ 13836
dedication 13836
Seven 13832
electoral 13829
widespread 13827
Ap@@ 13822
Jan 13815
supports 13810
gratitude 13801
drivers 13800
finding 13794
fishermen 13794
isolated 13793
Mufti 13788
repeated 13786
BRICS 13785
equipped 13783
arrive 13777
root 13776
gram 13772
sees 13768
MT 13764
Tan@@ 13750
draft 13742
Middle 13741
pick 13736
founded 13733
ganj 13732
ire 13730
tongue 13728
2017-18 13727
dam 13727
efficient 13727
Sikkim 13726
AM 13725
Ver@@ 13724
triggered 13721
combat 13716
pair 13713
sending 13709
Robert 13706
seventh 13706
protected 13702
Lalu 13701
Mayawati 13699
marketing 13699
California 13698
Narayan 13698
UN@@ 13694
relationships 13688
del@@ 13687
probing 13687
irrigation 13686
87 13683
Kong 13682
SUV 13679
Capital 13678
hara 13675
detail 13673
interaction 13671
veteran 13671
sn@@ 13669
protein 13666
ped 13664
Hyundai 13662
competitions 13659
reg@@ 13656
mere 13655
alization 13653
Selection 13650
ind 13647
Pun@@ 13646
ith 13645
ty@@ 13644
satellite 13642
percentage 13639
Arabic 13638
abandoned 13633
SMS 13631
folk 13629
Subhash 13628
FI@@ 13614
Rang@@ 13612
badly 13610
ach 13607
comp@@ 13607
encouraging 13601
Old 13600
Joe 13597
cre@@ 13592
Rashid 13587
Jasprit 13572
latter 13567
Aadmi 13566
petitions 13563
y. 13557
Infrastructure 13551
walls 13551
89 13550
managing 13541
The@@ 13540
hospitalised 13534
starring 13532
counter 13531
ation@@ 13528
Trinamool 13524
Em@@ 13519
supposed 13518
athi 13517
Working 13515
Plus 13511
Chouhan 13509
Museum 13507
fr@@ 13507
Vijay@@ 13490
Rashtrapati 13478
Rules 13475
wonder 13474
staged 13473
thi@@ 13464
involves 13463
ER 13462
Rail 13460
hosted 13458
Str@@ 13454
noticed 13446
que 13446
map 13443
Smart 13441
Calcutta 13436
Scheduled 13435
catch 13435
teachings 13435
funding 13433
Vis@@ 13421
blind 13418
arise 13413
asserted 13412
Gill 13410
93 13409
Culture 13406
Rani 13404
sharp 13401
monsoon 13394
Sad@@ 13390
Taking 13390
lake 13390
garden 13387
ami 13380
Chand 13374
94 13372
post@@ 13371
preparation 13369
mit@@ 13368
unveiled 13367
mod@@ 13364
Investment 13362
termed 13362
Armed 13361
ap 13354
satisfaction 13350
No.@@ 13335
operated 13335
update 13333
Patiala 13330
tical 13329
Meghalaya 13327
elled 13327
BS@@ 13325
1.5 13321
assessment 13321
transportation 13319
tors 13313
disclosed 13309
arrests 13307
Jai 13306
Nat@@ 13304
SC@@ 13304
coverage 13289
subsidy 13283
off@@ 13281
quiet 13281
Maldives 13279
bird 13279
corner 13275
Av@@ 13272
fore@@ 13268
roll 13267
ax@@ 13265
employee 13264
hidden 13261
Construction 13256
tional 13256
3,000 13255
Ser@@ 13254
declare 13252
bre@@ 13240
Sud@@ 13239
globally 13239
onions 13239
Nick 13237
significantly 13234
bowlers 13233
Irani 13231
Left 13230
suitable 13230
cope 13227
Bench 13226
automatic 13225
Airtel 13222
launches 13217
pepper 13217
hosts 13216
Quran 13215
Memorandum 13212
operate 13212
grounds 13208
solid 13205
attached 13202
pursue 13193
fly 13191
revised 13188
heavily 13187
Devil 13185
Organization 13177
depth 13176
breaks 13175
Far@@ 13173
Think 13173
remote 13172
manual 13171
admission 13168
efficiency 13165
driven 13158
oned 13158
Play 13156
-up 13153
Prices 13140
mortem 13139
metal 13133
Northern 13132
flowers 13132
boat 13130
Naik 13129
IAS 13125
Ben 13119
Up 13115
ew@@ 13114
hun@@ 13114
War@@ 13113
Saul 13112
Ju@@ 13110
two-day 13110
tro@@ 13107
thereby 13106
Prevention 13092
tremendous 13092
Understanding 13091
owners 13090
engines 13083
Iranian 13081
Sum@@ 13081
Mir@@ 13076
Search 13076
couldn 13076
Kim 13058
grams 13055
V. 13053
sheet 13052
IIT 13049
payments 13044
entitled 13043
ust 13039
ky 13038
Ka@@ 13034
emp@@ 13034
mining 13033
Rem@@ 13029
dual 13026
decade 13022
Syed 13020
glass 13018
arranged 13015
stri@@ 13014
yan@@ 13011
Rajendra 13003
tt@@ 13003
sovereignty 13001
fielded 12999
certificates 12997
sweet 12991
four-@@ 12990
Shraddha 12982
SS@@ 12979
enhanced 12979
Real 12977
unidentified 12976
Jayalalithaa 12975
Pictures 12973
keen 12972
prescribed 12969
Tiger 12967
congregations 12967
val@@ 12965
t. 12963
Select 12962
Lankan 12961
acceptable 12960
prophecy 12960
DM@@ 12953
bearing 12946
hockey 12941
inner 12932
disp@@ 12929
Kir@@ 12922
filmmaker 12922
pat@@ 12922
Kabir 12921
announce 12919
smooth 12916
Nation 12909
PC 12907
exit 12903
hu 12902
Charan 12896
mp@@ 12891
bond 12888
implementing 12883
Paradise 12880
volume 12875
B.@@ 12874
Patnaik 12868
AD 12864
Q 12864
Samuel 12863
achievements 12858
Help 12856
reform 12851
jawans 12850
Mitchell 12848
Upon 12847
withdraw 12847
hill 12846
neck 12837
form@@ 12830
Mount 12829
Ocean 12824
behold 12820
represents 12818
conservation 12813
Wash 12811
valley 12806
husbandry 12801
mil@@ 12801
Planning 12797
supplies 12795
ack 12793
Lakh 12789
Pacific 12787
ond@@ 12787
fa@@ 12775
ji@@ 12773
predicted 12766
Pay 12765
translated 12762
refers 12758
Gehlot 12751
withdrawn 12746
K.@@ 12738
Justices 12734
remembered 12734
anga 12716
speaker 12715
Jas@@ 12713
Lahore 12713
traditions 12713
intention 12710
Catholic 12708
Series 12707
Urdu 12703
generated 12699
Pant 12696
Javadekar 12694
recognize 12689
Gowda 12685
Covid 12683
attendance 12682
combined 12682
ola 12681
surrounding 12681
oldest 12680
ginger 12678
sudden 12669
repeatedly 12664
accurate 12662
sun@@ 12661
Employment 12651
= 12650
rock 12650
Nevertheless 12648
Protests 12648
indicated 12648
chilli 12645
affair 12644
earn 12643
tenure 12643
za 12635
pa@@ 12634
Motor 12632
forming 12630
releases 12628
intended 12627
suggest 12626
CE@@ 12622
biopic 12619
Snapdragon 12618
4th 12616
ades 12616
Indore 12613
5th 12612
TO 12610
Truth 12609
ear@@ 12600
superstar 12600
AN 12598
Devgn 12596
competitive 12594
Golden 12593
Ill 12592
Exchange 12589
Super@@ 12588
bright 12588
1999 12584
Rama 12584
Mirza 12583
institute 12580
signing 12580
adds 12578
congratulate 12575
ani@@ 12573
tsp 12559
artists 12557
gang 12556
postponed 12554
email 12552
Pad@@ 12551
commonly 12549
Sunny 12548
60@@ 12547
equity 12541
favor 12539
framework 12539
theft 12532
79 12526
divorce 12525
visa 12524
Ask 12523
ok@@ 12509
theatre 12506
acid 12504
Anurag 12502
Details 12500
Vadra 12499
examinations 12498
segment 12495
ays 12493
Ms 12489
parking 12489
arguments 12487
difficulty 12487
ears 12486
conferred 12485
dic@@ 12480
integrated 12477
Christmas 12472
Noida 12472
Chahal 12471
valuable 12467
rep@@ 12465
sen@@ 12465
Ter@@ 12459
SA 12457
five-@@ 12448
Val@@ 12443
Smt 12439
directors 12435
Art 12428
rounds 12420
allocation 12418
ological 12415
20,000 12413
Omar 12407
traders 12407
ush 12407
aging 12403
Body 12394
run@@ 12392
Bay 12391
App 12387
fo@@ 12385
Meteorological 12384
Islamabad 12379
Sourav 12379
collapse 12378
Resources 12376
expand 12373
por@@ 12373
ranks 12371
Afghan 12370
behaviour 12367
ung 12365
Wal@@ 12362
reasonable 12353
poetry 12352
Vs 12338
tally 12335
continuous 12333
stand@@ 12333
pronounced 12329
largely 12326
determine 12323
earliest 12323
Ann@@ 12322
Shri@@ 12322
strange 12321
av 12317
squ@@ 12317
cricketers 12314
conveyed 12313
angle 12307
conscience 12306
Xi 12303
Dilip 12301
engagement 12298
Xiaomi 12296
ratio 12295
Johnson 12291
Shivraj 12291
comfortable 12291
ency 12291
SSP 12288
vacant 12287
festivals 12280
ust@@ 12275
inaugurate 12273
non 12273
10th 12271
intervention 12270
pilgrims 12270
SIT 12268
addresses 12265
Umesh 12264
print 12264
succeeded 12262
faster 12261
NT@@ 12255
130 12244
Ganesh 12244
ame 12244
output 12244
holders 12243
Meh@@ 12242
continuously 12240
Managing 12237
ransom 12233
resulting 12230
Som@@ 12229
cured 12226
ce 12225
Nagaland 12224
Building 12216
interrogation 12214
Drink 12213
Nobel 12212
wine 12209
grave 12208
legislation 12203
UT 12196
flying 12194
affordable 12190
generate 12184
bir 12183
lawyers 12183
reaches 12182
wild 12181
Had 12180
philosophy 12180
sec@@ 12168
Order 12166
bal@@ 12165
super 12165
tools 12163
SP@@ 12155
sil@@ 12155
parent 12154
stadium 12147
cont@@ 12144
tied 12136
lady 12134
Indo-@@ 12127
selfie 12125
au 12124
contributions 12124
employed 12119
add@@ 12118
micro@@ 12118
Roshan 12117
Collector 12115
Pooja 12113
enquiry 12107
owing 12103
T20 12102
legislative 12102
tly 12095
Naveen 12092
sung 12092
Forum 12090
engage 12089
genuine 12089
Dal@@ 12083
kers 12083
preach 12082
regulations 12077
Hossain 12075
tears 12075
interim 12074
Peoples 12072
acquitted 12067
hall 12067
terrible 12067
anna 12066
Ru@@ 12065
Sing@@ 12064
devotion 12064
Dr@@ 12060
sions 12059
vo@@ 12058
Malhotra 12053
We@@ 12049
yoga 12040
Air@@ 12037
photographs 12034
silence 12033
Bab@@ 12029
gender 12027
civilian 12022
routes 12021
thrown 12017
Card 12015
Smriti 12014
lowest 12014
torment 12013
sha 12009
legislators 12008
sworn 12007
globe 12000
cap@@ 11999
iness 11999
contrast 11995
singing 11995
innocent 11991
mans 11990
Sand@@ 11989
Up@@ 11989
mixture 11989
explanation 11987
forgotten 11966
heading 11966
confusion 11965
van@@ 11963
ON 11960
Pol@@ 11957
burn 11956
wherein 11956
writers 11954
angel 11952
IL@@ 11951
Royals 11949
Skill 11948
Prize 11946
hasn 11943
Men 11940
Application 11933
reviews 11931
apps 11929
Sri@@ 11928
Italian 11927
12th 11923
ishes 11922
ented 11920
AB@@ 11919
AS 11914
jewellery 11912
Islands 11910
Tomar 11909
amendment 11908
Lu@@ 11906
extensive 11902
surprising 11893
NI@@ 11889
outrage 11889
Jagan 11888
slammed 11888
det@@ 11887
VI@@ 11885
strive 11884
ination 11881
migrant 11871
viewed 11871
Kul@@ 11868
Bihari 11861
Efforts 11857
sacrifices 11857
-led 11854
brief 11853
soft 11847
emerging 11833
cops 11832
Jonas 11831
overseas 11830
verses 11829
server 11827
Alliance 11826
contained 11825
fashion 11825
restored 11824
Tur@@ 11823
Having 11821
Rishi 11821
Akali 11819
branches 11819
Dr.@@ 11817
territories 11815
Ranaut 11811
Vietnam 11810
aff@@ 11804
ose 11804
inflation 11803
distancing 11800
Border 11790
Cultural 11783
ga 11779
sixes 11779
haven 11776
performances 11773
Bajaj 11772
them. 11771
honest 11770
Trans@@ 11766
secular 11764
Nirav 11761
ress 11760
Witness 11752
consumer 11751
imitate 11751
pal@@ 11742
Hal@@ 11738
exhibition 11738
rankings 11738
minute 11735
password 11731
retail 11730
EU 11729
any@@ 11725
Ud@@ 11724
artist 11724
everyday 11720
Dhan@@ 11718
dress 11718
neighbouring 11718
ping 11718
alist 11712
humble 11710
Parrikar 11708
Rav@@ 11708
hel@@ 11707
shelter 11707
gap 11706
Hollywood 11705
ensured 11699
saving 11698
has@@ 11696
IPS 11695
behavior 11691
enabled 11686
processes 11686
Ireland 11684
NTR 11678
finish 11677
allotted 11675
reject 11672
thankful 11667
St. 11664
ands 11661
covers 11661
s.@@ 11661
uv@@ 11661
Educational 11660
Che@@ 11659
Ang@@ 11658
verse 11658
diplomatic 11656
starrer 11656
holiday 11652
Hon@@ 11650
integral 11649
remanded 11646
hatred 11645
league 11638
Bag@@ 11631
Production 11631
Sy@@ 11631
shift 11631
AP@@ 11627
AI 11624
P.@@ 11622
colleagues 11621
Shukla 11618
den 11615
Att@@ 11610
chi 11610
infections 11609
actively 11608
fulfill 11608
SH@@ 11606
button 11600
log@@ 11598
universe 11598
premium 11590
kh@@ 11588
Command 11587
Jeremiah 11586
Stay 11586
sanitation 11586
extreme 11584
350 11578
relative 11575
counting 11574
representative 11570
ministerial 11568
Mehbooba 11566
wage 11564
educated 11563
chair 11557
appearing 11555
grain 11554
cal 11551
Legal 11548
tender 11548
flat 11542
instructed 11541
winds 11541
militant 11540
connections 11539
imports 11539
Town 11538
gra@@ 11537
Vivek 11536
coffee 11535
var@@ 11531
click 11530
handling 11528
Try 11527
Jal@@ 11522
realise 11520
lessons 11518
shoulder 11515
ll 11507
purchased 11502
GS@@ 11497
Things 11487
helpful 11482
AT 11480
gifts 11479
Neither 11478
Fin@@ 11477
Hasina 11477
accordance 11476
ga@@ 11475
Ste@@ 11474
astray 11471
Hor@@ 11469
hom@@ 11469
Nearly 11465
anxiety 11464
sword 11460
Fort 11457
Vitamin 11456
pped 11455
Jalandhar 11451
greeted 11447
shed 11444
intense 11442
buying 11441
evident 11438
Tam@@ 11435
dust 11435
adults 11434
MA 11433
Employees 11432
190@@ 11429
deposit 11427
riots 11425
graduate 11423
prof@@ 11422
IP 11419
Mak@@ 11418
equivalent 11417
cleared 11416
combination 11416
Rep@@ 11415
ges 11415
manifest 11415
threats 11415
Raut 11412
Ay@@ 11411
NO@@ 11410
PL@@ 11408
diverse 11408
eggs 11405
replace 11403
Intelligence 11398
Saina 11397
III 11396
ils 11396
godly 11394
kilometres 11394
int 11389
OR@@ 11388
flour 11388
firms 11387
membership 11387
UR@@ 11385
fees 11378
Babylon 11376
Champions 11375
mel@@ 11373
sa@@ 11372
Womens 11370
ading 11370
ue 11370
convinced 11369
Enter 11368
Jail 11366
carbon 11364
equ@@ 11359
scoring 11359
pura 11357
venue 11357
Bangladeshi 11354
tar 11353
invite 11348
pe 11346
appa 11344
scope 11343
sorry 11339
Nor@@ 11336
comedy 11336
Films 11334
fastest 11333
salvation 11330
split 11330
amended 11327
plot 11323
originally 11322
Secretariat 11321
reiterated 11320
determination 11318
Ph@@ 11314
machines 11313
scholars 11313
in-charge 11312
Pand@@ 11311
IG@@ 11308
protested 11307
stream 11305
planet 11304
Sen@@ 11303
ancy 11301
innovative 11300
acquired 11299
borne 11299
Talking 11291
tragedy 11290
metro 11289
raids 11289
Mul@@ 11288
alisation 11284
hum@@ 11284
ora 11282
My@@ 11281
equally 11281
2019-20 11280
updates 11276
editor 11274
disbelieve 11271
vitamin 11266
Buddhist 11262
cycle 11260
minority 11260
wars 11259
YS 11258
indicate 11257
Speci@@ 11254
,000 11252
ignored 11252
Sources 11248
chest 11246
Americans 11245
itation 11245
PO@@ 11241
frame 11241
tense 11240
TH@@ 11237
Workers 11234
edge 11234
20th 11233
Siddaramaiah 11231
eve 11231
Bose 11230
aid@@ 11229
mentally 11229
grace 11228
remake 11226
11,@@ 11225
aji 11225
Kanpur 11222
Pratap 11221
opener 11221
Merciful 11219
je@@ 11214
Bhuvneshwar 11213
photograph 11210
Highway 11209
dignity 11208
traveling 11207
unbelievers 11205
Cal@@ 11204
rival 11203
alias 11202
NDRF 11200
depression 11200
mechanism 11199
upazila 11198
AIADMK 11197
Gul@@ 11195
opposing 11192
ruler 11189
kitchen 11187
paste 11187
Gandhis 11171
od 11169
impressed 11165
CB@@ 11157
fitness 11156
gather 11154
inhabitants 11152
beliefs 11148
2016-17 11147
Cr@@ 11144
announces 11144
Bhagat 11142
rev@@ 11141
assignment 11140
Lok@@ 11134
designated 11134
Bu@@ 11132
airports 11130
tear 11127
IR@@ 11121
arian 11121
Resource 11119
Def@@ 11115
eries 11114
Satish 11113
pping 11102
D. 11101
motor 11100
Lakshmi 11097
hur@@ 11094
vis@@ 11094
Surat 11092
prisoners 11091
representing 11091
shocking 11091
golden 11090
Sushil 11089
eni@@ 11086
Israeli 11084
Light 11084
teen 11083
whenever 11083
ank 11081
Putin 11077
Shastri 11075
Ibrahim 11072
lah 11069
journal 11062
smoke 11060
rou@@ 11056
Championships 11054
unprecedented 11053
Hope 11050
firmly 11049
Start 11040
tan@@ 11040
OS 11038
attempted 11037
remarkable 11037
tracks 11037
Pauls 11036
tering 11036
Set 11034
quarantine 11032
wara 11030
Guwahati 11029
tips 11020
indigenous 11019
Da@@ 11017
Naval 11016
serves 11007
2.5 11006
physically 11002
Soviet 11000
cooking 11000
components 10996
conf@@ 10996
yas 10994
containing 10993
diversity 10991
recalled 10991
developments 10990
wa@@ 10987
Bhar@@ 10982
affection 10979
expert 10979
ick 10979
newspapers 10979
realized 10979
zones 10979
Rom@@ 10977
TS 10974
tensions 10972
zz@@ 10972
discrimination 10968
champion 10967
Island 10965
witnessing 10960
labs 10957
Manager 10955
Front 10954
recruitment 10947
weapon 10946
PDP 10944
Convention 10939
regarded 10937
lam@@ 10935
bing 10931
wages 10931
urge 10930
No. 10926
Kol@@ 10923
stuck 10921
Sil@@ 10915
okay 10911
publication 10911
wal@@ 10911
lift 10902
Online 10901
smartphones 10899
Scriptural 10896
qualify 10894
fac@@ 10893
Climate 10892
sted 10892
Abbas 10889
simultaneously 10888
ard@@ 10874
coordination 10871
enting 10871
Kun@@ 10868
Girls 10866
Lake 10865
BNP 10862
Venkaiah 10862
fame 10862
tennis 10862
Maybe 10854
Annual 10851
equality 10851
bow 10850
Data 10847
d. 10847
bowled 10844
pulled 10842
Common 10837
hanging 10835
mask 10832
Med@@ 10831
ther@@ 10830
Citizens 10826
wh@@ 10822
telephone 10819
push 10817
urgent 10817
asi 10816
forests 10814
untoward 10810
aan 10806
Market 10804
grade 10804
Under@@ 10802
sparked 10801
doubts 10798
contrary 10797
renowned 10797
SR@@ 10796
Inc@@ 10795
tons 10794
flee 10793
entrance 10791
Khans 10790
Empire 10785
Latin 10785
targets 10784
publications 10783
gun@@ 10773
nationals 10772
Vishnu 10767
ing-@@ 10767
monitor 10767
critically 10765
Arts 10762
M. 10761
Magistrate 10753
ota 10753
aps 10750
mal 10748
ration 10748
Mallya 10747
Sukh@@ 10747
tar@@ 10747
Penal 10746
ta@@ 10746
preliminary 10744
Matt 10741
resource 10741
ban@@ 10740
Him@@ 10739
icon 10739
ode 10739
IF@@ 10738
JP 10738
fray 10737
Prabhu 10736
railways 10736
gonna 10735
Thou 10734
ayed 10730
tackle 10728
ica 10726
bor@@ 10725
stick 10725
emphasis 10724
Chowdhury 10720
toilet 10719
profession 10718
ables 10717
ities 10717
midst 10715
opens 10712
Silver 10710
B. 10709
Football 10705
Care 10704
bottom 10702
ric 10702
considerable 10701
exposed 10700
roof 10699
recover 10698
refugees 10697
ideal 10696
Chi@@ 10687
pet 10686
Jaishankar 10685
boundaries 10685
cow 10685
ial 10685
couples 10683
yar 10683
Tim 10682
Persian 10676
inn@@ 10676
quantity 10675
claiming 10674
leg@@ 10674
tel@@ 10674
Qureshi 10669
Sabarimala 10668
ected 10668
affects 10667
balanced 10665
Haz@@ 10663
SAD 10662
scenario 10660
Thir@@ 10658
stat@@ 10658
pun@@ 10657
tures 10657
sincere 10651
islands 10650
ullah 10650
Puducherry 10649
Por@@ 10648
Non-@@ 10647
trace 10642
Network 10639
objectives 10639
Entertainment 10632
TC 10632
2.0 10629
Sonakshi 10628
Philippines 10627
fighters 10626
dollars 10625
disbelievers 10624
Ha@@ 10623
relatively 10623
observation 10616
wala 10614
timely 10613
Martin 10611
top@@ 10610
ole 10608
withdrawal 10607
Swachh 10605
introduce 10603
tweets 10603
attackers 10601
ingredients 10601
citation 10600
Nand@@ 10596
paddy 10595
SI@@ 10593
mid@@ 10590
stocks 10589
throw 10588
legend 10587
Prabhas 10586
minerals 10586
clarified 10585
gre@@ 10585
dignitaries 10584
sleeping 10582
museum 10578
Answer 10576
red@@ 10575
Fl@@ 10574
translation 10574
Coal 10572
faculty 10570
7th 10568
aking 10565
compassion 10565
Kane 10563
illa 10557
accordingly 10555
professionals 10550
Ambassador 10549
Sukhbir 10546
Language 10543
emphasized 10543
ika 10530
occupied 10529
sake 10529
possess 10526
tool 10521
joins 10518
injustice 10517
convicts 10516
Match 10515
had@@ 10509
Model 10507
structures 10507
black@@ 10506
ene 10505
anti 10501
1998 10498
Kashmiri 10496
god@@ 10496
fre@@ 10494
than@@ 10491
Corporate 10490
critics 10489
stepped 10488
influenced 10480
Band@@ 10478
dia 10478
Brother 10475
buried 10474
cer@@ 10474
criminals 10472
Hell 10471
Santosh 10470
mur@@ 10469
riding 10469
refer 10468
Eight 10466
Gun@@ 10466
si 10463
profile 10454
achieving 10452
Queen 10451
oo 10451
commented 10448
royal 10446
introduction 10444
Moon 10440
Tel@@ 10439
Ds 10438
Sham@@ 10436
ought 10434
dri@@ 10433
lifestyle 10431
library 10427
Consumer 10426
gearbox 10416
shalt 10415
Christs 10411
ake 10403
E-@@ 10400
Af@@ 10398
hon@@ 10398
1996 10393
screening 10388
Electronics 10387
Aj@@ 10386
sexually 10385
ture 10385
AL 10381
eagerly 10378
administered 10370
coaches 10368
confessed 10366
celebrating 10365
honey 10363
Kur@@ 10361
bra@@ 10361
slightly 10361
beings 10360
souls 10358
Broadcasting 10357
deposits 10356
Store 10355
obtain 10351
Du@@ 10349
deadly 10349
possibly 10347
Z 10345
mAh 10343
Jordan 10340
Tech 10339
fix 10337
hence 10336
Presidents 10335
cou@@ 10334
setup 10333
Challengers 10326
Mohanlal 10326
AND 10325
Vir@@ 10325
bullet 10325
confirmation 10325
endure 10323
remand 10322
ys@@ 10322
mas@@ 10321
tired 10321
jurisdiction 10319
Long 10316
consultation 10315
jo@@ 10315
communal 10312
disputes 10309
cargo 10308
separated 10308
Lucky 10306
Tw@@ 10303
entrepreneurs 10302
react 10301
architecture 10300
lashed 10292
meters 10292
1971 10290
annually 10285
aur 10283
mail 10283
Branch 10279
NA@@ 10279
promoted 10278
helmed 10277
MC@@ 10275
needy 10273
plain 10273
reveals 10272
auction 10268
beds 10266
Solar 10264
drawing 10262
asa 10259
Del@@ 10258
21st 10257
Capt 10256
consult 10255
Iqbal 10252
cli@@ 10252
universal 10252
nationwide 10250
May@@ 10248
respected 10247
Realme 10243
Advisor 10241
Lak@@ 10237
Sikhs 10231
Session 10230
Harish 10229
rejoice 10228
Sec@@ 10225
Military 10223
dealt 10223
Results 10218
atha 10215
blocks 10211
Communist 10209
Muk@@ 10209
ailing 10203
Hindustan 10202
broad 10198
alli 10196
sentiments 10196
Aayog 10191
apologise 10191
Sai@@ 10189
inform 10185
execution 10183
usage 10182
Ty@@ 10180
Behold 10175
dinner 10169
believing 10166
watched 10165
ney 10164
thr@@ 10164
.0@@ 10159
organic 10159
emotions 10158
nation@@ 10158
Out@@ 10157
earthly 10157
ids 10155
ira 10154
mag@@ 10154
grains 10151
Full 10150
Girl 10150
cra@@ 10149
inal 10145
Radha 10143
converted 10140
Bethel 10138
CR@@ 10136
ey@@ 10136
refuge 10133
yield 10133
bills 10131
isolation 10131
risks 10130
blog 10128
N. 10127
Mann 10125
Sol@@ 10125
uncle 10120
9-@@ 10116
civilians 10115
audio 10113
executed 10113
supplied 10113
ces 10110
ride 10110
rat 10108
removal 10105
Dam@@ 10097
yp@@ 10096
AG@@ 10088
dwell 10087
Eve 10085
zero 10084
Tribunal 10083
revolution 10079
Block 10078
Sch@@ 10078
Rajan 10077
Congratulations 10074
antly 10074
seconds 10070
vulnerable 10070
New@@ 10069
Mis@@ 10065
regret 10062
Community 10059
Index 10058
estate 10057
cooperate 10056
LPG 10055
na@@ 10054
loc@@ 10052
there@@ 10051
pregnancy 10050
triple 10049
Azhar 10045
persecution 10041
Relief 10040
ws 10038
Jason 10036
proposals 10035
suspension 10035
ander 10034
band@@ 10034
tie 10030
laundering 10029
Third 10028
Level 10026
cro@@ 10023
residential 10021
Navjot 10020
ere 10020
succumbed 10013
Hel@@ 10010
oppose 10009
deals 10008
margin 10008
Flipkart 10007
Gen 10004
andi 10002
Train 9999
popularity 9996
ona 9995
literacy 9993
J. 9991
kumar 9984
mob 9983
Emergency 9982
Need 9981
Lal@@ 9980
Nas@@ 9978
ails 9978
aying 9977
cr 9974
oms 9974
ium 9972
izing 9971
cleanliness 9970
backs 9969
ili@@ 9969
Op@@ 9964
worthy 9961
Parishad 9960
Save 9959
Medicine 9957
presentation 9957
mid-@@ 9956
water@@ 9956
conferencing 9954
ees 9954
empowerment 9954
BE@@ 9953
Rishabh 9946
pleasant 9945
updated 9939
Rajeev 9938
luck 9934
teaser 9934
DNA 9933
hunger 9932
ained 9931
Coast 9930
Rel@@ 9929
cc 9927
perspective 9924
describe 9922
qui@@ 9920
Guard 9919
smoking 9919
Ren@@ 9918
resistance 9918
ards 9917
fort 9914
puts 9913
Shivaji 9912
Ghulam 9911
allies 9911
Dalit 9909
gen@@ 9908
raw 9907
Secretaries 9904
05 9903
ems 9902
ports 9902
cy@@ 9901
des 9898
ag 9897
San 9895
Wor@@ 9895
prophets 9895
berg 9894
NS@@ 9889
beating 9887
sli@@ 9887
eness 9886
creative 9884
ethnic 9882
cotton 9880
Live 9871
Key 9869
virtual 9868
fed 9867
Dharmendra 9866
contr@@ 9866
ori@@ 9863
Mang@@ 9862
motivated 9858
breathing 9852
Bibles 9851
suff@@ 9850
ing. 9845
Kas@@ 9843
Voting 9842
blow 9842
PAN 9841
customer 9839
husbands 9839
dar 9838
topic 9838
4,000 9836
Deshmukh 9834
stir 9834
Against 9833
normally 9830
Find 9829
09 9828
15th 9825
eff@@ 9822
todays 9820
pays 9819
rers 9819
Bangla 9818
inclusive 9816
settlement 9815
throne 9814
bat@@ 9813
delight 9813
MW 9808
transparency 9803
EL@@ 9801
Om 9796
alities 9796
TA 9793
Mani 9792
eless 9792
Gauri 9791
Rahane 9791
Rio 9789
aning 9789
med@@ 9785
ual 9785
Error 9783
Hockey 9783
temperatures 9782
mad@@ 9774
bi 9773
Fac@@ 9770
ude 9770
surveillance 9769
Hassan 9765
Mandir 9762
Manj@@ 9762
Hari@@ 9761
procedures 9759
speci@@ 9759
Sel@@ 9758
forecast 9758
yours 9757
Ku@@ 9754
bones 9754
CA 9753
Saini 9746
Canadian 9744
Netherlands 9744
default 9742
PR@@ 9741
avoided 9731
dev 9731
anth 9730
oxygen 9729
Lo 9728
Kiran 9727
indicates 9724
tically 9723
Dan@@ 9722
benefited 9722
Bahadur 9721
Something 9720
gan@@ 9720
judiciary 9720
calendar 9719
handled 9719
bel@@ 9718
restricted 9718
prestigious 9717
ular 9717
guy 9716
nam 9715
awaited 9713
105 9710
toilets 9709
surrounded 9708
familiar 9706
hear@@ 9705
objects 9703
Till 9702
atives 9701
counterpart 9700
dependent 9697
tal@@ 9697
transparent 9696
tank 9693
ashing 9690
Nair 9686
feared 9682
shrine 9678
Rahim 9674
IC 9672
anth@@ 9672
paradise 9672
Similar 9670
cu@@ 9670
harmful 9670
Leela 9669
desired 9666
long-term 9666
inj@@ 9664
Hooda 9663
by@@ 9662
rid 9661
Institutions 9660
fishing 9658
committing 9657
Mandi 9655
enjoying 9655
restore 9654
jet 9651
risen 9651
Car 9648
tribe 9648
B.C.E. 9645
Shroff 9645
creatures 9645
Hrithik 9643
Sadar 9642
or-@@ 9640
pres@@ 9640
windows 9639
opted 9637
reduces 9635
spouse 9634
corrupt 9633
unemployment 9633
eds 9632
6th 9630
Agra 9628
ght@@ 9622
Inf@@ 9618
01 9609
23@@ 9607
Clean 9604
tan 9604
Strict 9601
DR@@ 9600
Han@@ 9600
checked 9597
Prof 9596
ners 9591
Iyer 9587
Bul@@ 9586
tis 9586
ao 9585
belonged 9583
exciting 9583
routine 9581
delighted 9580
itors 9580
Menon 9579
brown 9578
Joshua 9576
ect 9573
Rupani 9571
Vas@@ 9570
dh@@ 9570
hab@@ 9570
typically 9569
A.@@ 9568
harvest 9567
CS@@ 9564
Shakti 9563
baptism 9563
Presently 9562
ro 9555
doubles 9552
drew 9552
uring 9551
Hi@@ 9549
supreme 9547
remark 9546
moderate 9542
Tir@@ 9540
stores 9539
meals 9537
Blood 9535
Innovation 9535
you. 9532
ick@@ 9531
grants 9530
hast 9530
landing 9530
outfit 9529
lord 9523
networks 9523
spec@@ 9523
consent 9520
businessman 9519
PP@@ 9518
ef 9514
finds 9511
Nabi 9508
prevention 9507
rab@@ 9507
Sen 9506
lucky 9502
www.@@ 9501
Ishant 9500
component 9498
tune 9498
magic 9497
Student 9494
hes 9494
ulation 9494
Southern 9493
onto 9493
Satans 9492
1991 9491
Ji@@ 9491
Sher@@ 9490
Janhvi 9489
calcium 9489
forthcoming 9488
felicitated 9487
closing 9486
Accordingly 9484
lion 9481
inda 9480
producers 9480
Kartarpur 9479
fulfillment 9477
gro@@ 9476
ous@@ 9476
Rome 9475
ranking 9475
Tribal 9474
minorities 9474
momentum 9474
boundary 9473
gs 9473
eding 9470
Dhar@@ 9469
eh@@ 9467
ed. 9465
God@@ 9463
casualty 9462
missed 9461
Hu@@ 9460
Roads 9460
acquisition 9459
render 9458
radi@@ 9457
referring 9457
smile 9457
cuts 9449
attract 9447
gh 9446
youngest 9445
Kisan 9444
encouragement 9444
fulfil 9443
commence 9441
repair 9441
collective 9440
contacted 9439
Again 9437
divide 9436
flows 9436
Yuvraj 9429
tered 9427
Srinivas 9426
Standard 9425
ket 9424
painting 9424
rulers 9423
MSME 9422
Wise 9422
afford 9422
nam@@ 9421
ese 9420
kets 9417
savings 9416
Argentina 9415
Bhawan 9415
Review 9415
Comp@@ 9414
Marriage 9413
Bah@@ 9410
PA 9409
telecom 9409
occurs 9406
unions 9405
ups 9405
deficit 9401
tim@@ 9400
Sultan 9397
Commonwealth 9396
PMs 9396
rs 9395
lest 9391
ences 9389
ER@@ 9388
Bang@@ 9387
detention 9385
Charge 9384
Varma 9382
livelihood 9382
poems 9382
creates 9380
bonds 9378
conscious 9378
DI@@ 9375
Country 9374
airline 9374
AK 9372
Shashi 9372
Source 9372
enters 9370
sul@@ 9369
Akbar 9368
NITI 9368
hydro@@ 9367
declaration 9366
realised 9362
giant 9360
180 9357
UL@@ 9356
uck@@ 9355
ment@@ 9354
Asked 9351
9th 9350
Karthik 9350
Madurai 9350
RS 9349
corridor 9347
parked 9347
maybe 9345
Benefits 9344
amounts 9344
William 9338
Enterprises 9335
guarantee 9335
landed 9335
tragic 9334
Movement 9331
Area 9329
arts 9327
inaugural 9325
Support 9322
Coimbatore 9318
reacted 9318
Youre 9317
reflected 9317
protecting 9312
commenced 9311
recall 9307
Pra@@ 9305
Khattar 9303
Yuzvendra 9303
Ul@@ 9300
lyrics 9300
hoped 9299
instruction 9299
therapy 9298
top-@@ 9297
DP 9296
pro-@@ 9296
AYUSH 9294
Ministries 9294
cap 9294
AD@@ 9293
st-@@ 9293
institutes 9291
ills 9290
20-@@ 9289
Rain 9289
intensified 9288
describes 9286
workshop 9286
Prem 9284
BR@@ 9283
lers 9274
wouldnt 9273
CC 9272
alia 9271
GS 9269
PC@@ 9269
Chauhan 9267
Unit 9262
Jinping 9261
heartfelt 9261
MD 9260
hub 9258
customs 9254
sh 9254
1-0 9253
corporation 9253
KCR 9252
Ratna 9252
reign 9252
8th 9249
aspirations 9249
Stokes 9247
Primary 9246
144 9244
migrants 9243
locality 9242
Chennithala 9241
Studies 9241
passport 9240
with@@ 9240
Relations 9239
productivity 9236
DS 9234
minus 9233
Companies 9232
engineer 9227
personalities 9226
revelations 9226
preet 9225
condemn 9222
apparently 9221
Masjid 9220
ack@@ 9219
Ki@@ 9218
motive 9216
enn@@ 9214
Honble 9211
suggests 9211
Much 9208
connecting 9207
cried 9206
wherever 9203
don@@ 9196
transformation 9195
pul@@ 9194
memorial 9193
adopt 9191
interacted 9190
swing 9189
oes 9184
ecting 9178
Gol@@ 9176
tal 9176
Vehicles 9174
dogs 9174
RO@@ 9173
tend 9171
Isaac 9170
mature 9170
enhancing 9168
lasting 9167
receives 9163
sealed 9162
Bis@@ 9156
Daily 9154
alam 9154
thieves 9154
argued 9153
guards 9153
enthusiasm 9151
paise 9149
extraordinary 9147
dad 9146
obvious 9146
pool 9145
Brothers 9143
ammunition 9141
ries 9141
Sav@@ 9139
Vinay 9139
00,000 9138
printed 9138
Er@@ 9135
advantages 9129
copies 9129
shame 9129
ital 9127
Rajinder 9126
respects 9126
IA@@ 9124
highlights 9120
Jodhpur 9119
rises 9118
Chinas 9117
eration 9117
La 9116
involve 9116
ounding 9116
eternal 9113
chargesheet 9111
Locals 9110
FDI 9103
agreements 9098
LO@@ 9095
thoroughly 9092
Kannur 9089
AY 9081
youre 9077
whatsoever 9076
foretold 9073
Hereafter 9068
Additionally 9067
depend 9065
preserve 9061
tap 9061
youngsters 9061
scenes 9056
Fe@@ 9055
ID@@ 9055
Personnel 9055
Sub-@@ 9055
Randeep 9053
sends 9051
Radio 9048
Ir@@ 9047
my@@ 9045
altar 9044
reads 9043
usual 9043
reservoirs 9040
possibilities 9039
rendered 9039
Ansari 9037
episode 9034
turmeric 9034
census 9032
habits 9031
Bor@@ 9029
techniques 9026
Spirit 9025
Ranchi 9024
eminent 9024
responding 9024
dying 9021
Ali@@ 9018
capabilities 9018
ech@@ 9018
Gandhinagar 9017
ros@@ 9017
folder 9016
Mod@@ 9011
sting 9007
cheating 9006
winder 9004
Launch 9002
Wayanad 9002
subsequent 9002
eri 9000
Rob@@ 8998
fare 8998
Gen@@ 8996
gardens 8995
reputation 8994
three-match 8993
applies 8989
loyalty 8986
caution 8985
stomach 8985
increasingly 8982
Bhag@@ 8981
Put 8978
moments 8977
kil@@ 8974
1997 8973
ich@@ 8972
nearest 8972
commerce 8971
retained 8971
ava 8970
specifically 8962
crushed 8961
Nathan 8958
coll@@ 8957
establishing 8957
launching 8957
maiden 8955
cholesterol 8954
Qualcomm 8953
Pandit 8952
substantial 8949
Furthermore 8948
disperse 8948
pil@@ 8948
Samaj 8947
Cancer 8946
dating 8945
detected 8944
Naz@@ 8943
uting 8943
fearing 8942
trapped 8941
Departments 8939
Kath@@ 8938
fears 8937
110 8935
Yeah 8935
flowing 8932
Anna 8930
impressive 8928
apping 8925
releasing 8923
thinks 8920
settle 8919
Henry 8915
Greater 8909
highways 8908
Raina 8907
Goddess 8901
IMD 8901
Register 8900
psalmist 8896
resigns 8896
vessels 8896
cylinder 8894
assurance 8893
ign@@ 8893
Resurrection 8891
Weve 8890
Farooq 8889
Ki 8889
terminal 8889
wari 8884
Mohali 8883
Stalin 8881
literary 8881
owns 8879
ras 8878
element 8877
Age 8876
Sai 8876
inter-@@ 8876
carries 8875
vol@@ 8873
maritime 8872
Same 8871
Williamson 8865
1995 8859
martyred 8859
worshipped 8854
Enforcement 8852
ier 8852
Mike 8849
tle 8848
travelled 8846
stretch 8845
Christianity 8844
Gram 8844
Gan@@ 8841
gar 8839
Commander 8838
Knight 8835
Freedom 8831
conviction 8831
defend 8831
constable 8829
Sections 8828
sub-section 8826
tribes 8826
Gl@@ 8825
classical 8825
Hegde 8824
istic 8824
ologist 8823
chase 8821
volunteers 8821
amendments 8818
summoned 8817
SE 8816
hardly 8813
Doing 8812
ow 8812
4GB 8811
nephew 8809
Integrated 8808
Ros@@ 8808
Swamy 8803
lovers 8803
10,@@ 8800
washed 8800
depending 8798
shar@@ 8798
poly@@ 8797
Nab@@ 8796
Hero 8794
renewable 8789
expelled 8787
plate 8787
Computer 8786
clothing 8786
prevented 8785
raining 8785
Sweden 8783
alists 8783
derived 8780
strictly 8777
sy@@ 8777
Rescue 8775
19th 8773
committees 8772
inconvenience 8771
Wi@@ 8769
udd@@ 8769
Dera 8768
Kishore 8768
div@@ 8768
discount 8765
Ephesians 8764
Tharoor 8764
128 8761
128GB 8761
Politics 8757
bags 8755
Questions 8754
Cre@@ 8753
recording 8752
sam@@ 8750
Durga 8748
FIFA 8747
collect 8746
tioned 8746
Sanjeev 8745
Parkash 8744
lab@@ 8743
201@@ 8740
gates 8739
attractive 8738
Chin@@ 8737
passage 8732
concrete 8730
ther 8730
Nationalist 8729
sav@@ 8729
utter 8729
institutional 8725
64GB 8719
layer 8718
af 8716
ple 8711
tives 8711
Call 8709
slated 8702
Tripathi 8701
Am 8697
to-@@ 8697
microSD 8695
Within 8694
Nokia 8691
arch@@ 8691
explore 8690
1993 8689
Switzerland 8687
Cases 8685
deemed 8685
Mac@@ 8684
waves 8684
Asi@@ 8682
breath 8680
Ref@@ 8679
comparison 8677
Fa@@ 8676
absolute 8675
sor@@ 8675
Fir@@ 8674
amed 8674
Yeddyurappa 8673
udi 8673
ino 8672
cle@@ 8670
accepting 8669
Consequently 8666
Pradeep 8665
cha 8661
Paswan 8659
Sania 8659
Personal 8656
snow 8651
lit@@ 8649
Bud@@ 8647
Pilot 8644
DSP 8643
Apply 8642
sand 8642
sem@@ 8641
missionary 8639
sanctions 8639
Saty@@ 8638
sle@@ 8638
romantic 8636
inauguration 8634
Pu@@ 8633
Gujarati 8632
deb@@ 8632
definition 8630
baseless 8627
centers 8627
unjust 8626
Examination 8622
ghts 8622
cour@@ 8620
MO@@ 8619
Sc@@ 8617
ero@@ 8616
conclude 8615
sar@@ 8615
flock 8614
ump 8614
08 8613
habit 8612
assaulted 8609
1,0@@ 8608
Early 8608
Bathinda 8607
convey 8607
Isnt 8605
dig@@ 8604
threw 8601
theatres 8600
Turkish 8597
mild 8596
Territories 8595
policeman 8595
lo 8594
T-@@ 8592
item 8591
skilled 8591
Qatar 8585
Hon 8584
humility 8583
Shes 8582
medi@@ 8582
ud 8579
yam 8579
Brah@@ 8578
Windows 8576
Cur@@ 8575
author@@ 8572
1990 8570
Date 8569
Hy@@ 8567
Prab@@ 8566
Maharaj 8565
yl@@ 8564
ining 8563
ark 8557
asting 8557
bless 8557
Has@@ 8552
shots 8550
onwards 8545
Says 8544
11@@ 8543
Communication 8542
demonstrate 8542
disputed 8542
threatening 8542
Suk@@ 8541
uda 8540
Diesel 8539
Venugopal 8538
devoted 8538
manufactured 8537
rang@@ 8537
-to-@@ 8536
Men@@ 8532
appoint 8530
Faith 8529
Ronaldo 8527
somewhere 8527
Ras@@ 8526
brave 8524
2020-21 8523
Miss 8522
Javed 8519
prohibited 8518
expecting 8517
publicly 8514
aker 8512
condoled 8512
pertaining 8512
Chittagong 8511
prosecution 8506
stating 8504
applying 8500
interrogated 8499
violated 8499
Stop 8497
unusual 8497
scholar 8493
ano@@ 8489
read@@ 8489
NR@@ 8488
establishments 8488
ums 8486
Ari@@ 8484
vitamins 8484
1992 8483
Awake 8482
atively 8480
Schedule 8479
notices 8478
Knowing 8475
Leaders 8474
Jayanti 8468
puri 8468
musical 8462
Expo 8461
accessible 8461
cho@@ 8461
hat@@ 8461
ISIS 8459
him@@ 8459
album 8457
pushed 8456
vir 8456
Ex-@@ 8455
laying 8455
bridges 8454
cat@@ 8451
ema 8444
non@@ 8444
Image 8441
oral 8440
ree 8439
twenty 8439
Kot@@ 8438
raping 8436
titles 8435
Eli@@ 8426
crashed 8426
ultimately 8420
hardship 8419
Journal 8415
ye@@ 8414
ET 8411
brilliant 8410
beloved 8409
undertake 8409
Sul@@ 8406
Alok 8405
Chairperson 8405
Pension 8404
Harbhajan 8403
Initially 8403
Customs 8401
Stock 8401
fibre 8401
scientist 8399
sive 8399
consistent 8396
tes 8396
athletes 8393
movements 8393
cultures 8390
exclusive 8390
slain 8388
findings 8386
Axis 8385
bil@@ 8384
Houses 8383
PCC 8377
160 8376
Cell 8376
ik 8373
soci@@ 8373
hills 8372
HRD 8371
economies 8371
violating 8369
ple@@ 8366
900 8365
safely 8364
adult 8362
ashes 8362
cher 8360
Design 8359
aiah 8358
elsewhere 8358
immunity 8358
lu@@ 8355
mobil@@ 8354
part@@ 8353
ceasefire 8352
rav@@ 8348
wat@@ 8346
funeral 8344
IL 8342
cleaning 8342
cutting 8341
rely 8340
indra 8338
emerge 8337
.in 8334
CD 8334
shi 8334
Want 8332
finals 8332
reverse 8332
pistol 8331
Follow 8330
ashamed 8328
instrument 8325
manufacturer 8323
it. 8321
View 8318
Shivakumar 8317
domain 8317
Shipping 8316
resentment 8314
reporting 8312
ide@@ 8311
Hey 8310
submission 8310
pic@@ 8307
complicated 8306
privacy 8306
chemicals 8305
pha@@ 8305
donated 8304
Tower 8303
badminton 8303
legendary 8302
memories 8302
31st 8301
25,000 8297
objected 8297
overnight 8297
forwarded 8295
Beijing 8293
aining 8293
cure 8293
websites 8292
Chancellor 8290
flash 8290
DRDO 8288
eighth 8287
fol@@ 8286
imperfect 8285
a. 8283
scores 8283
sar 8282
Reports 8281
ignore 8280
aring 8278
heav@@ 8276
Promotion 8275
jets 8275
speedy 8274
Raman@@ 8272
aks 8271
Authorities 8265
gm 8264
agents 8263
kid 8262
Sunrisers 8259
hotels 8259
Bhubaneswar 8256
pulses 8256
6,000 8255
ici@@ 8254
Unfortunately 8252
Headquarters 8249
compare 8249
ligh@@ 8246
Back 8245
iOS 8245
mom 8245
06 8241
accomplished 8240
halt 8240
1947 8238
Asif 8238
demonstration 8237
UP@@ 8236
superior 8235
Pres@@ 8234
BJD 8233
freely 8233
assumed 8232
Gambhir 8231
Shreyas 8230
1994 8229
Administrative 8229
cited 8229
Bre@@ 8227
Saeed 8225
akar 8225
Microsoft 8222
Mahajan 8221
acknowledged 8221
BA 8218
Bridge 8217
enforcement 8215
tight 8215
spring 8214
ahs 8213
Kav@@ 8211
singles 8208
Cri@@ 8206
Kumari 8206
bol@@ 8206
missions 8205
junior 8204
mayor 8204
rallies 8203
Official 8202
Desai 8200
flagship 8198
offences 8195
dominated 8193
federal 8193
martyrs 8191
Residents 8190
highlight 8190
printing 8190
1984 8189
ambulance 8189
2015-16 8188
fold 8187
TB 8186
Owaisi 8185
yal 8185
celebrates 8184
circulated 8183
ef@@ 8183
dar@@ 8182
ox@@ 8181
Siddiqui 8180
Teacher 8179
iled 8179
Sam 8178
Sundar 8178
Web 8177
noise 8177
Hamid 8176
rage 8176
Azam 8174
Large 8173
ster@@ 8171
openly 8167
k-@@ 8166
Response 8165
grass 8165
ects 8164
shouldnt 8164
Study 8163
fate 8162
permit 8161
maker 8159
akumar 8155
Moscow 8154
backward 8154
inheritance 8154
all-rounder 8153
negligence 8151
input 8150
tobacco 8147
whi@@ 8146
ref@@ 8145
Karachi 8144
at-@@ 8144
constitute 8144
slaves 8144
gaon 8142
alli@@ 8141
ful@@ 8141
.com 8140
th-@@ 8140
nominations 8139
BSNL 8137
new@@ 8136
Kaushal 8135
agent 8133
Vidhan 8132
Pankaj 8131
finalised 8131
lau@@ 8131
closure 8129
ideology 8127
Federal 8125
eting 8125
PNB 8123
rivals 8123
champions 8121
Gulf 8119
Marketing 8118
clock 8117
07 8114
Distribution 8114
esses 8113
saith 8113
Modern 8111
tablespoon 8110
mandate 8107
Andaman 8106
nose 8106
immune 8101
poses 8101
hailed 8100
BSE 8099
Works 8099
alize 8097
cultivate 8097
deserve 8096
zeal 8096
clinical 8095
description 8095
lak@@ 8094
Judges 8093
northeast 8092
pursuing 8092
adjoining 8091
ambassador 8090
glorious 8090
keys 8088
penned 8088
Movie 8087
aik@@ 8082
stringent 8082
cop@@ 8080
bars 8079
rebel 8078
reactions 8077
Ford 8076
drought 8076
Pras@@ 8073
crossing 8072
compl@@ 8070
divisions 8067
oh@@ 8067
vain 8066
Can@@ 8064
Godavari 8064
aviation 8063
pop@@ 8062
Choose 8060
idols 8058
frequent 8057
avi 8055
cook 8054
sen 8051
Bhai 8050
usion 8047
Final 8046
Masood 8045
kha 8044
repeat 8044
Awami 8042
aked 8038
financing 8038
Ranjit 8035
capability 8035
hungry 8034
Prashant 8032
blasts 8032
Leave 8027
lunch 8026
she@@ 8026
Kartik 8025
Mosque 8025
Kottayam 8024
sang 8024
compete 8023
pos@@ 8019
dairy 8018
mes 8018
demonstrated 8017
separately 8015
tent 8015
motorcycles 8014
Maulana 8012
Gre@@ 8010
aming 8009
Deol 8008
boards 8008
slams 8007
MSMEs 8005
adverse 8004
gross 8004
reliable 8004
vers 8004
Bat@@ 8002
dish 8001
una 8001
offspring 7999
identification 7997
auspicious 7994
sof@@ 7994
Lt 7993
manifesto 7993
< 7991
Criminal 7990
breast 7990
ki@@ 7990
ty-@@ 7989
spar@@ 7988
oring 7986
Ernakulam 7985
Buddha 7983
scuffle 7983
Malaika 7981
da@@ 7981
shopping 7981
County 7979
corona 7979
hid 7975
Rak@@ 7974
kh 7974
Ven@@ 7972
rolled 7972
Gorakhpur 7971
Chavan 7970
Shinde 7969
elaborate 7967
commander 7963
erupted 7962
'ble 7961
LE@@ 7961
day@@ 7960
Gardens 7959
Rajkumar 7959
men@@ 7958
rejects 7955
Judicial 7954
trusted 7951
chicken 7949
inspector 7948
ICMR 7947
lemon 7947
Cap@@ 7944
rating 7943
Symptoms 7939
compromise 7939
discussing 7939
potassium 7939
syn@@ 7939
presidents 7938
Mos@@ 7936
occupation 7936
messengers 7925
dwelling 7923
testimony 7923
negotiations 7922
reli@@ 7921
instruments 7920
measured 7918
commodities 7917
voter 7917
quarters 7916
15,000 7913
nutrition 7912
estimates 7911
ared 7908
Aggarwal 7907
YSR 7905
Tokyo 7904
associates 7903
Ajinkya 7902
ase 7902
single-@@ 7902
unlimited 7902
mens 7901
warns 7900
4G 7897
warn 7897
Junior 7895
raid 7895
homage 7894
curb 7893
probed 7893
shirt 7893
machinery 7892
guys 7891
Ta@@ 7890
apuram 7890
obedience 7889
forbidden 7887
politically 7887
transaction 7887
itt@@ 7885
vary 7885
Place 7883
tribulation 7882
opinions 7880
ately 7879
Rat@@ 7877
bathroom 7876
checking 7875
Rate 7873
apology 7873
ective 7873
mated 7873
flooded 7870
Filmfare 7869
pacer 7867
spinner 7866
30,000 7865
horse 7864
bha@@ 7863
objection 7863
Kon@@ 7861
wrath 7861
Cannot 7858
Fre@@ 7858
choices 7857
itch 7857
recommendation 7857
rush 7857
row@@ 7855
publishers 7854
societies 7853
precautions 7851
weekly 7851
PMO 7850
aa 7849
recognise 7849
laugh 7846
profits 7845
install 7844
lal 7844
ori 7844
instances 7842
listened 7842
tam@@ 7842
pressed 7841
Gurdaspur 7837
Partnership 7837
licence 7835
childs 7832
sters 7832
oning 7831
oph@@ 7829
Whoever 7825
roots 7825
Mi 7823
Riders 7822
ascertain 7819
Raksha 7818
eliminate 7817
jumped 7817
Tim@@ 7815
confused 7815
hiked 7813
Harry 7812
coconut 7812
governing 7811
tries 7811
mak@@ 7807
beside 7806
franchise 7803
feeding 7802
Direct 7801
Flo@@ 7800
Zone 7800
amp@@ 7800
canal 7800
1989 7798
abilities 7797
distinct 7797
Amethi 7796
bal 7795
onic 7795
nominee 7794
acquire 7793
consisting 7793
accorded 7790
Colour 7789
violations 7789
resort 7787
loaded 7784
talented 7782
raises 7781
Likewise 7780
low@@ 7780
ICU 7779
Dil@@ 7777
Ve@@ 7777
switched 7777
Listen 7776
alleging 7776
weakness 7776
sel@@ 7775
tasks 7771
Veteran 7769
aire 7769
lifetime 7764
Khar@@ 7762
lens 7762
14.@@ 7761
Lieutenant 7761
Messiah 7761
Jr 7759
cooperative 7759
dancing 7758
demonetisation 7757
Sun 7756
Bir@@ 7755
delegates 7755
law@@ 7755
Television 7754
I-@@ 7753
pilots 7753
02 7752
fri@@ 7751
jawan 7751
Heart 7749
enterprises 7748
Anti-@@ 7747
Hari 7747
Airways 7746
Madrid 7745
ached 7745
illustration 7744
Highlights 7742
PE@@ 7742
monitored 7742
Cant 7741
queries 7741
functional 7740
examining 7739
funded 7739
Manchester 7737
ashed 7737
eful 7737
eth@@ 7737
females 7737
Box 7736
Bus 7736
merciful 7736
Cut 7734
Sethupathi 7733
prevailing 7732
integration 7731
sat 7731
Polling 7730
play@@ 7728
contemporary 7725
Airlines 7722
Tab@@ 7722
inate 7721
refuse 7721
Met@@ 7720
Operation 7720
inclusion 7719
oming 7718
Account 7714
Bol@@ 7714
Heritage 7714
retain 7713
R.@@ 7712
salaries 7712
notable 7710
tall 7710
Library 7709
denies 7709
Tra@@ 7707
vacation 7707
Saf@@ 7706
versions 7705
thorough 7704
heart@@ 7702
Cam@@ 7699
Goods 7699
Sagar 7698
long-@@ 7697
liver 7696
Clearly 7694
Nay@@ 7694
confirm 7694
departed 7694
compliance 7693
batch 7692
Comm@@ 7690
Protest 7690
campaigning 7689
accomplish 7686
alerted 7686
ron 7686
discharge 7685
Mam@@ 7684
Bhansali 7680
S-@@ 7680
bitter 7680
Allu 7679
Panchayats 7679
meanwhile 7679
rain@@ 7678
siblings 7677
Vish@@ 7676
teaches 7676
hopeful 7674
praying 7672
104 7670
manufacturers 7670
pose 7670
trophy 7670
pitch 7668
Electricity 7667
narrow 7666
On@@ 7665
Sidharth 7665
legislature 7660
Districts 7654
girlfriend 7654
magazines 7654
economics 7652
jump 7650
credited 7649
dip 7649
person@@ 7649
Wh@@ 7648
obedient 7645
forgiving 7644
ven@@ 7644
Div@@ 7642
palace 7642
blo@@ 7641
unclear 7638
03 7636
AB 7636
Sm@@ 7636
differently 7634
disciple 7633
Harris 7632
abundance 7632
flo@@ 7632
Active 7631
assure 7631
Close 7630
Thane 7630
kmph 7630
Making 7629
dam@@ 7628
ly-@@ 7628
Nan@@ 7626
Bar 7623
mol@@ 7622
pillars 7622
Mel@@ 7621
allied 7621
stor@@ 7621
P-@@ 7620
heated 7620
magnitude 7619
sible 7619
reminded 7618
Part 7616
communications 7616
Tu@@ 7615
gam@@ 7614
Sik@@ 7612
illing 7612
punish 7612
op 7610
torture 7610
Province 7609
TO@@ 7609
ink 7608
Ravichandran 7606
Really 7606
scooter 7606
ranging 7604
rence 7604
Ur@@ 7602
Cop@@ 7600
meter 7599
rows 7597
failing 7596
Hem@@ 7593
Mayank 7590
dered 7590
Dem@@ 7587
interior 7587
Ever 7584
11th 7580
analy@@ 7580
shouted 7578
Hinduism 7577
Bajwa 7576
Max 7576
SU@@ 7575
Naresh 7574
custom 7573
foreigners 7573
sounds 7573
Messi 7571
expanding 7566
fer@@ 7564
Certificate 7562
Violence 7562
literally 7562
alike 7561
Vishal 7559
HS 7557
quake 7557
Garden 7555
mood 7555
Bush 7554
Lim@@ 7554
Sup@@ 7554
YSRCP 7554
Story 7549
year@@ 7546
And@@ 7544
consuming 7540
ental 7540
Repeat 7538
Remove 7537
Sath@@ 7536
OnePlus 7534
disposal 7534
Dutta 7533
first-@@ 7533
Charles 7532
resume 7531
signal 7530
DG@@ 7528
anagar 7528
asleep 7528
Doval 7527
KS 7527
fours 7524
riches 7522
featuring 7521
1914 7520
oot 7520
contempt 7516
productive 7516
knock 7515
liber@@ 7514
mates 7514
nurses 7514
likewise 7513
butter 7512
Days 7511
Dileep 7511
companions 7511
Method 7508
Gurdwara 7507
boats 7507
periods 7505
suspicious 7505
A-@@ 7502
Engineer 7502
entr@@ 7501
excess 7501
Egyptian 7500
sin@@ 7500
feat 7499
pack 7499
Ze@@ 7497
deleted 7495
hoping 7495
spl@@ 7495
affiliated 7494
Chakraborty 7493
receipt 7493
ides 7491
ny 7491
way@@ 7491
attacking 7490
Dur@@ 7488
assi@@ 7488
aded 7487
Territory 7485
technological 7484
NP@@ 7482
associations 7482
beach 7482
lauded 7481
Dil 7477
Red@@ 7477
oriented 7477
Shak@@ 7474
UT@@ 7474
deteriorated 7474
qualification 7474
10-@@ 7473
aggressive 7472
annum 7470
supervision 7469
settings 7467
Clinton 7463
wilderness 7463
inputs 7461
Sisodia 7458
Nis@@ 7456
rit@@ 7456
ep 7455
electro@@ 7452
requests 7452
subjected 7452
span 7450
Way 7449
statistics 7448
oda 7447
resist 7447
Christ@@ 7443
high-level 7442
apprised 7439
encing 7439
hot@@ 7439
cordoned 7437
bud@@ 7436
computers 7436
del 7436
14th 7435
offerings 7433
cyber 7432
Drinking 7430
thick 7428
Nic@@ 7426
Empowerment 7425
longest 7425
lov@@ 7424
ba@@ 7422
2-0 7421
All@@ 7421
Boo@@ 7418
Medium 7418
gang@@ 7418
registering 7417
Madan 7416
burst 7414
Biden 7412
short@@ 7410
HIV 7409
suspicion 7409
Gurpreet 7407
passion 7407
preferred 7407
Dravid 7406
Eden 7405
Vodafone 7405
orange 7403
Mani@@ 7400
Governing 7398
ders 7397
womans 7396
Wing 7395
mortuary 7395
awaiting 7393
evolution 7393
aug@@ 7392
Milk 7390
procession 7390
Vidya 7386
Scindia 7384
Nil@@ 7382
Vik@@ 7382
iti 7382
Okay 7381
license 7379
ever@@ 7377
bo 7376
fires 7374
richest 7373
existed 7372
rendering 7372
warrant 7372
olive 7371
broad@@ 7369
defamation 7369
sample 7368
completing 7366
Advisory 7365
Treatment 7364
Greece 7363
imported 7363
planted 7362
tion-@@ 7362
Abhiyan 7358
dubbed 7358
entities 7358
twelve 7357
Birth 7356
Minimum 7355
T. 7355
planes 7355
tation 7354
Dep@@ 7352
halted 7352
combine 7350
gle 7349
unbeaten 7349
past@@ 7348
DP@@ 7346
Cinema 7345
loud 7342
truths 7341
Always 7340
Ten 7338
Learn 7337
Lot 7337
electrical 7336
T20Is 7335
earmarked 7335
Sydney 7333
interfere 7332
Registration 7331
MSP 7330
Singhs 7329
audiences 7328
Ahead 7325
Bhagwat 7325
teeth 7325
armies 7324
counted 7324
uploaded 7324
IO@@ 7320
resurrected 7320
circulation 7319
le-@@ 7319
crazy 7317
string 7315
virtually 7315
Raman 7314
aut@@ 7314
distinguished 7314
Barack 7313
formula 7313
oli 7312
hole 7311
tra@@ 7311
13.@@ 7310
04 7309
Electric 7306
Sandhu 7305
Ric@@ 7304
Taiwan 7302
fifty 7301
Alam 7300
ocean 7300
aren 7297
ate@@ 7295
stern 7295
evacuated 7292
hectares 7292
paired 7292
priorities 7291
RC@@ 7290
ool 7290
Chit@@ 7289
Pul@@ 7289
Bil@@ 7288
Delhi-@@ 7288
naturally 7287
pull 7287
suggestion 7287
apprehended 7285
mad 7284
Chandrayaan-2 7283
ae 7283
cloud 7283
chiefs 7281
automatically 7280
yard 7280
Mir 7279
108 7277
Kargil 7277
Jet 7275
Kap@@ 7275
50-@@ 7274
gi 7274
Kumble 7273
Ho@@ 7270
Mid@@ 7269
walks 7269
Py@@ 7268
draws 7268
Jamia 7265
Prior 7264
trillion 7264
Sev@@ 7260
messenger 7260
proceed 7259
Khand@@ 7258
bad@@ 7257
Cooperative 7256
lamp 7256
Pran@@ 7254
port@@ 7254
Bipin 7253
Kapur 7251
aga 7251
Misra 7250
Jal 7248
SI 7248
ella 7246
Acharya 7245
Tagore 7245
lar@@ 7244
Sangh 7243
Din@@ 7240
Little 7238
dge 7238
sum@@ 7237
bestowed 7236
Cross 7233
-day 7231
Cook 7228
Forgiving 7228
alling 7228
Vicky 7227
Rev@@ 7225
ju 7223
de-@@ 7222
lawful 7222
relates 7221
Ah@@ 7220
wings 7218
AIDS 7215
Ass@@ 7213
abide 7213
broadcast 7212
undertaking 7212
iv@@ 7211
Especially 7206
kin@@ 7205
formally 7202
attracted 7200
consumed 7197
regulatory 7197
ankar 7195
12,@@ 7193
ano 7193
ambitious 7192
cow@@ 7192
egg 7192
roll@@ 7191
DG 7190
p-@@ 7190
defense 7189
liquid 7189
DK 7187
improves 7187
mand@@ 7186
Disha 7185
Kishan 7185
arose 7185
Farhan 7181
DC@@ 7180
Rule 7180
Surjewala 7179
intervene 7179
representation 7178
Corruption 7177
Vin@@ 7177
ASEAN 7173
collector 7173
magistrate 7171
fails 7170
break@@ 7169
Unable 7168
disappeared 7166
RTI 7165
ith@@ 7165
struggling 7165
amy 7163
outer 7163
manufacture 7162
spots 7162
Ground 7160
containment 7159
Los 7158
dist@@ 7158
Hun@@ 7156
mu@@ 7156
Nature 7154
Hotel 7153
disabled 7153
450 7149
Messengers 7147
Eid 7145
Portuguese 7145
specifications 7145
Dav@@ 7143
interact 7143
countrymen 7141
Ga@@ 7139
rac@@ 7139
burned 7138
voluntary 7138
autonomous 7137
fun@@ 7137
Irrfan 7136
flames 7136
reception 7136
Param@@ 7134
mortality 7134
pay@@ 7134
ecosystem 7133
log 7131
stroke 7131
fu@@ 7130
wr@@ 7127
Commercial 7125
Corridor 7124
48@@ 7123
ough 7123
140 7120
enormous 7120
Mysore 7119
ll@@ 7119
Arabian 7117
HE@@ 7116
flower 7116
readers 7116
robust 7116
sou@@ 7114
eta 7113
-India 7112
asset 7111
supremo 7111
three-day 7109
ce@@ 7105
Vivekananda 7104
enabling 7104
dominant 7101
long@@ 7101
restoration 7100
Scientists 7099
ris@@ 7099
rehabilitation 7098
SAW 7097
expressing 7097
Qualification 7094
Unity 7093
directorial 7091
para 7091
hav@@ 7090
consume 7088
gaining 7088
Saj@@ 7085
basically 7085
Republican 7084
presents 7083
Statistics 7082
fairly 7082
chillies 7081
Siddharth 7080
criticized 7079
commun@@ 7078
intellectual 7078
Bagh 7077
breach 7074
estimate 7074
thor@@ 7072
Ayushman 7071
goodness 7069
litres 7069
Sehwag 7067
Gilead 7066
mindset 7066
oon 7064
Toyota 7062
distinction 7062
impose 7062
Visakhapatnam 7060
Bluetooth 7057
Phase 7057
Self 7057
spectrum 7056
Presidential 7054
Records 7054
Vladimir 7053
AICC 7052
750 7050
utmost 7050
eman 7048
inspection 7048
milestone 7048
Vigilance 7046
extending 7046
circle 7045
bore 7044
Belgium 7043
exercises 7043
robbery 7043
Mulayam 7042
lin@@ 7042
clarity 7041
clouds 7040
Barcelona 7039
Yemen 7037
affecting 7033
AF@@ 7030
cent@@ 7030
levelled 7029
Kashyap 7028
tab 7025
Fortunately 7024
reflects 7022
Exc@@ 7018
commissioned 7016
masses 7014
cos@@ 7013
TE@@ 7012
Sak@@ 7011
Scripture 7011
gies 7011
pon@@ 7011
valued 7011
males 7009
VP 7007
salute 7007
unite 7007
uck 7006
ko 7002
chat 7001
engineers 6999
Rhea 6998
Projects 6995
anxious 6995
nervous 6995
plying 6991
16th 6990
peacefully 6990
Referring 6988
ech 6987
NGOs 6986
abe@@ 6985
advisory 6985
Until 6984
dra@@ 6984
safeguard 6983
6GB 6982
afterwards 6982
douse 6982
surge 6981
Communications 6980
SHO 6980
Tihar 6980
disturbed 6980
.The 6977
ad-@@ 6977
construct 6977
sorrow 6976
laughed 6973
legacy 6973
nuts 6973
smiled 6973
spared 6973
Suddenly 6972
appeals 6972
win@@ 6970
poll@@ 6969
resumed 6968
sole 6968
duration 6966
inations 6965
Nir@@ 6964
Scientific 6964
bone 6964
partition 6964
deposited 6963
chastisement 6959
directing 6959
weekend 6959
metre 6957
specially 6957
rend@@ 6956
Choudhary 6955
eaten 6954
earning 6953
Fear 6951
ader 6951
Bhupinder 6950
Living 6950
seminar 6950
citing 6949
reserve 6944
transform 6944
cyclone 6943
spare 6942
D-@@ 6940
coin 6940
waiver 6940
Coll@@ 6939
Universities 6939
ater 6938
India-Pakistan 6937
Bedi 6936
Jayant 6936
Baahubali 6935
Deep@@ 6935
cultivation 6935
Sin@@ 6934
Process 6933
deity 6933
speeches 6932
nights 6931
Kiara 6928
searched 6928
Kailash 6927
Physical 6927
tak@@ 6927
lock@@ 6926
wani 6926
whosoever 6925
pioneers 6924
Shimla 6922
ections 6922
IRCTC 6921
Syrian 6921
low-@@ 6919
differ 6915
propaganda 6915
shells 6915
POCSO 6914
caring 6913
ection 6913
premier 6913
G. 6912
hitting 6911
ound@@ 6909
Subramanian 6905
motor@@ 6905
-17 6904
Nehwal 6904
ows 6904
Richard 6903
ounded 6902
ner@@ 6901
pledge 6900
Knowledge 6898
posting 6898
32GB 6897
Mom@@ 6897
Gra@@ 6896
Um@@ 6896
second-@@ 6896
tioning 6896
Palace 6894
Talk 6894
pink 6894
entrusted 6893
Grover 6892
Dor@@ 6891
ME 6889
drowned 6889
15.@@ 6888
capture 6887
dly 6887
pers 6886
Jos 6883
ography 6882
21-@@ 6879
substance 6878
eable 6877
may@@ 6877
tri 6877
consensus 6876
heights 6873
segments 6873
assailants 6870
cough 6869
invested 6869
Chan@@ 6868
and-@@ 6868
ural 6868
Infosys 6867
Ly@@ 6867
buyers 6867
RCB 6866
Gayle 6865
seasons 6865
acre 6864
wills 6864
Alex 6863
dozen 6863
helicopter 6863
Assistance 6862
itting 6862
angles 6860
ray 6860
robbers 6860
dian 6859
deadline 6857
fierce 6857
menu 6857
HO@@ 6856
ope 6856
Navdeep 6855
min 6855
compulsory 6854
heroine 6853
march 6852
arising 6851
hiding 6851
decrease 6850
dol@@ 6850
Ghaziabad 6849
Nik@@ 6849
Amar 6846
posters 6846
Economics 6845
fined 6842
hood 6841
ear 6840
Pujara 6839
ca@@ 6837
ker@@ 6837
Nor 6836
io 6836
labor 6836
acute 6835
awa 6835
ologists 6834
technique 6834
designs 6831
undergo 6829
colourful 6827
ja@@ 6827
decreased 6825
Mughal 6824
churches 6824
wheel 6822
Graduate 6821
Legislature 6821
surfaced 6821
Rup@@ 6818
championship 6818
Capitals 6817
Kher 6817
shaped 6817
Sawant 6816
Anderson 6814
Wil@@ 6814
Consul@@ 6813
intelligent 6813
tractor 6807
Interest 6806
spir@@ 6806
spr@@ 6806
entity 6805
grandfather 6805
varieties 6805
Van@@ 6804
pling 6804
shine 6803
Bs 6802
Directors 6801
topics 6801
Jahan 6799
Moh@@ 6799
astr@@ 6799
criteria 6799
BJP-led 6798
wheels 6796
widow 6795
steady 6794
tower 6794
Actually 6793
half-@@ 6793
cheaper 6792
care@@ 6791
Rajkot 6788
Medal 6784
dep@@ 6784
treasure 6784
favourable 6783
convert 6781
neighbor 6781
gunfight 6780
rig@@ 6777
Ish@@ 6776
mystery 6776
bans 6775
bears 6775
tech 6775
iya 6774
Productions 6771
excellence 6771
2014-15 6770
cloth 6768
Umar 6767
IANS 6766
treating 6766
Using 6763
airlines 6763
intent 6763
kilometers 6763
Pow@@ 6762
stunning 6761
wk 6761
Ger@@ 6760
sup@@ 6759
pled 6758
municipality 6756
Siv@@ 6755
lips 6755
texts 6755
Bahujan 6754
D.@@ 6753
Birthday 6751
ea 6750
emo@@ 6749
M.@@ 6747
sign@@ 6747
Micro 6744
Musharraf 6743
loses 6742
temporarily 6739
cop 6737
it-@@ 6737
sion@@ 6736
MP@@ 6733
stance 6731
backing 6729
gener@@ 6728
yer 6728
laughing 6727
Hill 6726
Kum@@ 6725
App@@ 6724
1972 6723
Finch 6722
Visit 6722
Leone 6719
Portugal 6719
owed 6719
reserves 6718
exc@@ 6717
mut@@ 6717
parameters 6716
cups 6715
Dist@@ 6713
holder 6713
cares 6712
cows 6712
BBC 6711
13th 6710
Bobde 6709
Hab@@ 6709
Baj@@ 6708
Night 6708
To@@ 6707
parallel 6707
throat 6707
copper 6705
Terrorism 6704
lists 6700
Gandhiji 6699
stabbed 6699
fications 6698
eps 6697
1950 6696
Dutch 6696
End 6696
missionaries 6696
fulfilling 6694
regulation 6693
composer 6692
traits 6692
trucks 6692
eager 6688
Classes 6687
legislator 6682
Testing 6681
sq 6680
aching 6679
Kenya 6678
lighting 6678
Shiromani 6676
laboratory 6676
err@@ 6673
experiment 6673
fatalities 6673
Almost 6672
Oman 6672
rightly 6672
paragraph 6671
rub@@ 6670
tail 6669
Marshal 6668
sing@@ 6667
ov 6665
uru 6665
exposure 6663
guru 6662
Om@@ 6661
pot 6661
INX 6659
Williams 6659
ined 6659
abs 6657
concentration 6657
preached 6657
Implementation 6656
attain 6656
stic 6656
Star@@ 6655
upheld 6654
lia 6653
focusing 6651
Telecom 6648
Ms. 6647
Delhis 6646
overseer 6646
adjourned 6645
Jaya 6644
1956 6643
loading 6643
extends 6642
sustain 6641
1988 6640
Excise 6640
urges 6640
endurance 6639
revoked 6639
ured 6639
formerly 6638
Anti@@ 6636
C.@@ 6636
overwhelming 6635
somewhat 6635
bold 6634
withdrew 6634
potato 6632
meaningful 6631
CSK 6630
og 6629
Coun@@ 6627
stuff 6626
Systems 6625
hin@@ 6625
ock 6625
Complex 6623
petitioner 6623
chil@@ 6621
lab 6621
Crown 6620
Drug 6619
preserved 6619
targeting 6619
Taylor 6617
etc. 6617
Trains 6614
provisional 6614
Chandrasekhar 6613
Eventually 6613
Excellency 6612
bikes 6612
civic 6611
validity 6611
prefer 6609
Tej@@ 6608
Phone 6606
exclusively 6606
unexpected 6606
par 6604
Cy@@ 6603
tone 6603
aves 6602
rid@@ 6602
ade@@ 6601
ells 6601
sometime 6601
communicate 6600
hostel 6599
mon 6599
Pari@@ 6598
uniform 6597
parable 6596
actresses 6595
bel 6595
cooked 6592
ul-@@ 6590
boo@@ 6588
St 6586
prospect 6586
stored 6586
keeper 6583
restaurant 6583
neg@@ 6582
spite 6580
sy 6580
xed 6580
inform@@ 6579
wore 6579
contributing 6578
filling 6578
ova 6577
scriptures 6577
tomatoes 6577
Going 6576
cov@@ 6575
Husband 6574
Off@@ 6572
approaching 6570
MB 6569
Hum@@ 6568
onal 6567
rebellion 6567
third-@@ 6567
Fisheries 6564
potatoes 6564
Kharge 6563
dre@@ 6563
regards 6563
merged 6559
swe@@ 6559
Nigeria 6558
thriller 6556
vic@@ 6556
abundant 6555
searches 6555
commandments 6553
Andrew 6549
Angeles 6548
Surinder 6548
wan@@ 6548
power@@ 6547
contingent 6546
show@@ 6546
Mark@@ 6545
MR@@ 6544
18th 6543
Bro@@ 6543
abrogation 6542
Denmark 6541
garbage 6539
Banking 6538
sand@@ 6538
disclose 6537
Representatives 6536
misleading 6536
procured 6536
Ravinder 6535
haran 6535
Aw@@ 6533
mega 6532
quota 6532
rup@@ 6532
insight 6530
ania 6529
solidarity 6528
Ayurveda 6527
eling 6526
bereaved 6524
uded 6524
sch@@ 6523
Cauvery 6520
guns 6520
operators 6519
Pon@@ 6517
upright 6515
Cummins 6514
Rud@@ 6514
cat 6514
coriander 6513
diverted 6513
prevailed 6513
tru@@ 6513
counter@@ 6512
grows 6512
SCO 6511
Advocate 6510
influential 6510
ave 6509
circular 6509
knife 6509
drunk 6506
Malappuram 6504
limitations 6502
Oxford 6500
Sanju 6499
distant 6499
Narasimha 6497
Nayanthara 6496
5000 6495
elec@@ 6495
hunt 6495
guides 6493
Kedarnath 6492
iah 6492
kot 6492
Ek@@ 6491
one@@ 6491
ord@@ 6490
selfish 6490
ua 6490
characteristics 6489
secretaries 6489
gearing 6487
150th 6484
Kalam 6484
Vehicle 6483
Bhu@@ 6482
Getting 6482
Population 6482
vice-@@ 6481
mustard 6480
truthful 6480
IB@@ 6479
voices 6478
Nicobar 6477
thir@@ 6477
Almighty 6476
mul@@ 6476
posing 6476
40,000 6475
Over@@ 6475
aches 6475
MoS 6474
inspiring 6473
path@@ 6473
raj@@ 6473
aud@@ 6472
desert 6471
cousin 6470
rian 6470
ML 6469
conflicts 6466
justified 6466
athy 6465
infant 6465
Lady 6464
ored 6464
Gavaskar 6463
writings 6463
3.5 6462
Nad@@ 6461
Krishn@@ 6459
resh@@ 6459
vessel 6459
semi-final 6455
Maria 6454
fi 6454
intr@@ 6454
teenth 6453
Cong 6451
utes 6450
Kollam 6449
Regarding 6449
ousness 6449
NH@@ 6448
exchanges 6446
tops 6446
discovery 6445
predic@@ 6445
strategies 6445
bh@@ 6444
cam@@ 6443
Different 6442
Virender 6442
booking 6442
Dalits 6441
Chicago 6438
clay 6437
nic@@ 6437
arises 6436
Birla 6435
companion 6435
funny 6435
sporting 6435
Darshan 6433
NASA 6433
horses 6432
structural 6432
Governors 6430
relate 6430
Raipur 6429
Colombo 6428
Hardeep 6428
Sibal 6428
Hindutva 6425
Minority 6425
flu 6425
Dad 6424
apparent 6424
coins 6424
inspire 6423
school@@ 6420
Flood 6418
ome@@ 6416
Ukraine 6413
1986 6412
accusing 6412
MG 6411
booth 6411
shepherd 6408
competent 6407
enables 6407
adv@@ 6406
brotherhood 6406
sid@@ 6405
materi@@ 6403
Dam 6402
kits 6402
Quality 6400
gen 6400
Mom 6399
comeback 6398
Bod@@ 6397
shameful 6397
destinations 6394
troubled 6393
CL@@ 6392
Bra@@ 6390
phenomenon 6390
KK 6387
presenting 6387
typical 6384
Someone 6383
Es@@ 6382
Congress-@@ 6381
Stat@@ 6380
assassination 6380
tains 6379
Tor@@ 6378
Sarah 6377
17th 6375
paintings 6375
ulate 6375
Ray 6374
amenities 6373
Id 6372
factories 6372
lending 6372
Sou@@ 6371
instant 6371
PG 6369
Tro@@ 6368
ony 6368
vacancies 6367
asha 6366
obviously 6366
Shekhar 6364
PPP 6363
arriving 6362
15-@@ 6361
Keeping 6361
Dra@@ 6360
irs 6360
swearing-in 6359
Stephen 6358
ety 6358
ar-@@ 6357
compound 6356
physics 6356
ultimate 6355
privileges 6353
Democracy 6352
Week 6352
titude 6352
Don@@ 6350
roc@@ 6350
Winter 6349
dict@@ 6348
fro@@ 6347
ashi@@ 6346
Kand@@ 6343
logical 6343
pressing 6343
superintendent 6343
Gurugram 6341
bon@@ 6341
SDM 6339
similarly 6339
speakers 6339
hails 6338
Garg 6337
restaurants 6337
21@@ 6336
conventional 6336
16.@@ 6335
eye@@ 6334
Type 6333
consciousness 6333
alise 6332
IM 6331
Yatra 6331
swear 6330
column 6329
dynasty 6329
ential 6327
mathematics 6326
ION 6325
worshippers 6325
Sessions 6324
Priya 6323
harsh 6323
parks 6322
poem 6321
Oberoi 6320
enacted 6320
lik@@ 6320
Benjamin 6319
Jackson 6319
1980 6318
stays 6317
Sales 6315
Bahrain 6313
fantastic 6313
rinse 6313
campaigns 6312
Features 6311
gam 6311
itor 6311
spirituality 6311
removing 6310
encies 6309
Metropolitan 6308
assume 6308
survival 6306
dengue 6305
Shall 6304
ASI 6303
bribe 6303
swimming 6302
INS 6299
e- 6297
Gal@@ 6296
theyre 6295
Text 6293
affidavit 6293
traced 6292
Goel 6289
Hand@@ 6289
clearance 6288
Kumar@@ 6287
Sarkar 6287
sinful 6287
lig@@ 6285
Ashish 6284
Swar@@ 6284
Unto 6284
Cas@@ 6282
Rah@@ 6282
Notice 6281
Yash 6281
Pat 6280
Thrissur 6280
database 6279
Honey 6278
heroes 6278
nowhere 6278
jar@@ 6277
forum 6274
Prem@@ 6273
neighbors 6273
Pen@@ 6272
imm@@ 6270
craft 6269
disasters 6269
immigrants 6269
prosperous 6269
lining 6268
Lee 6267
Amrita 6266
ame@@ 6265
Poland 6264
anyway 6264
Den@@ 6263
IV 6263
somebody 6261
conversion 6260
du 6260
inary 6259
unnecessary 6259
deprived 6257
Naqvi 6256
calamity 6256
expertise 6256
Afridi 6254
Vijayawada 6254
Hospitals 6253
vegetable 6251
India-China 6249
jam 6247
ima 6246
Plant 6245
trap 6245
-19 6244
Liberation 6244
adoption 6244
belt 6244
Trumps 6241
1,9@@ 6239
8GB 6239
hospitality 6239
wicketkeeper 6239
graduated 6237
maj@@ 6235
embassy 6234
hil 6233
Admiral 6232
Sid@@ 6231
petroleum 6229
Sit@@ 6227
well-being 6227
ninth 6226
contacts 6225
damages 6225
twin 6225
charity 6224
draw@@ 6224
PF 6221
Russell 6221
hus@@ 6221
Akash 6220
duc@@ 6220
killings 6220
ares 6219
pursued 6219
offensive 6218
satellites 6217
Nawab 6216
Mic@@ 6215
linking 6214
legally 6213
protocol 6213
wildlife 6213
ren 6212
menace 6211
Export 6210
Looking 6209
kidney 6209
regul@@ 6209
Sudhir 6207
comprised 6207
18.@@ 6206
Bring 6206
Kodiyeri 6206
Morgan 6206
19.@@ 6205
Lam@@ 6205
delivering 6205
rolling 6205
Hom@@ 6204
debit 6204
ayan 6203
119 6202
approaches 6202
aving 6201
bombs 6201
lat@@ 6201
lim@@ 6201
styles 6201
unlikely 6201
500@@ 6199
Elijah 6199
De 6198
SD 6197
complainant 6197
merger 6197
ford 6195
Hafiz 6194
lasted 6194
decent 6193
poured 6193
proven 6193
Vivo 6192
essing 6192
operates 6192
Beh@@ 6190
L. 6189
Message 6188
fting 6187
saddened 6185
Khan@@ 6182
Nanda 6182
mus@@ 6182
Chapter 6181
Address 6179
Mittal 6179
Revolution 6178
repentance 6177
Ray@@ 6176
mounted 6175
eas@@ 6173
grap@@ 6172
outs 6171
thine 6171
uding 6171
uous 6171
ras@@ 6170
refuses 6169
cream 6168
alled 6167
chlor@@ 6167
ich 6167
progressing 6166
Supply 6165
deeper 6165
Pink 6164
cheap 6163
need@@ 6163
Ward 6161
developmental 6161
marriages 6161
consequence 6160
Regulation 6159
ben@@ 6158
Manju 6157
Manpreet 6157
Mari@@ 6156
bodys 6156
cel@@ 6156
aman 6155
ownership 6155
classified 6151
gal 6151
resorted 6150
Kann@@ 6148
Electronic 6146
companys 6146
vaccines 6146
expressions 6144
wor@@ 6144
honours 6143
Patt@@ 6142
Anyone 6139
outlook 6138
convict 6136
odi@@ 6135
Antony 6134
Fran@@ 6134
Create 6133
Gad@@ 6133
kms 6133
Operations 6132
bbl 6132
Shilpa 6131
Wat@@ 6130
briefed 6129
six-@@ 6129
BO@@ 6127
Pompeo 6126
fs 6126
1,4@@ 6121
touching 6121
Jav@@ 6120
incurred 6120
landmark 6120
Mol@@ 6119
steadily 6118
disposed 6117
onda 6117
pel 6117
Unlike 6115
exemption 6115
excessive 6114
199@@ 6113
ried 6113
Ayushmann 6112
ed-@@ 6112
ib 6112
Berlin 6110
tidings 6110
Rajapaksa 6109
Bec@@ 6108
Anupam 6107
commands 6107
cast@@ 6106
shadow 6106
chemistry 6105
rituals 6105
Lar@@ 6104
thin 6104
oom 6102
Said 6101
Boy 6098
DO@@ 6098
Boney 6097
screened 6096
--@@ 6095
ATM 6094
Shakib 6092
ABVP 6091
profound 6091
Kus@@ 6090
economically 6090
Kish@@ 6088
Pot@@ 6088
Tk 6088
respiratory 6086
tia 6084
Ind@@ 6082
obligation 6082
Manu 6081
sacrificed 6081
Cent@@ 6080
reminder 6078
BY 6077
confined 6076
monetary 6076
Certainly 6075
Nawazuddin 6075
artificial 6075
Dab@@ 6074
washing 6074
lin 6073
pilgrimage 6073
Strategic 6072
migration 6072
curfew 6069
Adv@@ 6068
palm 6068
s' 6068
Inter-@@ 6067
Madh@@ 6066
assess 6066
Hos@@ 6065
Kid@@ 6065
ministries 6065
ote 6065
varied 6065
Uni@@ 6064
ult 6064
1987 6063
descendants 6062
Medi@@ 6061
elevated 6061
lit 6061
tolerate 6061
SSC 6060
desirable 6059
30th 6056
Root 6056
retaliated 6055
garnered 6054
rated 6053
Corps 6052
forcing 6052
Krishan 6051
Net@@ 6047
exceptional 6047
corporations 6046
decides 6046
Pollution 6043
Prithviraj 6042
Pramod 6041
recommend 6041
necessarily 6040
Salt 6039
tomato 6039
CO 6035
fier 6035
uprooted 6035
eva 6032
let@@ 6032
Liber@@ 6031
victorious 6031
Commissioners 6030
Kajal 6030
Persons 6028
framed 6027
Jai@@ 6025
Pokhriyal 6025
Wales 6025
cadre 6025
urg@@ 6024
CJI 6023
hard@@ 6023
breakfast 6022
curse 6022
ept 6022
streams 6021
Surya 6020
Philippians 6019
doers 6019
indefinite 6019
historian 6018
intensity 6017
high@@ 6016
portfolio 6016
attraction 6015
Rab@@ 6014
elite 6014
publishing 6014
grey 6013
Learning 6012
donation 6012
BMW 6011
Buttler 6011
pipeline 6011
showers 6011
OD@@ 6010
ub 6008
Acting 6007
trav@@ 6007
Processing 6006
IST 6005
entary 6005
hygiene 6005
insult 6003
inhabited 6002
lu 6002
renamed 6001
replacement 6001
Gil@@ 5999
nationalism 5999
attributed 5998
akk@@ 5997
incredible 5997
Pas@@ 5996
naval 5995
feedback 5994
shoes 5993
100@@ 5991
Wheres 5991
believer 5991
cut@@ 5991
tis@@ 5990
extensively 5989
progressive 5989
Future 5987
preparedness 5987
collections 5986
Babri 5985
Co 5985
Program 5985
hes@@ 5985
lunar 5985
sanction 5985
Tom@@ 5984
Sidd@@ 5983
iconic 5983
oor 5982
Unnao 5981
Boys 5980
Except 5979
hs 5979
pac@@ 5979
bother 5978
controversies 5978
transformed 5978
extr@@ 5977
roughly 5977
empire 5976
insti@@ 5975
southwest 5975
25-@@ 5974
April-@@ 5974
Command@@ 5974
Mall@@ 5972
controlling 5971
Dharam@@ 5969
Superstar 5969
residing 5969
Institutes 5967
empower 5967
acknowledge 5966
l-@@ 5966
scattered 5966
murders 5965
opponents 5965
beneath 5964
Guest 5962
miracle 5962
considerably 5961
lifting 5961
carrier 5960
Already 5959
Chemicals 5958
Fr@@ 5958
Kad@@ 5958
dynamic 5958
Exp@@ 5956
Hearing 5955
Mahal 5955
Venkat@@ 5955
inundated 5955
1983 5954
bottles 5954
apati 5953
1985 5952
Colin 5950
argue 5950
preventive 5950
Yog@@ 5949
gur@@ 5948
Divisional 5947
engaging 5946
fic@@ 5946
initiate 5946
Goswami 5945
ians 5945
neighbourhood 5945
Important 5943
house@@ 5943
mac@@ 5943
defeating 5942
tiny 5942
30-@@ 5941
Dehradun 5941
IB 5941
fire@@ 5940
dig 5938
projected 5938
Vadodara 5937
Water@@ 5937
hang@@ 5937
unemployed 5937
Millions 5936
17.@@ 5934
indi@@ 5934
Ministerial 5933
tab@@ 5933
Shoaib 5932
Whom 5932
Sub 5930
insisted 5930
pes 5930
strain 5930
Degree 5928
slowdown 5928
stal@@ 5928
ero 5927
ester 5927
Immediately 5926
showcase 5926
8MP 5925
Northeast 5925
assisted 5924
experiencing 5923
livestock 5923
ods 5923
warnings 5923
Singh@@ 5922
Emirates 5921
Rai@@ 5921
sharply 5920
Aligarh 5919
Imagine 5919
Sk@@ 5919
luxury 5919
Head@@ 5918
sinners 5917
popul@@ 5915
surrender 5915
earnings 5914
virtue 5912
Vilas 5910
dro@@ 5910
inity 5910
Sustainable 5909
diagnosed 5909
stopping 5908
ump@@ 5908
OK 5906
fur@@ 5906
IA 5905
NPR 5905
rarely 5904
ait 5903
dealings 5903
Tribes 5902
havoc 5902
interpretation 5902
EE@@ 5901
Md 5901
Bhup@@ 5900
beg@@ 5900
convenient 5900
1975 5899
pit 5899
Minor 5898
mainstream 5897
generating 5893
incorporated 5893
Jack 5892
ze@@ 5892
empowered 5891
parti@@ 5891
bothered 5890
BE 5889
zer 5887
Growth 5886
Sitaram 5885
declaring 5885
Sah@@ 5884
Nana 5883
packed 5883
USB 5882
pel@@ 5882
Ambala 5881
deaf 5881
direc@@ 5881
meditation 5881
ration@@ 5881
sis 5881
bhai 5880
Sugar 5877
lovely 5876
eded 5875
switch 5875
verification 5875
Dixit 5874
Senate 5874
en-@@ 5874
Failed 5873
iling 5873
Books 5872
Sach@@ 5872
decisive 5872
dual-@@ 5872
viol@@ 5872
discreet 5870
Ashwini 5868
cri@@ 5868
Bot@@ 5867
noble 5867
looted 5866
Kabul 5865
tonight 5865
expectation 5864
generous 5863
mourning 5863
trends 5861
hire 5860
visions 5859
marine 5858
enmity 5857
nan 5857
Gh@@ 5856
chased 5855
ied 5855
childrens 5854
crown 5853
Anniversary 5852
Sir@@ 5852
authorized 5852
garments 5851
Grievances 5850
sedition 5850
Fo@@ 5847
grandson 5847
Amid 5846
Scotland 5846
Amir 5845
departure 5845
hoo@@ 5845
panchayats 5844
reck@@ 5844
ounce 5842
Gate 5840
Inv@@ 5839
arity 5839
1962 5838
helper 5838
cluster 5837
dness 5837
dues 5837
Palestinian 5836
ired 5836
partially 5836
sanc@@ 5836
conductor 5835
osing 5835
Property 5834
Travel 5834
Wuhan 5834
rog@@ 5834
V.@@ 5833
guess 5832
Song 5830
aci@@ 5830
Bap@@ 5828
Nine 5828
emi@@ 5828
resses 5828
bacteria 5827
perception 5825
well-known 5824
Adviser 5823
Photos 5823
doub@@ 5823
mines 5823
vinder 5823
Gor@@ 5820
mill 5820
Experts 5819
accommodation 5819
endeavour 5819
Det@@ 5817
veer 5817
NSE 5816
Pathankot 5816
nom@@ 5816
Embassy 5815
MG@@ 5815
san 5815
finest 5814
Shardul 5812
TP 5812
drops 5812
eer 5812
ect@@ 5810
revelation 5810
meantime 5809
hana 5807
short-@@ 5807
wouldn 5807
Strong 5806
alistic 5806
whis@@ 5805
losers 5804
38@@ 5803
kno@@ 5803
proceeding 5803
Years 5802
Edition 5800
Aar@@ 5798
Governance 5797
E. 5796
considers 5796
smuggling 5796
1,500 5795
stra@@ 5794
Texas 5791
shr@@ 5791
Acc@@ 5784
ples 5784
Jackie 5783
Religious 5783
deployment 5783
expresses 5782
merit 5782
pli@@ 5782
Rajkummar 5781
Current 5780
sex@@ 5780
vac@@ 5780
Srikanth 5779
Cash 5778
sorts 5778
assembled 5777
Sony 5775
Taluk 5775
Chowk 5773
founding 5773
pot@@ 5773
treaty 5773
TH 5772
Madhuri 5769
jailed 5768
Schemes 5766
ca 5766
errors 5766
Balakrishnan 5765
array 5765
Laxman 5764
intensive 5764
subscribers 5764
1,5@@ 5763
Gospel 5763
northwest 5761
Range 5758
jinder 5758
Lakhs 5757
eous 5756
ome 5755
Victoria 5754
width 5754
tabled 5753
bath 5752
wicket-keeper 5751
illegally 5750
Madhav 5749
prot@@ 5749
oper@@ 5748
graduation 5747
hosting 5746
inst@@ 5746
Consu@@ 5745
audit 5745
Rathore 5743
accord 5743
sey 5743
striking 5743
Backward 5742
Religion 5742
Summer 5742
define 5741
Signs 5740
1,7@@ 5737
ancing 5737
ruin 5737
briefing 5736
leaked 5736
thirty 5736
preventing 5733
Bansal 5732
Rice 5732
revenues 5732
Fertilizers 5731
nas@@ 5731
sanctuary 5730
of-@@ 5729
provinces 5729
Nay 5728
sickness 5728
incumbent 5727
pat 5727
Awareness 5726
conversations 5726
dressed 5726
gy 5726
mat 5726
viz 5726
sub 5725
Between 5724
comprise 5724
bleeding 5723
disorder 5723
fog 5723
tran@@ 5723
amped 5722
Bodies 5721
pics 5720
Badminton 5719
CID 5719
JEE 5719
cave 5719
realistic 5718
Neeraj 5717
ck@@ 5716
installation 5716
parade 5714
ician 5713
organising 5713
sequence 5712
uli 5712
rin@@ 5711
seal 5711
Sanitation 5710
Short 5710
Shops 5709
fts 5709
Baroda 5708
showcased 5708
investing 5707
shan 5706
Chiranjeevi 5705
Standing 5705
agg@@ 5704
CMs 5703
Passengers 5703
rao 5703
but@@ 5702
nat@@ 5702
revol@@ 5702
dried 5701
sac@@ 5701
Himalayan 5700
aqu@@ 5700
araj 5699
haul 5699
centr@@ 5698
density 5697
repent 5697
yo@@ 5695
13,@@ 5693
Starc 5692
Dhabi 5691
vid@@ 5691
viewers 5691
Prot@@ 5690
gutted 5690
Asaduddin 5689
Girish 5689
techn@@ 5689
3GB 5688
Ci@@ 5688
nan@@ 5688
twe@@ 5688
decree 5684
inclined 5684
Abe 5682
Conc@@ 5682
ordinance 5681
queen 5680
Poly@@ 5678
prec@@ 5678
refuted 5678
eliminated 5677
tropical 5677
medallist 5676
Sush@@ 5675
DY 5674
Gon@@ 5674
landslide 5674
7,000 5673
Guntur 5673
prevail 5673
tiv@@ 5673
Day@@ 5672
Vice-President 5672
adia 5672
issuing 5672
traveled 5671
bit@@ 5670
Das@@ 5668
lif@@ 5667
Mans@@ 5665
contracts 5665
ck 5664
Whose 5663
Wait 5662
athan 5662
immoral 5662
tunnel 5662
disappointment 5661
ex 5661
befitting 5660
hang 5657
Move 5655
worsened 5655
ISI 5654
circles 5654
Sengar 5652
narrated 5652
nish 5651
sentiment 5651
unanimously 5651
IMF 5649
Sexual 5649
fluid 5649
screens 5649
wooden 5649
CP 5648
Hour 5648
Result 5646
Radhika 5645
complain 5644
oun@@ 5644
pap@@ 5644
-15 5643
Advanced 5643
Gopal@@ 5642
Reforms 5642
proc@@ 5642
topped 5642
2030 5641
Lalit 5641
osis 5641
ton@@ 5639
Vo@@ 5638
demons 5638
EVMs 5637
PF@@ 5637
Thi@@ 5637
maturity 5637
zy 5637
transition 5636
Kuwait 5634
indication 5634
magnetic 5634
asc@@ 5632
soap 5632
commencement 5631
quantum 5631
Bon@@ 5630
Lokesh 5626
rewarded 5626
ury 5626
Whenever 5625
bun@@ 5625
finely 5625
loose 5624
Amar@@ 5623
Roo@@ 5623
akes 5623
Wi-Fi 5622
kan@@ 5621
neighbour 5621
shell 5620
uma 5620
Morcha 5618
Radhakrishnan 5618
Colleges 5615
Maxwell 5615
s- 5615
Hanuman 5614
essentially 5612
Atomic 5609
Gand@@ 5609
Maharaja 5609
eclipse 5608
ogy 5608
kal 5607
Glenn 5605
lover 5605
Colossians 5604
Launched 5604
acceptance 5604
1970 5603
configuration 5603
kindly 5603
successive 5603
worldly 5603
UNESCO 5602
itu@@ 5602
chapters 5601
destroying 5600
Exercise 5599
Seva 5599
divorced 5598
statutory 5598
incl@@ 5597
sim@@ 5596
Yusuf 5595
Zimbabwe 5594
dition 5594
asser@@ 5592
Deuteronomy 5591
RC 5589
ac 5589
Jar@@ 5588
dings 5588
ght-@@ 5588
EPFO 5586
bles 5586
ort 5586
ply 5586
Bid@@ 5585
Reg@@ 5585
dal 5585
weaker 5585
GPS 5584
Mahmood 5584
missiles 5584
1982 5582
sugarcane 5582
Deb@@ 5581
Poonam 5576
eled 5576
wounds 5576
prone 5575
semi-finals 5575
ble@@ 5574
road@@ 5574
selfies 5573
Supporting 5572
tolerance 5572
KKR 5571
benefitted 5571
cin@@ 5571
interface 5571
miscreants 5571
ru 5571
But@@ 5570
Entry 5569
Melbourne 5569
NF@@ 5569
oh 5569
shire 5568
Maha 5567
grievances 5567
visual 5567
flooding 5565
idol 5564
smell 5563
Masters 5562
micro 5562
Jonathan 5559
Popular 5559
wary 5559
hail 5558
originated 5557
civil@@ 5556
contents 5556
lecture 5556
Alo 5555
kidnapping 5555
Chandrachud 5553
ions 5553
Co-@@ 5552
Orissa 5552
esti@@ 5552
prospects 5552
650 5551
Mauritius 5551
KPCC 5548
stu@@ 5548
Cost 5546
Seeing 5544
Economy 5543
Hus@@ 5543
defending 5543
mess 5543
Run 5541
emphasised 5541
exercising 5541
ria 5541
Rijiju 5538
tag 5538
nutrients 5537
acqu@@ 5535
agu@@ 5535
appointments 5535
1961 5534
Crores 5534
satisfying 5534
bullets 5532
1,8@@ 5531
LoC 5531
illicit 5531
Puja 5528
riya 5528
ruined 5528
stops 5528
vaccination 5526
consul@@ 5525
OBC 5523
Protesters 5522
mosques 5522
unt 5522
controls 5520
Point 5518
Deli@@ 5517
Turmeric 5516
fal@@ 5516
sal 5516
AK@@ 5515
orbit 5515
Nov 5513
Sonu 5513
cardiac 5513
decorated 5513
humanitarian 5512
consistently 5511
immensely 5511
Maz@@ 5510
Gurmeet 5509
Renewable 5509
turmoil 5509
goddess 5508
muscles 5508
wrapped 5508
2011-12 5507
tract 5507
Saint 5506
healing 5506
BJP-@@ 5505
enrolled 5505
Alexander 5504
tariff 5503
IG 5502
graced 5500
captains 5499
Basic 5498
lessly 5498
Vid@@ 5497
payable 5497
symbol@@ 5497
depressed 5496
Battle 5495
Lords 5494
1.0@@ 5493
Qur 5493
modest 5492
aths 5490
Fer@@ 5489
pixels 5489
unclean 5489
Better 5487
Kajol 5486
Taran 5486
nut 5486
Domestic 5485
Jaish-e-Mohammed 5485
attempting 5485
boyfriend 5485
Mallikarjun 5484
devastated 5484
lag@@ 5484
advisor 5483
tom 5483
transmitted 5483
C-@@ 5482
Yechury 5480
coun@@ 5480
safer 5480
itan 5479
submerged 5479
Groups 5475
Karti 5475
unhappy 5474
am-@@ 5473
mond 5473
ots 5473
JDS 5472
Self-@@ 5472
observing 5472
itch@@ 5471
prince 5471
recompense 5471
wondered 5470
GO@@ 5469
Late 5469
Jun@@ 5468
Prof. 5468
ral 5468
Drugs 5467
Ecclesiastes 5467
Path@@ 5467
Prothom 5467
chand 5467
chaos 5467
Mr.@@ 5466
cancellation 5466
grievous 5466
ailed 5465
expects 5465
Download 5464
awar@@ 5464
lodge 5464
nia 5464
Accounts 5462
essence 5462
mani 5462
Direc@@ 5461
corn 5459
holidays 5458
taluk 5458
genetic 5457
Dipak 5456
castes 5455
psych@@ 5455
resid@@ 5455
tanks 5454
unconstitutional 5454
Onion 5453
Player 5453
locate 5453
Cities 5450
Preet 5450
hop@@ 5450
lightning 5450
rela@@ 5450
spe@@ 5450
lesser 5449
Swiss 5448
proteins 5448
sponsored 5448
tain@@ 5448
Arms 5447
Committees 5447
SGPC 5447
outcomes 5447
ta-@@ 5447
Jha 5446
paths 5446
worshipers 5446
eni 5445
Bhat@@ 5444
,7@@ 5443
collecting 5443
clubs 5442
saffron 5442
ulated 5442
Chawla 5441
Laughter 5440
Mangalore 5440
Sh 5439
Upazila 5439
ashi 5436
overseers 5436
pillar 5436
was@@ 5436
spin 5435
1948 5434
Zafar 5434
anas 5434
radiation 5433
accountable 5432
doubled 5432
sty@@ 5432
N.@@ 5431
designer 5431
lic 5430
responses 5430
udes 5430
Murali 5428
enses 5428
Together 5427
olog@@ 5427
Haque 5426
werent 5426
UGC 5425
Dance 5424
dramatic 5424
odd 5424
speeding 5424
Bazar 5423
iny 5423
rey 5423
.in. 5422
anticipated 5422
chal 5422
multitude 5420
semifinals 5420
Shweta 5419
adviser 5419
conventions 5419
courageous 5419
umes 5417
ger@@ 5416
Gurgaon 5415
cum-@@ 5415
fingerprint 5415
pour 5414
swept 5414
Sem@@ 5412
KM 5411
UR 5410
Sudan 5409
babies 5408
module 5408
Male 5407
accountability 5407
happ@@ 5407
AIMIM 5406
G.@@ 5406
clo@@ 5406
erate 5406
TCS 5405
dom@@ 5405
Stone 5404
Vad@@ 5404
adultery 5404
Ancient 5403
Jobs 5403
blaze 5402
dedicate 5402
revive 5401
rang 5400
southeast 5400
Meet 5399
execute 5399
oured 5399
vigilant 5399
scalped 5398
ware 5397
Kri@@ 5396
declining 5394
avan 5393
uted 5393
persecuted 5392
Truly 5391
UDF 5391
slogan 5391
ML@@ 5389
anced 5389
gged 5389
taxpayers 5389
LL@@ 5387
Sukhdev 5387
landslides 5387
Pap@@ 5386
Chow@@ 5385
wind@@ 5385
eric@@ 5384
LS 5383
vice-captain 5382
Attorney 5381
book@@ 5381
admonition 5380
mount 5380
revolutionary 5379
Field 5376
screenplay 5376
tin@@ 5375
unrest 5374
wider 5374
Ratan 5373
clos@@ 5373
mun@@ 5373
Wid@@ 5372
interventions 5372
anim@@ 5371
fiction 5371
tiger 5371
grandmother 5370
1,6@@ 5369
Kes@@ 5369
preceding 5369
silk 5367
commemorate 5366
hurry 5365
blood@@ 5364
theirs 5364
accidental 5363
112 5362
39@@ 5361
DM 5361
continent 5361
temptation 5361
Khalsa 5360
Palakkad 5360
Khalid 5359
elevation 5358
hardships 5358
Hay@@ 5357
oud 5357
teenager 5357
bu 5356
20.@@ 5355
Atul 5355
Dom@@ 5355
cake 5355
revision 5354
wronged 5354
inspected 5352
plo@@ 5352
subsidiary 5352
sciences 5350
time@@ 5350
Chak@@ 5349
snowfall 5348
bottle 5345
thermal 5345
1973 5343
Giving 5343
hadnt 5343
Amb@@ 5342
Balbir 5342
NCC 5342
oa 5342
automobile 5341
aar 5340
marking 5339
umped 5339
exchanged 5338
ho 5338
coaching 5337
ener@@ 5336
insects 5336
ule 5336
Balakot 5335
ib@@ 5334
sidelines 5334
Dear 5333
Aziz 5331
cruel 5331
CB 5330
Ramachandran 5330
slipped 5329
Shanghai 5327
backdrop 5327
commuters 5327
Shaikh 5326
fodder 5326
visas 5326
choosing 5325
colleague 5325
inducted 5325
wickedness 5325
Motor@@ 5324
Sew@@ 5323
Preparations 5322
propag@@ 5322
ues 5322
Focus 5318
Monsoon 5318
SR 5318
explo@@ 5318
suicides 5318
surgical 5318
time-@@ 5318
fights 5317
thrashed 5317
Gag@@ 5315
joyful 5314
left-@@ 5314
rail@@ 5313
Competition 5311
Game 5311
Kaul 5311
Exodus 5310
Farmer 5310
foot@@ 5310
BMC 5309
disc 5309
yal@@ 5309
com 5308
exempted 5306
aon 5304
Producer 5303
informal 5303
Aurangabad 5302
Mohit 5302
adversely 5302
harder 5302
immorality 5302
MI 5301
Shane 5301
wet 5301
Kod@@ 5300
Weather 5300
1974 5299
Fishermen 5296
Tou@@ 5296
VAT 5296
disc@@ 5296
impacted 5296
evaluation 5295
halls 5295
vibrant 5295
grabbed 5293
1976 5291
24.@@ 5291
som@@ 5290
objections 5289
Langdon 5287
alarming 5286
locks 5286
forgot 5285
modified 5285
Bhatia 5284
pushing 5283
trafficking 5283
ices 5282
Kulbhushan 5281
hrs 5281
mist@@ 5281
outlay 5281
Parv@@ 5280
apologised 5280
boil 5280
Ev@@ 5278
aer@@ 5278
sits 5278
Raje 5277
itated 5277
Female 5276
abused 5276
intensify 5276
,4@@ 5275
Villiers 5275
1978 5274
Gopi 5274
Tej 5274
8,000 5272
debris 5270
him. 5270
providers 5270
thief 5270
0,000 5269
themes 5269
Bharati 5268
desktop 5268
Cov@@ 5267
Os@@ 5267
Six@@ 5267
Shan@@ 5266
Neha 5265
Chahar 5264
Hills 5264
Hur@@ 5264
ground@@ 5264
rein@@ 5264
retire 5264
Meena 5263
accusations 5263
chang@@ 5262
colonial 5262
pen 5262
Musa 5261
asses 5261
Faz@@ 5260
Kedar 5259
dil@@ 5259
fatal 5257
hib@@ 5257
tured 5257
disbelieved 5254
levied 5254
FIRs 5253
Leg@@ 5253
instantly 5253
successor 5253
Dhanush 5252
aw 5252
exemplary 5252
everyones 5249
Software 5248
Sood 5248
ailments 5248
Leh 5247
patterns 5247
Devotees 5246
drinks 5246
falsehood 5244
Wife 5243
apple 5242
Ross 5240
Fateh@@ 5238
Patani 5238
apartment 5238
logging 5237
cable 5236
perfectly 5235
El 5234
Florida 5234
ased 5234
coupled 5234
hra 5232
pond 5232
unfair 5232
Cour@@ 5231
brutal 5231
Often 5230
assi 5230
ouse 5230
175 5228
stre@@ 5228
Organ@@ 5227
pursuit 5227
Bhat 5224
Kak@@ 5222
freight 5222
Rupee 5221
implications 5221
tre@@ 5221
turnover 5221
Factory 5219
rul 5219
5G 5218
Chil@@ 5218
Khe@@ 5218
Transfer 5218
agarh 5218
enterprise 5218
Surendra 5217
willingly 5217
Kriti 5216
recipient 5216
ops 5215
scholarship 5214
Cham@@ 5213
favorable 5213
thrust 5213
Ashutosh 5212
Chatterjee 5212
Jyoti 5212
KSRTC 5212
advertising 5212
cav@@ 5212
chart 5212
Jose 5211
Bhattacharya 5210
Jha@@ 5210
Procedure 5209
Vol@@ 5209
cumulative 5209
greets 5209
workplace 5209
fitting 5208
rested 5208
awake 5207
hearted 5207
lok 5207
pressures 5207
storms 5206
alizing 5205
nursing 5205
remind 5205
deed 5204
mechanical 5204
semi-@@ 5204
aided 5202
polluted 5202
Analy@@ 5201
Boris 5201
Holi 5201
Srivastava 5201
compassionate 5201
waited 5201
tment 5200
HU@@ 5199
vely 5199
FOR 5198
Salem 5198
bus@@ 5198
supportive 5198
fruitful 5196
legitimate 5196
liberty 5196
eshwari 5195
Disease 5194
artisans 5193
itha 5193
tenth 5193
smiling 5192
speculation 5191
99@@ 5190
CT@@ 5190
altogether 5190
authors 5189
modern@@ 5189
web@@ 5189
Jana 5188
adventure 5188
authorised 5188
170 5187
mutually 5187
inger 5186
Samson 5185
ii 5184
entation 5183
smashed 5183
xel 5183
SW@@ 5182
pole 5182
CL 5180
Deve 5180
Jeevan 5180
Kor@@ 5180
magnificent 5180
er. 5179
introducing 5179
ken 5179
proceeded 5178
Cameron 5177
Season 5177
biological 5177
spirits 5177
fond 5174
Ear@@ 5173
Page 5173
Shaw 5173
formats 5173
LC 5172
174 5171
Suhana 5171
cancel 5171
disrup@@ 5171
harvesting 5171
implic@@ 5171
laboratories 5171
locally 5171
sta@@ 5171
partial 5169
pleasing 5169
eller 5168
tant 5168
internationally 5167
Entrepreneurship 5166
NC 5166
Irrigation 5164
novels 5164
ense 5161
Shooting 5160
lap@@ 5160
Cher@@ 5159
forensic 5159
1960 5158
Maximum 5158
U.@@ 5158
crowds 5158
laun@@ 5158
Taj 5157
Va@@ 5157
dawn 5157
Navratri 5156
tum@@ 5156
utt@@ 5156
Iraqi 5155
masters 5155
Electoral 5153
inherit 5153
IE@@ 5151
indic@@ 5150
cell@@ 5149
proportion 5148
Galatians 5147
obstacles 5147
underground 5147
FY 5146
Daw@@ 5145
Panchayati 5145
yed 5145
big@@ 5144
Idukki 5143
Problems 5143
mirror 5143
Ful@@ 5141
exceed 5141
observations 5141
MHA 5140
hardware 5140
marital 5140
Performance 5139
8-megapixel 5138
iy@@ 5138
Task 5137
financially 5134
granting 5134
enjoys 5133
recoveries 5133
Starting 5132
Yamuna 5131
dharna 5131
tem@@ 5131
zealous 5131
climbed 5130
ache 5128
upgraded 5128
ion@@ 5127
ull 5127
impe@@ 5126
incorrect 5126
Norway 5125
utation 5125
anj@@ 5124
erated 5124
anticipatory 5123
innovations 5123
signature 5123
Kotak 5122
abode 5122
evolved 5122
Govind 5120
miracles 5120
cease 5119
documentary 5119
Susp@@ 5118
Users 5117
elev@@ 5117
hali 5117
labourer 5117
FM 5116
64@@ 5115
Aff@@ 5115
asts 5115
doc@@ 5115
state-@@ 5114
spaces 5113
oven 5111
NS 5110
saints 5110
Dec 5109
trac@@ 5109
Rajamouli 5107
surrendered 5106
Sus@@ 5104
Net 5103
-1 5102
Main@@ 5102
colors 5102
impression 5102
inmates 5101
1977 5099
allowance 5099
lane 5099
psychological 5099
unaware 5098
violate 5097
NGO 5096
Palestine 5096
demonstrations 5096
rough 5094
illustrate 5093
uity 5093
cm 5092
disk 5092
een 5092
Kanhaiya 5091
2013-14 5090
Fun@@ 5089
mobility 5089
Basu 5087
amidst 5087
responds 5087
1979 5086
Down 5086
desperate 5086
cation 5083
ession 5083
hall@@ 5083
Ease 5082
aggression 5081
icians 5080
scar@@ 5079
Contin@@ 5077
comply 5077
ackers 5075
Actors 5074
Os 5073
Send 5073
tual 5073
saf@@ 5071
tious 5071
0s 5070
Ashraf 5070
Surendran 5069
stunned 5069
dict 5068
Return 5067
eves 5066
grand@@ 5066
Josh 5065
Squad 5064
graphic 5064
Deep 5063
browser 5063
inherited 5063
1500 5062
Soci@@ 5062
eu@@ 5062
Balan 5061
Netaji 5061
34@@ 5059
Bobby 5058
Fil@@ 5058
Share 5058
frequency 5058
,5@@ 5057
DO 5057
rebels 5057
voltage 5056
enders 5055
Rub@@ 5054
Warning 5054
Dhan 5053
Shortly 5053
bon 5051
loads 5051
sizes 5051
commandment 5050
maternal 5050
1965 5049
casting 5048
shook 5048
Reuters 5047
identifying 5047
tor-@@ 5047
muscle 5046
puja 5045
107 5044
Cold 5044
Liv@@ 5044
Vijaya 5044
drove 5044
protective 5044
Pharisees 5043
doubling 5042
NDPS 5040
brethren 5040
possessions 5039
Rising 5038
SIM 5038
chron@@ 5038
anguish 5037
prog@@ 5037
ost 5036
congratulations 5035
Mighty 5034
congestion 5034
provincial 5033
neutral 5031
ouring 5031
casts 5030
CM@@ 5029
Bad 5027
Sharing 5027
shooter 5027
Begum 5026
aba 5026
congratulates 5026
distr@@ 5026
praises 5026
Micro@@ 5025
utors 5025
Fol@@ 5024
renewed 5024
-off 5023
Neil 5023
understands 5023
atrocities 5021
declares 5021
Garcha 5020
milit@@ 5020
misuse 5020
Tas@@ 5019
Vidy@@ 5019
specify 5019
kle 5018
Sindh 5017
gall@@ 5017
kit 5017
Asha 5016
adorable 5016
King@@ 5015
Teh@@ 5014
antha 5013
contracted 5013
organizing 5010
tolerated 5009
composition 5008
governmental 5008
ison 5008
Davids 5007
Trent 5007
Fair 5005
elect 5005
rot@@ 5005
hacked 5004
agiri 5003
pairs 5003
Loc@@ 5002
Worship 5001
bride 5001
faithfully 5001
impl@@ 5001
Swedish 5000
nath 5000
precautionary 5000
downloaded 4999
sky@@ 4999
exceptions 4998
Cro@@ 4997
interference 4996
Gobind 4995
Siva 4995
rpm 4995
Hold 4994
Literature 4994
hir 4992
inaugurates 4992
recru@@ 4992
polic@@ 4991
serial 4991
Hostel 4989
achi@@ 4989
beast 4988
itra 4988
princes 4988
IJ 4987
Jagdish 4987
Mata 4987
Mines 4987
DCP 4986
amounting 4986
no-@@ 4986
eldest 4985
liberation 4985
wrong@@ 4985
shore 4983
tin 4983
slapped 4982
Rape 4980
Hemant 4979
cement 4979
mineral 4979
-e-@@ 4978
stabil@@ 4977
Narayana 4975
iri 4975
dances 4973
over-@@ 4973
Display 4972
promptly 4972
shattered 4971
honesty 4968
rish 4966
Kochhar 4965
Wasim 4965
Lower 4964
recovering 4963
ern 4962
scorer 4962
deepen 4961
lav@@ 4960
rob@@ 4960
Jit@@ 4959
Mangaluru 4959
allo@@ 4959
grim 4959
modes 4959
fruitage 4958
wrestling 4956
necessity 4955
tale 4955
dat@@ 4954
e-commerce 4954
rift 4954
Cor 4953
Hai 4953
elephant 4953
invisible 4953
Environmental 4952
memorandum 4952
Ruth 4951
cks 4951
Mach@@ 4950
obligations 4950
Must 4949
burg 4949
full-@@ 4949
industri@@ 4949
worrying 4949
I. 4947
counsel@@ 4947
tracking 4947
1969 4946
condemns 4946
expandable 4946
agrees 4945
drain 4945
imal 4945
abled 4944
Shyam 4943
joke 4943
minded 4943
Securities 4942
pleas 4941
Panj@@ 4940
alla 4940
fewer 4940
Payment 4939
knee 4939
snake 4939
Table 4938
Jud@@ 4937
Theatre 4937
Desam 4936
Increase 4936
idi@@ 4936
torn 4936
imprisoned 4935
aver@@ 4934
overturned 4934
Wikipedia 4933
adha@@ 4933
conver@@ 4933
tier 4933
velocity 4933
4.5 4932
Multi@@ 4931
Keerthy 4930
Chandy 4929
flags 4929
prop@@ 4929
rocks 4929
Bhatt@@ 4928
alleges 4928
lac@@ 4928
query 4928
Khurrana 4927
3000 4925
Veer@@ 4925
employers 4925
revival 4925
Sonali 4924
aught 4924
keepers 4924
36@@ 4923
Kunal 4922
vir@@ 4922
Regulatory 4921
bed@@ 4921
drives 4921
CI 4920
Dead 4920
es-@@ 4920
north-@@ 4920
unfortunately 4920
Abd@@ 4919
fla@@ 4918
uel 4918
evidently 4917
Savarkar 4916
Taimur 4915
patiently 4915
recited 4915
correctly 4914
fixing 4914
shield 4914
thunder@@ 4914
abl@@ 4913
readily 4913
photography 4912
proclaimed 4912
Ekta 4911
Nation@@ 4911
Vic@@ 4911
chamber 4911
hab 4911
calculated 4910
1981 4909
perpetrators 4909
Ky@@ 4908
anand 4908
PGI 4907
Shir@@ 4907
beneficiary 4907
Sport 4905
deliberately 4905
ATION 4903
deities 4903
kk@@ 4902
Tabu 4901
finger 4901
inga 4901
tendency 4901
Prayer 4900
angi 4900
7.5 4899
300@@ 4898
Jaff@@ 4898
ires 4897
exploration 4896
2,500 4895
Lankesh 4894
invites 4894
jar 4894
kins 4894
liqu@@ 4894
opt 4894
stamp 4894
paramilitary 4893
Brown 4892
Compare 4891
Sas@@ 4891
Panchkula 4890
kidnapped 4890
Cheteshwar 4889
GT@@ 4889
Ken@@ 4889
Path 4889
impounded 4889
mit 4888
convened 4887
disciplinary 4887
oma 4887
reasoning 4887
utilised 4887
Buddhism 4886
hypo@@ 4886
motivate 4886
yn@@ 4886
Tiruv@@ 4884
ceiling 4884
intervened 4883
migrated 4883
Access 4881
deteriorating 4881
fortunate 4881
sovereign 4881
000mAh 4880
adju@@ 4880
Rawal 4879
consultations 4878
Levites 4877
Yediyurappa 4877
occup@@ 4877
Campaign 4875
Gov@@ 4875
Pillai 4875
ests 4875
amazed 4873
directory 4873
Textiles 4872
dy@@ 4871
ship@@ 4870
Dikshit 4869
hik@@ 4869
sym@@ 4867
warriors 4867
Brazilian 4866
medication 4866
facto 4865
115 4864
ABS 4864
Firefox 4864
Laws 4864
Mandal 4864
mic@@ 4864
Narmada 4863
pin@@ 4863
Tem@@ 4862
itted 4862
Too 4861
rant 4861
underwent 4861
immigration 4860
transported 4860
2-1 4859
Saurashtra 4859
crowded 4859
epidemic 4859
resting 4859
tabernacle 4859
accompanying 4858
145 4857
ghee 4857
regist@@ 4857
SAARC 4855
command@@ 4855
judged 4855
Salim 4854
Worlds 4853
connects 4853
regardless 4853
sincerely 4853
unchanged 4853
Mumbai-@@ 4851
steadfast 4851
IU@@ 4850
apped 4850
ushes 4850
Hillary 4848
Lebanon 4848
accounted 4848
afflicted 4848
clashed 4846
thers 4845
Payments 4844
suffers 4843
brands 4841
oration 4841
accommodate 4840
Farid@@ 4839
KC 4839
lear@@ 4839
rah 4839
Atlantic 4838
bulk 4838
Kant 4837
ideals 4837
Bhumi 4836
inated 4836
Incl@@ 4835
Marcus 4835
Wildlife 4835
chairs 4835
excitement 4835
fe 4835
shouting 4835
Ball@@ 4834
God. 4834
happily 4834
Judgment 4833
302 4832
mud 4832
references 4832
timing 4832
Houston 4831
promotes 4831
Mujahideen 4830
distribute 4830
son-in-law 4830
Flag 4829
103 4828
MA@@ 4828
junction 4828
Nirbhaya 4827
excise 4827
employer 4826
PA@@ 4824
bacterial 4824
bin@@ 4823
dead@@ 4823
Bhav@@ 4822
activ@@ 4822
Simon 4821
Gita 4820
Southeast 4820
oj@@ 4820
Mukul 4818
chains 4818
inviting 4818
warfare 4818
agon 4816
abandon 4815
first-class 4815
territorial 4815
Welcome 4814
Channel 4812
tax@@ 4812
approve 4811
Feb 4810
harassed 4810
Kush@@ 4809
Oscar 4809
essors 4809
shipping 4809
Padmavati 4808
aki 4808
brutally 4808
bite 4807
consist 4807
prepaid 4807
talents 4807
administrator 4806
figured 4806
booths 4805
unacceptable 4805
stalled 4804
utility 4804
xi@@ 4804
Nishank 4803
one-day 4803
promising 4803
Oct 4802
clue 4802
eel 4802
func@@ 4801
metric 4801
nec@@ 4800
tivity 4800
despair 4799
irregularities 4799
watch@@ 4799
offline 4798
Pathan 4796
Serve 4795
ility 4794
packages 4794
substantially 4794
Defense 4793
thrilled 4793
bes 4791
holistic 4791
mini 4791
plantation 4791
pro 4791
Tahir 4790
jury 4790
requesting 4790
Madhu 4789
dense 4789
neglected 4789
viewing 4789
guardian 4788
Dol@@ 4787
Meerut 4787
rider 4787
Hir@@ 4785
shit 4785
Bak@@ 4784
devastating 4784
ette 4784
fir@@ 4784
VK 4783
dangers 4783
upgrade 4783
detection 4782
helicopters 4782
sheets 4782
Excellence 4781
TVS 4781
striving 4781
verified 4781
Rohingya 4780
discover 4779
Dubey 4778
India@@ 4778
Nov@@ 4777
PCB 4777
Saxena 4777
ector 4777
excluded 4776
emia 4775
crashes 4774
step@@ 4774
,0@@ 4772
Ped@@ 4772
a.@@ 4772
proposes 4772
provoked 4772
Value 4771
sentences 4771
Sl@@ 4770
interviews 4769
Sakshi 4768
Twenty20 4768
accepts 4768
liness 4768
2,9@@ 4767
Aut@@ 4767
Talks 4767
Emperor 4766
Gener@@ 4766
ston 4766
PhD 4765
Sovereign 4765
Course 4764
Record 4764
run-@@ 4764
waterlogging 4764
bott@@ 4763
seize 4763
Chandrakant 4762
Luc@@ 4762
O. 4762
Tandon 4762
fle@@ 4762
fast@@ 4761
ager 4760
symbolic 4759
flies 4758
sink 4758
9,000 4757
Idea 4757
barred 4757
liability 4756
Adil 4755
Crude 4755
fif@@ 4755
marginal 4754
sacked 4754
Finland 4752
eted 4752
Kulkarni 4751
festive 4750
lung 4750
prey 4749
Census 4748
Jagannath 4748
tations 4748
CS 4747
robbed 4747
deserves 4746
lacking 4746
uz@@ 4746
Bij@@ 4744
Kashmirs 4743
Say@@ 4743
volumes 4743
Conservation 4742
alis 4742
MM 4741
Syn@@ 4741
futures 4741
info 4741
lev@@ 4741
triumph 4741
,990 4740
Estate 4740
Guidelines 4740
Mrs. 4740
commendable 4739
filming 4739
intake 4739
'an 4738
Sut@@ 4738
lined 4738
Manjrekar 4737
Translation 4736
fingers 4736
geographical 4736
noon 4736
sticks 4736
Baby 4735
ases 4735
riot 4735
102 4734
bands 4734
creature 4734
deleg@@ 4734
eem 4734
Maoists 4733
aint 4733
Soni 4732
first-ever 4732
get@@ 4732
Arya 4731
Kab@@ 4731
Lau@@ 4731
gear 4731
Colony 4730
collectively 4730
plains 4730
widows 4730
RK 4729
Universal 4729
summons 4729
Lun@@ 4728
mentions 4728
Raghuram 4727
travellers 4727
rations 4726
socio-economic 4726
applicants 4725
Surender 4724
Sap@@ 4722
24-@@ 4721
6-speed 4720
Nikhil 4718
Nuclear 4718
ook 4717
pur-@@ 4717
HD@@ 4716
processed 4716
Doctor 4715
Gaza 4715
doctrine 4714
positively 4714
water-@@ 4714
denying 4713
stem 4713
Rohtak 4712
goo@@ 4712
ou 4712
Develop@@ 4711
Sahu 4711
hanged 4711
inging 4711
urging 4711
mills 4710
under-@@ 4710
beef 4709
cared 4709
Overall 4708
Rakul 4708
binding 4708
bounty 4708
Physics 4707
Products 4707
Settings 4707
YOU 4707
Ordinance 4705
Tap@@ 4705
narrative 4705
abi 4704
equation 4704
pioneering 4704
1,3@@ 4703
Indonesian 4703
advancement 4703
bases 4703
foolish 4703
inches 4702
night@@ 4702
wasted 4702
1952 4701
MK 4701
Neh@@ 4701
rat@@ 4701
Fathers 4700
Muzaffarpur 4700
Minist@@ 4699
lakes 4699
restraint 4698
uncertainty 4698
Rampur 4697
Sylhet 4697
emic 4697
incentives 4697
logistics 4697
NTPC 4696
bla@@ 4696
directive 4696
Zia 4695
advances 4694
BB@@ 4692
SL 4692
credible 4692
doused 4692
guilt 4692
knocked 4692
wom@@ 4692
diamond 4690
killers 4690
clip 4689
Upper 4688
lows 4688
magnesium 4688
remembrance 4688
FA 4687
tery 4687
Tit@@ 4686
must@@ 4686
stupid 4685
indirect 4684
Const@@ 4683
killer 4683
prophecies 4683
Registrar 4681
Allah. 4680
Ananya 4680
wrongdoing 4680
1945 4679
intend 4679
surplus 4679
thro@@ 4679
year-@@ 4678
Aug 4677
ml 4677
rai@@ 4676
shoulders 4676
slaughter 4676
announcing 4675
refund 4675
unlike 4675
Enable 4672
pets 4672
troubles 4672
Constable 4671
Rad@@ 4671
relaxed 4671
Sain@@ 4670
age-@@ 4670
sized 4670
Kazakhstan 4669
Tejashwi 4669
floors 4669
2-megapixel 4668
arri@@ 4668
fool 4668
sively 4668
slip 4668
ayan@@ 4666
barrier 4666
Arjuna 4665
airspace 4665
digestion 4665
iles 4665
physician 4665
-long 4664
Haw@@ 4664
Laksh@@ 4664
106 4663
Oper@@ 4663
Pragya 4663
Window 4663
sensation 4663
West@@ 4662
JeM 4661
pup@@ 4661
Sunni 4660
adjacent 4660
agon@@ 4660
anian 4660
portrayed 4660
Alappuzha 4659
poison 4659
pouring 4659
CG@@ 4658
Phil@@ 4658
Rol@@ 4658
frustrated 4658
donate 4657
tablespoons 4657
rocket 4656
worn 4656
22-@@ 4655
drone 4655
measuring 4655
symbols 4655
Chandr@@ 4654
Tru@@ 4654
Karisma 4653
Lav@@ 4653
Wall 4653
appro@@ 4653
Interior 4652
adu 4652
Ach@@ 4651
Saha 4651
dirty 4651
lays 4651
spell 4651
gers 4650
reddy 4650
separ@@ 4650
knees 4649
transg@@ 4648
Jaish-e-Mohammad 4646
act@@ 4646
pump 4646
izes 4645
versus 4645
gal@@ 4644
Cyclone 4643
critic 4643
000@@ 4642
Il@@ 4642
Made 4642
UA@@ 4642
Units 4642
sensi@@ 4642
willingness 4642
assures 4641
ight 4641
ulu 4641
NEET 4640
leaf 4640
Stuart 4639
.nic@@ 4638
exhorted 4638
imagined 4638
Pannu 4637
advertisement 4637
infl@@ 4637
Born 4636
asw@@ 4636
categor@@ 4636
exercised 4636
Hear@@ 4635
Internal 4635
deep@@ 4635
Land@@ 4634
acharya 4634
bling 4634
ories 4634
prompt 4634
sowing 4634
letting 4633
operator 4633
reflection 4633
Munde 4632
agar@@ 4632
tribunal 4630
Ker@@ 4629
feast 4629
headlines 4629
Colonel 4628
Sahitya 4628
gic 4628
256GB 4627
Ezekiel 4627
Role 4627
graph 4627
satisfy 4627
22@@ 4626
Len@@ 4626
repay 4626
restriction 4626
Moto 4625
irrespective 4625
networking 4625
san@@ 4625
23.@@ 4624
Beach 4624
Version 4623
isha 4623
,8@@ 4622
fabric@@ 4622
minist@@ 4622
encourages 4621
phrase 4621
cred@@ 4620
Christendom 4619
Happiness 4619
Resp@@ 4619
excuse 4619
uproar 4619
ution 4619
90@@ 4618
Attack 4618
Spe@@ 4618
asan 4618
onboard 4618
hati 4617
Dad@@ 4616
complaining 4615
ew 4615
ez@@ 4615
Dhillon 4614
MLC 4614
Mass 4614
Cars 4613
Georgia 4613
,6@@ 4612
5-speed 4612
Suicide 4612
Teams 4612
predominantly 4612
Faridabad 4610
escalated 4610
relax 4609
11-@@ 4608
Dabangg 4608
diversi@@ 4608
NG 4606
101 4605
ONGC 4605
dha 4605
Poor 4604
Mahila 4602
anch@@ 4602
rever@@ 4602
bids 4601
bility 4601
investor 4601
sounded 4601
Gaurav 4600
facilitating 4600
NG@@ 4599
pref@@ 4599
ve-@@ 4599
Doc@@ 4598
Kashi 4598
cheque 4598
vis 4598
advertisements 4597
dging 4597
ure@@ 4597
Gam@@ 4596
Rampal 4596
eld 4596
Expressing 4594
diagnosis 4594
closest 4593
dams 4592
graduates 4592
wells 4592
Taxes 4591
avo@@ 4591
Bish@@ 4590
clusters 4590
somehow 4590
Harvard 4589
Impact 4589
terr@@ 4589
Harpreet 4588
Pvt 4587
bagh 4587
MBBS 4586
medicinal 4586
OP 4585
Zi@@ 4585
obtaining 4585
so-called 4584
practiced 4583
Aaryan 4582
fielding 4582
Israels 4581
gri@@ 4581
reside 4581
ATMs 4580
Netanyahu 4580
Mela 4579
quest 4578
Cristiano 4576
mantra 4576
organs 4576
prevalent 4574
Jersey 4573
endor@@ 4573
Question 4571
arrange 4571
intentions 4571
megapixel 4570
5-inch 4569
Jacqueline 4569
Moo@@ 4569
prolonged 4569
variable 4569
-related 4568
gol@@ 4568
Nirmal 4567
attained 4567
tol@@ 4567
Pak@@ 4566
By@@ 4565
kal@@ 4565
Manufacturing 4564
Mathura 4564
attitudes 4563
turnout 4563
twitter 4563
Nashik 4562
PG@@ 4561
businessmen 4561
tonne 4561
revenge 4558
Grand@@ 4557
Reacting 4557
Responding 4557
Anantapur 4556
Vice-@@ 4556
Anjali 4555
dowry 4555
PM-@@ 4554
cheated 4554
refrain 4554
Kel@@ 4553
Nim@@ 4553
expense 4553
Howrah 4552
Prominent 4552
deliveries 4552
fisheries 4552
apura 4551
capped 4550
outlets 4550
umar 4550
5MP 4549
Shel@@ 4549
assemblies 4549
swift 4548
Mohamed 4547
Sank@@ 4547
furniture 4547
AFP 4546
Iron 4546
aller 4546
contributes 4546
interrogating 4544
ious 4544
PSUs 4543
Surjit 4543
struggled 4543
spices 4542
sustenance 4542
Khadi 4541
Vidarbha 4541
famine 4541
logic 4540
throwing 4540
aswamy 4539
kars 4539
oul@@ 4539
scandal 4539
Sre@@ 4538
Sriram 4538
elephants 4538
indicating 4538
neglect 4536
poles 4536
Amarnath 4535
enth 4535
governed 4535
Satya 4534
deliberate 4534
sat@@ 4534
wide-@@ 4534
Sons 4533
cru@@ 4533
e-up 4533
garment 4532
ignorance 4532
akh@@ 4531
rubber 4531
andan 4530
ound 4530
Roh@@ 4529
classification 4528
varies 4528
wealthy 4528
Gates 4527
xes 4527
Dig@@ 4526
Rehman 4526
Swift 4526
adopting 4526
oppression 4526
1951 4525
Tension 4525
grid 4525
Declaration 4524
schooling 4524
akkal 4522
wrongdoers 4522
curriculum 4521
imagination 4521
setback 4521
Robin 4520
gra 4520
230 4519
ill-@@ 4519
rist 4519
Vallabhbhai 4518
aired 4518
ament 4518
Imam 4517
recalls 4517
CF@@ 4516
Lewis 4515
forty 4515
Castes 4514
Singer 4514
wil@@ 4514
Yam@@ 4513
ounds 4513
3-0 4512
nav@@ 4512
perceived 4512
preside 4512
Kids 4511
regulated 4511
strengthens 4511
astro@@ 4510
cane 4510
Govern@@ 4509
Karunanidhi 4509
ubs 4509
Standards 4508
omed 4508
spy 4508
suits 4508
Kevin 4506
partly 4506
122 4505
Expressway 4504
Kabaddi 4504
availed 4504
gesture 4504
vomiting 4504
VI 4503
accounting 4503
tomb 4503
North-East 4502
label 4501
Fuel 4500
Tollywood 4500
UPSC 4500
boycott 4500
tend@@ 4500
din@@ 4499
tenders 4499
und 4499
undeserved 4499
Delhi@@ 4498
ques 4498
distressed 4497
eswar 4497
separation 4497
3D 4496
Justin 4496
Pensions 4496
apur@@ 4496
Orange 4495
goats 4495
rings 4495
lic@@ 4494
pin 4494
resolutions 4494
tionary 4494
antry 4493
Causes 4492
Philip 4492
anag@@ 4492
nationalist 4492
F-16 4491
altitude 4491
DD 4490
Rains 4490
bid@@ 4490
Was@@ 4489
ation. 4488
fted 4488
entrepreneurship 4487
Kos@@ 4486
Ron@@ 4486
Samiti 4486
bab@@ 4486
workshops 4486
Background 4485
rolls 4485
Speak 4484
tial 4484
Elizabeth 4483
Saraswati 4483
TikTok 4483
Vellore 4481
blogger 4481
Bhan@@ 4480
VC 4480
mic 4480
-12 4479
minim@@ 4479
rainy 4479
Flight 4478
ranges 4478
taxi 4478
AIR 4477
Francisco 4476
Uzbekistan 4476
eing 4475
surroundings 4475
TI 4473
reader 4473
27.@@ 4472
abducted 4472
batt@@ 4472
briefly 4472
occasionally 4472
permanently 4472
Nu@@ 4471
Ple@@ 4471
fel@@ 4471
Shu@@ 4470
pas@@ 4470
flav@@ 4469
lawmakers 4469
Digvijaya 4468
event@@ 4468
rests 4468
saniti@@ 4468
favorite 4467
Khur@@ 4465
adh@@ 4465
delete 4465
guiding 4465
prevents 4465
protects 4465
weaknesses 4465
49@@ 4464
tively 4464
Accused 4463
ensued 4463
Aman@@ 4462
ity-@@ 4462
puram 4462
AY@@ 4461
Studios 4461
Tushar 4461
shepherds 4461
Provided 4460
akar@@ 4460
sibly 4460
staff@@ 4460
cher@@ 4458
interactions 4458
manpower 4458
treasures 4458
Challenge 4457
Chandrashekhar 4457
Honor 4457
fix@@ 4457
repo 4457
Farm 4456
son@@ 4456
asi@@ 4455
zes 4454
Monitoring 4453
Tre@@ 4453
aran 4453
key@@ 4453
offenders 4453
tun@@ 4453
pper 4452
right-@@ 4452
Darbar 4451
LE 4451
Rapid 4451
Turn 4451
iest 4451
ph 4450
clarify 4448
fron@@ 4448
partnerships 4448
22.@@ 4447
CSIR 4446
landscape 4446
Status 4445
iser 4445
purity 4445
veness 4445
utilized 4444
delicious 4443
seated 4443
sinned 4443
Teach 4442
influences 4442
mang@@ 4442
satisfactory 4442
arians 4441
aved 4441
deduction 4441
Statement 4440
ende@@ 4440
000-@@ 4439
PWD 4439
centric 4439
Kom 4437
afterward 4437
instituted 4437
RRB 4435
Sarab@@ 4432
CWC 4431
Category 4431
spectacular 4431
securing 4430
Massive 4429
tism 4429
12,000 4428
Quar@@ 4428
bir@@ 4428
vendors 4428
READ 4427
dic 4427
blown 4426
emissions 4425
Uma 4422
concluding 4422
container 4422
ather 4421
breathe 4420
disbursed 4420
tian 4420
Bhaskar 4419
Jay 4419
mortal 4419
lowly 4418
2GB 4417
Keshav 4417
Steven 4417
eight-@@ 4417
Delhi-NCR 4416
navigation 4416
weighs 4416
west@@ 4416
1955 4415
Areas 4415
nod 4415
Sanj@@ 4414
tallest 4414
wai@@ 4414
quarterfinals 4413
Paresh 4411
shor@@ 4411
Bhand@@ 4410
e.g. 4410
slept 4410
Recovery 4408
Kendra 4407
addiction 4407
isa 4407
114 4406
Fs 4406
quali@@ 4406
18-@@ 4405
Base 4405
Glo@@ 4405
Overseas 4405
aperture 4404
erring 4404
itations 4404
wl 4404
ballot 4403
das 4403
-free 4402
ott@@ 4402
tens 4402
thy@@ 4402
Anand@@ 4401
amend 4400
evol@@ 4400
ski@@ 4400
PI 4399
hia 4399
self-reliant 4399
organisms 4398
uality 4397
LMT 4396
org 4396
rati@@ 4396
wholesome 4396
coc@@ 4395
ention 4395
coordinated 4394
hid@@ 4394
kes 4394
undergone 4394
Indian-origin 4393
cand@@ 4393
spinners 4393
Traditional 4392
bearers 4391
plac@@ 4391
poets 4391
Aud@@ 4390
Bandra 4389
Kom@@ 4389
captaincy 4389
-14 4388
Malay@@ 4388
Kashmiris 4387
requisite 4387
Tennis 4386
Nur@@ 4385
slot 4385
Above 4384
ample 4384
Cyber 4383
south-@@ 4383
calories 4382
Kota 4381
chronic 4381
mechanisms 4381
streaming 4381
Mog@@ 4380
Tibet 4380
hired 4380
discourse 4379
experiments 4379
grieve 4379
sne@@ 4379
BS6 4378
colon@@ 4378
numbered 4378
privileged 4378
shake 4378
1919 4377
RD 4377
flagged 4377
Pic@@ 4376
Recruitment 4376
Dat@@ 4375
Wag@@ 4375
1967 4374
Gom@@ 4374
Thak@@ 4374
capacities 4374
undoubtedly 4374
Adarsh 4373
foremost 4373
hya 4373
Mental 4372
shoots 4372
Prithvi 4370
nur@@ 4370
dium 4369
kind@@ 4369
stipulated 4369
rak@@ 4368
Pos@@ 4367
Rajouri 4367
erable 4367
nurse 4367
Given 4366
Prizes 4366
ry@@ 4366
109 4365
Nagarjuna 4364
Thanjavur 4364
Written 4364
violates 4364
Mahar@@ 4363
Grant 4362
boss 4362
che 4362
Ramakrishna 4361
Lat@@ 4360
Praveen 4360
arer 4358
thes@@ 4357
AW@@ 4356
pensioners 4356
ressing 4356
ethical 4355
Harsimrat 4353
arily 4353
disorders 4353
hypocrites 4353
Bairstow 4352
Zero 4352
wad 4352
organize 4350
alty 4349
bers 4349
tain 4349
utor 4349
Commun@@ 4348
cumin 4348
Boxing 4347
behave 4347
electronics 4347
Inc 4346
Knower 4346
Choksi 4345
Jyotiraditya 4345
PRO@@ 4345
discouraged 4345
frag@@ 4345
steal 4345
teaspoons 4345
erts 4344
initi@@ 4344
nodal 4344
pornography 4344
slew 4344
stit@@ 4344
talaq 4344
Link 4343
Nissan 4343
shower 4342
evidences 4341
Dy@@ 4339
Kutch 4339
advise 4339
Situation 4338
wire 4338
ulam 4337
Voices 4336
boosting 4336
fleet 4336
Cir@@ 4335
Sale 4335
debates 4335
extradition 4335
heal 4335
preference 4335
aja 4334
boxes 4334
CNG 4332
Domin@@ 4332
Stand 4332
Bern@@ 4331
Deaths 4331
Form 4330
plight 4330
prophetic 4330
raided 4330
Gau@@ 4329
MM@@ 4329
erup@@ 4329
fulness 4329
70@@ 4328
athlete 4328
meditate 4328
waterlogged 4328
Hans 4327
air-@@ 4327
400@@ 4326
brac@@ 4326
organ 4326
acclaimed 4325
bidding 4325
glorify 4325
Megh@@ 4324
orous 4324
duly 4323
endeavor 4323
uno@@ 4323
ax 4322
Cambridge 4321
father@@ 4321
permits 4321
tsunami 4321
focuses 4320
know@@ 4320
bell 4319
climb 4319
Merkel 4318
V-@@ 4318
courtesy 4318
Sign 4317
bicycle 4316
strengths 4316
yl 4316
31.@@ 4315
FT 4315
Usman 4315
Fat@@ 4314
Tribune 4314
pain@@ 4314
hima 4313
off-@@ 4313
operation@@ 4313
1.2 4312
117 4312
chur@@ 4312
traditionally 4312
assignments 4310
lions 4310
celebrity 4309
gatherings 4308
pad 4308
pricing 4308
Applications 4307
aling 4307
disability 4307
eal@@ 4307
epur 4307
proofs 4305
MNS 4304
NCR 4303
Researchers 4303
mem@@ 4303
fore 4302
ITC 4301
prisoner 4301
respite 4301
Gha@@ 4300
donations 4300
newborn 4300
25.@@ 4299
ICT 4299
DU 4298
freed 4298
imperative 4298
repaired 4298
certified 4297
posi@@ 4296
Race 4295
ede 4295
login 4295
stry 4295
Celebr@@ 4294
Charanjit 4294
specialist 4294
Allahs 4293
Thiruv@@ 4293
cultivated 4293
heres 4293
scrutiny 4293
spike 4293
turing 4293
Qaeda 4292
Cla@@ 4291
Watson 4291
all-time 4290
gorgeous 4289
Ranji 4288
ady 4288
gha 4287
invented 4287
lone 4287
Author 4286
Throughout 4286
mid 4286
observes 4286
Chun@@ 4285
Narayanan 4284
acle 4284
remnant 4284
seven-@@ 4284
Maurya 4282
contestants 4282
depart 4282
lip@@ 4282
wrestler 4282
mediate 4281
osp@@ 4281
journalism 4280
bps 4279
deliberations 4279
Ret@@ 4278
Stre@@ 4277
Tat@@ 4277
lorry 4277
Jhansi 4276
Lakh@@ 4276
singers 4276
headache 4275
purchasing 4275
spreads 4275
textile 4275
prosec@@ 4274
toxic 4274
plague 4273
Ek 4272
snatched 4272
certification 4271
mysterious 4271
i. 4269
threaten 4269
check@@ 4268
decor@@ 4268
Geor@@ 4267
Laboratory 4267
Waqf 4267
Chautala 4266
perish 4266
Columbia 4265
mohan 4265
workforce 4265
jected 4263
merchant 4263
1957 4262
Fig@@ 4262
25th 4261
Husbandry 4261
Kamala 4261
Youll 4261
conceal 4261
Arch@@ 4260
inge 4260
earth@@ 4259
emperor 4259
cali@@ 4258
Portal 4257
dire 4257
uls 4257
Constitutional 4256
Hello 4256
cle 4256
scor@@ 4256
Autom@@ 4255
Ep@@ 4255
civilization 4254
Sanjiv 4253
Vasundhara 4253
Vice-Chancellor 4253
jac@@ 4253
Kund@@ 4252
UV@@ 4252
aned 4252
boarding 4252
concepts 4252
rams 4252
supervis@@ 4252
mitting 4251
Law@@ 4250
exploitation 4249
inevitable 4249
iss 4249
warming 4249
Conf@@ 4248
MBA 4248
clarification 4248
reas@@ 4248
Socialist 4247
Demand 4246
Mut@@ 4246
dimensions 4246
hatchback 4246
IITs 4245
Irfan 4245
fa 4245
Mega 4244
Drama 4243
aces 4243
taluka 4243
Offices 4242
SK 4242
extinguished 4242
client 4241
pore 4241
Saaho 4240
fertilizers 4240
transit 4240
unconscious 4240
yn 4240
Driver 4239
Electrical 4239
MR 4239
Ut@@ 4239
135 4238
HR@@ 4237
assuming 4236
intimate 4236
Kem@@ 4235
akers 4235
flame 4235
spoon 4235
Low 4234
accelerate 4234
not@@ 4234
PoK 4233
describing 4233
judgments 4233
vicinity 4233
mile 4232
Cru@@ 4231
Jonah 4231
Sasikala 4231
webinar 4231
equi@@ 4230
picking 4230
scre@@ 4230
Anantnag 4229
Rum@@ 4229
Trav@@ 4229
beefed 4229
competing 4228
invalid 4228
Chemical 4227
bury 4227
consol@@ 4227
mo 4227
retaliation 4227
asted 4226
ladies 4226
main@@ 4226
exalted 4225
flew 4225
Tamilnadu 4224
aerial 4224
upli@@ 4223
Praise 4222
concludes 4222
ket@@ 4222
regulate 4222
tanker 4221
Dharma 4219
gated 4219
tham 4219
nt 4218
MUMBAI 4217
Players 4217
qualifying 4217
cit@@ 4216
ida 4216
Lyon 4215
depend@@ 4215
Austria 4214
NA 4214
displaying 4214
disturbing 4214
uncertain 4214
LIC 4213
Laxmi 4213
Sheila 4213
adap@@ 4213
resh 4213
shy 4213
state-run 4212
boxing 4211
Coconut 4209
mast@@ 4209
disbelief 4208
liberal 4208
possessed 4208
Wedding 4207
survivors 4207
enjoyment 4206
farm@@ 4206
isha@@ 4206
itches 4206
Bun@@ 4205
Coastal 4205
bamboo 4205
dancer 4205
utterly 4205
Guinea 4204
alpur 4204
willed 4204
floral 4203
poultry 4203
ancestors 4202
Expenditure 4201
Psych@@ 4201
disqualified 4201
heroin 4200
seasonal 4200
Healthcare 4199
Louis 4199
PT 4199
denial 4199
epic 4199
blockade 4198
hind@@ 4198
leather 4198
fraternity 4197
Sag@@ 4196
360 4195
prejudice 4195
PMC 4194
Below 4193
Patekar 4193
Rag@@ 4193
develops 4193
liar 4193
strip 4193
vin 4193
Mandeep 4192
Baat 4191
Inaugur@@ 4191
vocal 4191
Bin 4190
biology 4190
COVID19 4189
Expl@@ 4189
Motion 4189
bombing 4189
tion. 4189
Prak@@ 4188
Mars 4187
capit@@ 4187
imag@@ 4187
county 4186
encro@@ 4186
Loan 4185
concentrate 4185
fortune 4185
Believe 4184
enary 4183
urs 4183
Chander 4182
east@@ 4182
enly 4182
Chhatrapati 4181
arg@@ 4180
brochure 4180
pop 4180
radical 4180
FT@@ 4179
rejection 4179
viewpoint 4179
Kay@@ 4178
collided 4178
quantities 4178
worries 4178
Black@@ 4177
PPE 4177
Technologies 4177
outfits 4177
Dhi@@ 4176
Khaleda 4175
leak 4175
26.@@ 4174
Treaty 4174
acking 4174
amba 4174
http 4173
28.@@ 4172
overwhelmed 4172
prompted 4172
by-@@ 4171
gir@@ 4171
Nep@@ 4170
ounced 4170
Mode 4169
User 4169
constr@@ 4169
paint 4169
three-member 4169
Holder 4168
theories 4168
Coming 4167
Fore@@ 4167
descent 4167
mented 4166
preservation 4166
ski 4166
Bal 4165
Societies 4165
pora 4165
Funds 4164
quits 4164
Ara@@ 4163
consisted 4163
fam@@ 4163
Prabhakar 4162
carved 4162
English@@ 4161
Malaysian 4161
Mug@@ 4161
NSG 4161
advocates 4161
masala 4161
Gok@@ 4160
lessness 4160
vari@@ 4160
Exam 4159
delivers 4158
rammed 4158
rewards 4158
villain 4158
wipe 4158
1949 4157
underlined 4157
Kiren 4155
PH@@ 4155
Shaheen 4155
dom 4155
Boeing 4153
Roc@@ 4152
Interestingly 4151
bare 4151
Bay@@ 4150
asp@@ 4150
constructing 4150
taxation 4150
thin@@ 4150
JK 4149
Pednekar 4149
bypolls 4149
ishers 4149
profitable 4147
deepest 4146
pointing 4146
1.5-litre 4145
Ank@@ 4145
Bank@@ 4145
VS 4145
khar 4145
Palaniswami 4144
Scott 4144
Statue 4144
sphere 4144
el-@@ 4143
meas@@ 4143
osh 4143
real@@ 4143
remarked 4143
warner 4143
helpless 4142
Indian-American 4141
maintains 4141
populations 4141
will@@ 4141
5-megapixel 4139
convenience 4139
quick@@ 4139
Boult 4138
Mosaic 4138
formulated 4138
improvements 4138
550th 4137
Sadly 4137
Sajid 4136
awe 4136
compelled 4136
vandalised 4136
characteristic 4135
Hind 4134
compact 4134
FE@@ 4133
LY 4133
boiling 4133
dismisses 4133
uth@@ 4133
Maneka 4132
coloured 4132
nick@@ 4132
pleaded 4131
holes 4130
sympathy 4130
Circle 4129
Hil@@ 4129
publicity 4129
gran@@ 4128
met@@ 4128
twist 4128
urb@@ 4128
Lot@@ 4127
ague 4127
solving 4127
Jim 4126
Mammootty 4126
mir@@ 4126
Dun@@ 4125
Ok@@ 4125
floating 4125
cooled 4124
shad 4124
popularly 4123
displays 4122
iter 4122
Joy 4120
Kaz@@ 4120
Paper 4120
defended 4120
fast-@@ 4120
indulging 4120
irrit@@ 4119
Geeta 4118
Fashion 4117
Isn 4117
Ramdev 4117
councillors 4117
Reading 4116
Hav@@ 4115
Tirunelveli 4115
notion 4115
utting 4115
Gir@@ 4114
smo@@ 4114
Appellate 4113
Broad 4113
anding 4113
absent 4112
disappointing 4112
DST 4111
Kolhapur 4111
NSS 4111
Than@@ 4111
erous 4111
survivor 4111
Balochistan 4110
corrected 4110
din 4110
Parineeti 4109
Van 4109
analyst 4109
billions 4109
GA 4108
XII 4108
tur 4108
Prof@@ 4107
idd@@ 4107
Shopian 4106
Traders 4106
BJP-Shiv 4105
assed 4105
RR 4104
admits 4104
Initiative 4103
Nadal 4103
bio-@@ 4103
There@@ 4102
portrait 4102
MB@@ 4101
Movies 4101
Shivam 4101
Tea 4101
wed 4101
waived 4100
Boil 4099
CAG 4099
demolished 4099
Archer 4098
enforced 4098
grasp 4098
arpur 4096
cute 4096
unseen 4096
Countries 4095
brass 4095
here@@ 4095
itory 4095
recharge 4095
Ramana 4094
sewage 4094
Melania 4093
essay 4093
Cape 4092
Hopefully 4092
Rajshahi 4092
UD@@ 4092
commemor@@ 4092
publish 4092
Tour 4091
Yellow 4091
aiy@@ 4091
jo 4091
politic@@ 4091
MEA 4090
downpour 4090
ibn 4090
subscription 4090
Heads 4089
postal 4089
Pash@@ 4088
intends 4088
jun@@ 4088
Chaturvedi 4087
conducts 4087
educate 4087
identical 4087
prob@@ 4087
Bills 4086
councillor 4086
dose 4086
neet 4086
Tehran 4085
Woe 4085
motivation 4085
HP 4084
Philistines 4084
wisely 4084
Present 4083
nail 4083
1968 4082
pumps 4082
shoo@@ 4082
itive 4081
spot@@ 4081
uk 4081
wound 4081
refusing 4080
alternate 4079
broader 4078
disruption 4078
gov.in 4078
ody 4078
Permanent 4077
era@@ 4077
raging 4077
Haj 4076
PO 4076
devo@@ 4076
publisher 4076
Chile 4075
comb@@ 4075
enic 4075
zi 4075
crush 4074
hunting 4074
medieval 4074
tization 4074
clinched 4073
yatra 4073
Chal@@ 4072
Ol@@ 4072
Samantha 4072
layers 4072
propose 4072
tournaments 4072
Ahmed@@ 4071
guaranteed 4071
tube 4071
Gram@@ 4069
frontline 4068
m. 4068
painted 4068
Ramayana 4067
exceeding 4067
lookout 4067
slide 4067
Continue 4066
greed 4066
plat@@ 4066
rampant 4066
viable 4066
accompany 4065
erstwhile 4065
valu@@ 4065
Far 4064
IV@@ 4064
captive 4064
plates 4064
pocket 4064
refin@@ 4064
akh 4063
fia 4063
obstruc@@ 4063
strongest 4063
Haridwar 4062
Regular 4062
disastrous 4062
manife@@ 4062
Maritime 4061
cashback 4061
studio 4061
vian 4061
AH@@ 4060
Fr 4060
faithfulness 4060
petitioners 4060
rites 4060
Mukhtar 4059
accuses 4059
anne 4059
pious 4059
placing 4059
apar@@ 4057
ez 4057
chancellor 4056
fet@@ 4056
reap 4056
Bhardwaj 4054
endured 4054
organise 4054
assaulting 4053
dragged 4053
jan@@ 4053
Manjit 4052
awaits 4052
Cuttack 4051
Ox@@ 4051
Square 4051
applicant 4051
fool@@ 4051
listing 4051
Bangabandhu 4050
Hydro@@ 4050
laptop 4049
screen@@ 4049
Rath@@ 4048
aftermath 4048
arrogant 4048
acks 4047
anthem 4047
ided 4047
open@@ 4047
icity 4046
126 4045
UIDAI 4045
beans 4045
curious 4045
particles 4045
memorable 4044
Face 4043
burns 4043
itable 4042
rented 4042
eri@@ 4041
Stri@@ 4040
class@@ 4040
1963 4039
Success 4038
rooted 4038
Gri@@ 4037
anese 4037
Czech 4036
Risk 4036
Shashank 4036
aiming 4036
envoy 4036
human@@ 4036
krishna 4036
pledged 4036
Counting 4035
Warrier 4035
filmmakers 4035
ini@@ 4035
rit 4035
stra 4034
DIG 4032
Enjoy 4032
Kut@@ 4032
Viol@@ 4032
.gov.in 4030
Believers 4030
fabric 4030
keted 4030
Kurnool 4029
Akademi 4028
frustration 4027
tail@@ 4027
Arthur 4025
Ton@@ 4025
repentant 4025
sel 4025
Warriors 4024
absconded 4024
barriers 4024
Philipp@@ 4023
aine 4023
dest@@ 4023
anam 4022
ature 4022
definite 4022
How@@ 4021
airing 4021
deciding 4021
faction 4021
Dan 4020
depos@@ 4020
potentially 4020
keyboard 4019
entries 4018
hostile 4018
Upadhyay 4017
abduction 4017
six@@ 4017
umping 4017
Poonch 4016
plunged 4016
manhunt 4015
Camp 4014
Sig@@ 4014
lied 4014
man-@@ 4014
Ajith 4013
Forbes 4013
Gen. 4013
Hema 4013
Jat@@ 4013
ille 4013
H.@@ 4012
seven@@ 4012
Grewal 4011
blu@@ 4011
Activities 4010
Cambodia 4010
elle 4010
tightened 4010
ts@@ 4010
IndiGo 4009
Rose 4009
beer 4009
enduring 4009
Play@@ 4008
sensors 4008
tag@@ 4007
continuation 4006
relieve 4006
sided 4006
stly 4006
Paytm 4004
Ginger 4003
Post@@ 4003
ven 4003
Sto@@ 4002
blockbuster 4002
hated 4002
ordin@@ 4002
oting 4002
Basket 4001
breeding 4001
debated 4001
Green@@ 3999
Hen@@ 3999
benchmark 3998
Fight 3996
fatigue 3996
humbly 3996
retrieved 3996
vigil 3996
zzle 3995
Biblical 3994
foul 3994
pity 3994
swung 3994
198@@ 3993
Ka 3993
glasses 3993
Dark 3992
Rohan 3992
detect 3992
Vel@@ 3991
Youve 3991
explaining 3991
protocols 3991
Mohd 3990
lamps 3990
vill@@ 3990
Location 3989
chit 3989
conceived 3989
Aryan 3988
inning 3987
character@@ 3986
haz@@ 3986
Fee 3985
Vaj@@ 3985
transform@@ 3985
Multiple 3984
Pakistan-based 3983
naked 3983
quarrel 3983
Drive 3982
Pet@@ 3982
inter 3982
FI 3981
Akh@@ 3980
Compl@@ 3980
Protocol 3980
1940 3979
RIL 3979
Saw@@ 3979
lime 3979
Narinder 3978
dispersed 3978
fornication 3978
ordained 3978
rod 3978
tide 3978
arch 3977
sist@@ 3977
Anganwadi 3976
northeastern 3976
sedan 3976
URL 3975
les@@ 3975
Israelite 3974
Richardson 3974
convince 3974
chal@@ 3973
grab 3973
hurled 3973
rickshaw 3973
til@@ 3973
CR 3972
Million 3972
rebellious 3972
bedroom 3971
forec@@ 3971
uphold 3971
e.@@ 3970
Chha@@ 3969
calf 3969
constitu@@ 3969
nutritious 3969
Pennsylvania 3968
ership 3968
kari 3968
semifinal 3968
Oppo 3967
envisaged 3967
qualifications 3967
Bharat@@ 3966
knot 3966
116 3964
Tensions 3964
announcements 3964
Marsh 3963
Villagers 3963
GH@@ 3962
indicators 3962
romance 3962
-16 3961
Kr@@ 3961
MT@@ 3961
shaken 3960
Log@@ 3959
Manik@@ 3959
signals 3959
urt 3959
communicated 3958
cater 3957
demolition 3956
Chamber 3955
lean 3955
Murder 3954
Room 3954
ayam 3954
1966 3953
Discussions 3953
Macron 3952
forged 3952
ign 3952
mislead 3952
portions 3952
stealing 3952
Dim@@ 3951
Shr@@ 3951
Yash@@ 3951
underlying 3951
aids 3950
discern 3950
misled 3950
peti@@ 3950
Screen 3949
bits 3949
occurrence 3949
shouldn 3949
PR 3948
Saheb 3948
sement 3948
Jonny 3947
Sonowal 3947
amp 3947
gn@@ 3947
perceive 3947
Creations 3946
Package 3946
MU@@ 3945
Rap@@ 3945
Rinse 3945
aun 3945
cia 3945
Pav@@ 3944
planets 3944
X-@@ 3943
slight 3943
Accoun@@ 3942
Eligibility 3942
Jimmy 3942
Nepali 3942
secretly 3942
Duke 3941
life-@@ 3941
Cr 3938
Ls 3938
Rejuvenation 3937
slavery 3937
tissue 3937
bypoll 3936
esha 3936
horror 3936
liable 3936
ushed 3936
abolished 3935
authored 3935
Celebrations 3934
Lod@@ 3934
Rane 3934
altercation 3934
regrets 3933
weighed 3933
Allow 3932
Nom@@ 3932
emotion 3932
resemb@@ 3932
tancy 3932
Amy 3931
emission 3931
hic 3931
relaxation 3931
Danish 3930
Yas@@ 3930
valuation 3930
vide 3930
Aditi 3929
Import 3929
saint 3929
acquainted 3928
compe@@ 3928
emon 3928
Aus@@ 3927
Investors 3927
apo@@ 3927
proj@@ 3927
rib@@ 3927
12-@@ 3925
Usually 3925
nourish@@ 3925
2025 3923
attacker 3923
replacing 3923
Rac@@ 3922
Spo@@ 3921
Faisal 3920
abbing 3920
meg@@ 3920
trag@@ 3920
confirms 3919
Fish 3918
buil@@ 3918
Color 3917
Inst@@ 3917
alising 3917
appearances 3917
118 3916
Krishnan 3916
Murli 3916
all-new 3916
foster 3916
Maratha 3915
tremors 3915
1946 3914
Micah 3914
desp@@ 3914
enced 3914
Noble 3913
Sana 3913
tip 3913
trou@@ 3913
avoiding 3912
inte@@ 3912
miserable 3912
rest@@ 3912
Mysuru 3911
itys 3911
marvelous 3911
lon 3910
vested 3910
sunlight 3909
trips 3909
rub 3908
whomever 3908
Bos@@ 3907
Editor 3907
Half 3907
multilateral 3907
corners 3906
cruise 3906
eria 3906
nit@@ 3905
Pradeshs 3904
TRA@@ 3904
adjust 3904
dication 3904
45@@ 3903
raw@@ 3903
shu 3903
ex-showroom 3902
midnight 3902
Mira 3901
monument 3901
sia 3901
sweets 3901
Naga 3900
nings 3899
plain@@ 3899
reminds 3899
testify 3899
2,5@@ 3898
axis 3898
monuments 3897
puri@@ 3897
Islam@@ 3896
agi 3896
Prov 3895
ceremonies 3895
spac@@ 3895
thar@@ 3895
Childrens 3894
Rock 3894
Broad@@ 3893
Jones 3893
Ye 3893
1958 3892
Blessed 3892
Promo@@ 3892
disciplines 3892
ecture 3891
five-match 3891
Kathmandu 3890
Uri 3890
Vision 3890
damaging 3890
ornaments 3890
incomplete 3889
Panda 3888
furious 3888
Gop@@ 3887
fried 3887
ype 3887
steep 3886
2,0@@ 3885
Guj@@ 3885
sprin@@ 3885
tables 3885
accommod@@ 3884
basin 3884
Pha@@ 3883
kicked 3883
GR@@ 3882
evolving 3882
lease 3882
Cause 3881
eman@@ 3881
CE 3880
Hitler 3880
Steps 3880
bow@@ 3880
nest 3880
Bow@@ 3879
battles 3879
cross@@ 3879
exam@@ 3879
indices 3879
1964 3878
conve@@ 3878
counts 3878
massacre 3878
teenage 3878
Caribbean 3877
colonies 3877
directives 3877
progressed 3877
60,000 3876
Ashram 3876
rish@@ 3876
Petition 3875
Satellite 3875
unlawful 3874
Bac@@ 3873
Saurabh 3873
predict 3873
Jaw@@ 3872
Coach 3871
itate 3871
scary 3871
omi 3870
thrilling 3870
Shik@@ 3869
Solicitor 3869
dissolved 3869
enter@@ 3869
Tak@@ 3868
Lemon 3867
RA 3866
country@@ 3866
ete 3866
jute 3866
ounc@@ 3866
Sheh@@ 3865
compatible 3865
Jos@@ 3864
Kham@@ 3864
Pope 3864
kingdoms 3864
Interview 3863
Speech 3863
ary-@@ 3863
ressed 3863
colony 3862
uch 3862
co-operation 3861
eleven 3861
DR 3860
credibility 3860
upgradation 3860
Framework 3859
PK 3859
captivity 3859
Cast 3858
Fourth 3858
JS 3858
Quali@@ 3858
Rest@@ 3858
ATE 3857
Anwar 3857
Godse 3857
Gow@@ 3857
gaz@@ 3857
Amaz@@ 3856
incidence 3856
requ@@ 3856
Colombia 3855
Koth@@ 3855
RT@@ 3854
architect 3854
countless 3854
esan 3854
functionaries 3854
vas 3854
Sury@@ 3853
cheese 3853
motives 3853
sadness 3853
scarcity 3853
Activ@@ 3852
Neetu 3852
embrace 3852
gentle 3851
u-@@ 3851
Fal@@ 3850
Nayak 3850
brick 3850
conceded 3850
AA 3849
Confederation 3849
Product 3849
Kall@@ 3848
you@@ 3848
azi 3847
dioxide 3847
round@@ 3847
tit@@ 3847
uds 3847
autom@@ 3846
hydrogen 3846
occurring 3845
acids 3844
Notification 3843
athon 3843
secrets 3843
CEOs 3842
Ks 3842
Libya 3842
MlA 3842
Rot@@ 3842
ood 3842
Muzaffarnagar 3841
jol@@ 3841
Cat@@ 3840
displaced 3840
et-@@ 3839
je 3839
shapes 3839
NCB 3838
cross-@@ 3838
Release 3837
Uganda 3837
threatens 3837
runway 3836
Adelaide 3835
Dialogue 3835
Engineers 3835
Hind@@ 3835
Karn@@ 3835
Moeen 3835
Morocco 3835
Polish 3835
111 3834
Chanda 3834
Deverakonda 3834
INDIA 3834
arajan 3834
pig@@ 3834
Rashmika 3833
Secret 3833
askar 3833
highest-@@ 3833
poorest 3833
Long@@ 3832
disobedience 3832
teenagers 3832
earthquakes 3831
impetus 3831
prosper 3831
clari@@ 3830
mouse 3830
240 3829
Audi 3829
alarm 3829
eral 3829
grip 3829
lash 3829
perfection 3829
var 3829
far@@ 3828
proves 3828
100,000 3827
29.@@ 3827
Chang@@ 3825
opponent 3825
Kia 3824
Swe@@ 3824
Za@@ 3824
fatality 3824
Thessalonians 3823
instruc@@ 3823
refugee 3823
tel 3823
Antonio 3822
Earthquake 3821
Hows 3821
Pre-@@ 3821
Zuckerberg 3821
naming 3821
Kasaragod 3820
etic 3820
Ahuja 3817
Peel 3817
autonomy 3817
drag@@ 3817
Bho@@ 3815
dividend 3815
evangeli@@ 3815
Prev@@ 3814
los@@ 3813
Isa 3812
Spokesperson 3812
observers 3812
Jac@@ 3811
Numbers 3811
Sorry 3811
Tah@@ 3811
Tibetan 3811
Miller 3810
panels 3810
Aksha@@ 3809
suburban 3809
Chemistry 3808
Clear 3808
Sound 3808
190 3807
Gab@@ 3807
Isha 3805
Singhvi 3805
seas 3805
Au@@ 3804
Venezuela 3804
invasion 3804
24th 3803
Slov@@ 3803
compliant 3803
behavi@@ 3802
public@@ 3802
planting 3801
ro-@@ 3801
1.3 3800
Sangrur 3800
Appeal 3799
Divine 3799
Pho@@ 3799
Santa 3799
odes 3799
Agr@@ 3798
Hit@@ 3798
Nin@@ 3798
Chandi@@ 3797
Jab@@ 3797
SM@@ 3797
Sirisena 3797
Wilson 3797
arh 3797
placement 3797
tter 3797
Cain 3796
val 3796
Nax@@ 3795
aide 3795
gambling 3795
quoting 3795
ariya 3794
regulator 3794
420 3793
Poverty 3793
earth. 3793
tariffs 3793
2012-13 3792
Brar 3792
full-time 3792
reviewing 3792
Amma 3791
anic 3791
creed 3791
infra@@ 3791
tortured 3791
ambi 3790
complications 3790
ritual 3790
Connectivity 3789
oppressed 3789
tom@@ 3789
boiled 3788
Suman 3787
RTC 3786
slowed 3786
Estimates 3784
ject 3784
supplying 3784
ulating 3784
Renault 3783
Sita 3783
avenues 3783
kick@@ 3783
queues 3783
archi@@ 3782
Sky 3781
atti 3781
Richter 3780
Todays 3780
imposing 3780
Volume 3779
downs 3779
interc@@ 3779
solely 3779
Markets 3778
Obviously 3778
Write 3778
catches 3778
extortion 3777
rivalry 3777
strangers 3777
Teaching 3776
Venkatesh 3776
Yashwant 3776
patrolling 3776
stretched 3776
Forests 3775
Gwalior 3775
allotment 3775
anded 3775
astic 3775
insu@@ 3775
net@@ 3775
omes 3775
Anything 3774
Fernandez 3774
explosives 3774
helmet 3774
kir@@ 3774
Tony 3773
incense 3773
packs 3773
textiles 3773
persec@@ 3772
sit@@ 3772
uts 3772
Taapsee 3771
forefront 3771
shifting 3771
tible 3771
drastically 3770
lip 3770
Ajmer 3769
Customers 3769
Meg@@ 3769
RO 3769
Subram@@ 3769
ev 3769
allur 3768
pharmaceutical 3768
ville 3768
Glass 3767
Islamia 3767
Takht 3767
arika 3767
exile 3767
rifle 3767
256 3766
carto@@ 3766
patt@@ 3766
uro@@ 3765
Dairy 3764
wada 3763
prestige 3762
220 3761
Agencies 3761
KTM 3761
bull 3761
conquered 3761
dishes 3761
Nazi 3760
illi 3760
Raveesh 3758
fli@@ 3758
titular 3758
Dean 3757
Lakshadweep 3757
ampur 3757
grow@@ 3757
Diljit 3755
Vihar 3754
stimul@@ 3754
Bala 3753
Sivan 3753
e-based 3753
mounting 3753
precisely 3753
Ath@@ 3752
bearer 3752
tussle 3752
Konkan 3751
bour@@ 3751
chant 3751
substances 3751
verify 3751
Fri@@ 3749
Missing 3749
Buddhists 3748
Diploma 3748
Set@@ 3748
barrel 3748
achar@@ 3747
contention 3747
dialogues 3747
discre@@ 3747
forgiven 3747
pounds 3747
32@@ 3746
Camera 3746
Giriraj 3746
resignations 3746
proceeds 3744
Baghdad 3742
Sacred 3742
Shramik 3742
Post-@@ 3741
VA 3741
Balwinder 3740
Emmanuel 3740
eze 3740
evel@@ 3739
Previously 3738
Unemployment 3738
flu@@ 3738
proclaim 3738
wav@@ 3738
Tai@@ 3737
homeless 3737
lob@@ 3737
owe 3737
wid@@ 3737
deficiency 3736
Vari@@ 3735
physi@@ 3735
saves 3735
Lou@@ 3734
Tol@@ 3734
activated 3734
124 3733
Indus 3733
Thai 3733
demonstrators 3733
m-@@ 3733
esting 3732
praising 3732
usi@@ 3732
40-@@ 3731
uti@@ 3731
CII 3730
bec@@ 3730
kick 3730
bay 3729
seas@@ 3729
Egyptians 3728
Euro@@ 3728
firefighters 3727
merchants 3727
spect@@ 3727
uation 3727
Ow@@ 3726
PD 3726
Pil@@ 3726
Spec@@ 3726
agitating 3726
in-laws 3726
lightly 3726
sanitary 3725
recite 3724
scripture 3723
Majority 3722
Bopanna 3721
Chh@@ 3721
graphy 3721
cum 3719
ict 3719
Got 3718
Mothers 3718
ATS 3717
Harv@@ 3717
Reduce 3717
coordinate 3717
interpre@@ 3717
Apollo 3716
KDE 3716
Azmi 3715
Fle@@ 3715
absor@@ 3715
actor-@@ 3715
emotionally 3715
-11 3714
Appreci@@ 3714
assumption 3714
Khulna 3713
PU 3713
Pin@@ 3713
Shre@@ 3713
26th 3711
Fine 3711
Hand 3711
Plat@@ 3711
1954 3710
Academic 3710
GE@@ 3710
begotten 3710
consu@@ 3710
gotten 3710
precise 3710
struction 3710
cus@@ 3709
Amin 3708
GNOME 3708
sells 3708
Ma 3707
Skoda 3707
justices 3707
termin@@ 3707
trail 3707
Chaudhry 3706
Marg 3706
continually 3706
FY@@ 3705
Oli 3705
Biju 3704
Taj@@ 3704
enny 3704
tod@@ 3704
Hezekiah 3703
Youn@@ 3703
Blair 3701
Sirsa 3701
fer 3701
vation 3701
incentive 3700
ouncing 3700
HA 3699
arti@@ 3699
educ@@ 3699
1930 3697
basketball 3697
comforting 3697
ffed 3697
pression 3697
Integr@@ 3696
clients 3696
ch-@@ 3695
life@@ 3695
Images 3694
NDTV 3694
oding 3694
Khawaja 3693
Gaj@@ 3692
Morris 3692
dle 3692
ologically 3692
Jubilee 3691
cartridges 3691
contaminated 3691
Ei@@ 3690
artistes 3690
maxim@@ 3690
purely 3690
Bachelor 3689
Pay@@ 3689
beli@@ 3689
equals 3689
flown 3689
kas 3689
LD 3688
Veer 3688
hung 3688
sodium 3688
tablets 3688
Institution 3687
theat@@ 3687
FOR@@ 3686
Meenakshi 3686
bloggers 3686
door@@ 3686
121 3685
Huge 3685
Pathak 3685
Prad@@ 3685
Rom 3685
guarded 3685
practicing 3685
1920 3684
Amaravati 3684
inception 3684
Jio@@ 3683
erial 3683
Diwas 3682
organisers 3682
broadband 3681
oxide 3681
pray@@ 3681
void 3681
Arti@@ 3680
Cho@@ 3680
banning 3680
counterparts 3680
kat@@ 3680
Congress-JD 3678
Guardian 3678
juvenile 3678
tting 3678
H. 3677
LTE 3677
Sameer 3677
dozens 3677
https 3677
ultra-@@ 3677
33@@ 3676
failures 3676
culmin@@ 3675
publ@@ 3675
ISA 3674
ka@@ 3674
managers 3674
Subhas 3673
dishon@@ 3673
pron@@ 3673
cost@@ 3672
itably 3672
Dawood 3671
Kapoors 3671
Pam@@ 3671
Tang@@ 3671
Trees 3671
illi@@ 3671
Cad@@ 3670
SL@@ 3670
Peru 3669
Wood 3668
baking 3667
ectors 3667
reflecting 3667
snapped 3667
umin@@ 3667
Assamese 3666
rendra 3666
architectural 3665
historians 3665
oked 3665
destiny 3664
thick@@ 3664
arre@@ 3663
KP 3662
lender 3662
maize 3662
roadside 3662
wireless 3662
eed 3660
electr@@ 3660
certainty 3659
intern@@ 3659
tongues 3659
anism 3658
digit 3658
ghs 3658
government-@@ 3658
inking 3658
standstill 3658
translations 3658
Ale@@ 3657
Tejas 3657
antine 3657
stairs 3657
uni 3657
vow 3657
Plans 3656
righ@@ 3656
Jakhar 3655
Words 3655
outgoing 3655
bes@@ 3654
confrontation 3654
essed 3654
stationed 3654
comparable 3652
whe@@ 3652
LTTE 3651
Writing 3651
erti@@ 3651
rulership 3651
Jinnah 3650
Mathematics 3650
cloudy 3650
Regist@@ 3649
edi@@ 3649
est-@@ 3649
scare 3649
Arbaaz 3648
Hazare 3648
distinguish 3648
Jaiswal 3647
Joginder 3647
Rekha 3647
respectful 3647
Lines 3646
curry 3646
springs 3646
Sohail 3644
ition 3644
Congress@@ 3643
DoNER 3643
Benefit 3642
Hizbul 3642
dealers 3642
gan 3642
rag@@ 3642
impart 3641
insul@@ 3641
ington 3640
4000 3638
US-@@ 3638
3,9@@ 3637
Equ@@ 3637
Maoist 3637
chairmanship 3637
fascinating 3637
towers 3636
isting 3635
stan 3635
N-@@ 3634
Resolution 3634
logo 3634
plic@@ 3634
ponder 3634
Kathua 3633
Regulations 3633
entertain 3633
them@@ 3633
uan 3633
eu 3632
nie 3632
sie 3632
traded 3632
0.5 3631
Garlic 3631
Speed 3631
Creation 3630
Ports 3630
Serena 3630
ulture 3630
Commissions 3629
Irish 3628
[...]
